// ProsperityHDL Tile Data (256x16)
// Format: 16-bit hex values, one per row
// Total rows: 256
// Generated from SDT CIFAR-10 data

row_000: 0x0400
row_001: 0x0002
row_002: 0x2000
row_003: 0x2100
row_004: 0x0001
row_005: 0x2000
row_006: 0x0080
row_007: 0x8102
row_008: 0x0018
row_009: 0x8000
row_010: 0x0202
row_011: 0x0480
row_012: 0x0021
row_013: 0x0308
row_014: 0x0800
row_015: 0x8000
row_016: 0x8110
row_017: 0x1000
row_018: 0x0004
row_019: 0x4202
row_020: 0x0002
row_021: 0x1000
row_022: 0x0080
row_023: 0x1000
row_024: 0x000A
row_025: 0x0002
row_026: 0x2200
row_027: 0x0100
row_028: 0x2000
row_029: 0x0080
row_030: 0x0006
row_031: 0x0902
row_032: 0x0018
row_033: 0x4002
row_034: 0x0008
row_035: 0x0200
row_036: 0x0001
row_037: 0x0308
row_038: 0x0044
row_039: 0x0021
row_040: 0x8110
row_041: 0x1000
row_042: 0x8800
row_043: 0x4200
row_044: 0x0100
row_045: 0x9000
row_046: 0x8000
row_047: 0x0080
row_048: 0x0400
row_049: 0x0002
row_050: 0x2200
row_051: 0x0800
row_052: 0x0020
row_053: 0x0C00
row_054: 0x8080
row_055: 0x0142
row_056: 0x4008
row_057: 0x0020
row_058: 0x8000
row_059: 0x0200
row_060: 0x2001
row_061: 0x0108
row_062: 0x0020
row_063: 0x0020
row_064: 0x4010
row_065: 0x0013
row_066: 0x2120
row_067: 0x4200
row_068: 0x0085
row_069: 0x9000
row_070: 0x0180
row_071: 0x0081
row_072: 0x0400
row_073: 0x0002
row_074: 0x2204
row_075: 0x0498
row_076: 0x00A1
row_077: 0x0328
row_078: 0x0080
row_079: 0x0142
row_080: 0x0008
row_081: 0x1000
row_082: 0x0002
row_083: 0x0200
row_084: 0x0021
row_085: 0x0108
row_086: 0x0020
row_087: 0x5010
row_088: 0x0810
row_089: 0x0106
row_090: 0x3208
row_091: 0x4200
row_092: 0x2100
row_093: 0x1000
row_094: 0x2080
row_095: 0x0081
row_096: 0x4400
row_097: 0x0082
row_098: 0x6204
row_099: 0x0208
row_100: 0x0041
row_101: 0x0200
row_102: 0x0480
row_103: 0x0142
row_104: 0x0018
row_105: 0x1000
row_106: 0x4080
row_107: 0x0200
row_108: 0x0021
row_109: 0x0108
row_110: 0x0020
row_111: 0x0001
row_112: 0x8010
row_113: 0x0182
row_114: 0x2600
row_115: 0x4200
row_116: 0x00B0
row_117: 0x9000
row_118: 0xA080
row_119: 0x0481
row_120: 0x4848
row_121: 0x0682
row_122: 0x6214
row_123: 0x1220
row_124: 0x2011
row_125: 0x018A
row_126: 0x0480
row_127: 0x9042
row_128: 0x0018
row_129: 0x1020
row_130: 0x4080
row_131: 0x0200
row_132: 0x0020
row_133: 0x0108
row_134: 0x0020
row_135: 0x0022
row_136: 0x0110
row_137: 0x0008
row_138: 0x0010
row_139: 0x4600
row_140: 0x0002
row_141: 0x0140
row_142: 0x4100
row_143: 0x0001
row_144: 0x0400
row_145: 0x0062
row_146: 0x2310
row_147: 0x0100
row_148: 0x2000
row_149: 0x0010
row_150: 0x8480
row_151: 0x9102
row_152: 0x2018
row_153: 0x8000
row_154: 0x4000
row_155: 0x0200
row_156: 0x0800
row_157: 0x0108
row_158: 0x0020
row_159: 0x0080
row_160: 0x0130
row_161: 0x1000
row_162: 0x0020
row_163: 0x4212
row_164: 0x0A80
row_165: 0x1000
row_166: 0x8080
row_167: 0x0001
row_168: 0x4400
row_169: 0x0022
row_170: 0x3100
row_171: 0x2180
row_172: 0x0800
row_173: 0x4108
row_174: 0x4080
row_175: 0x8102
row_176: 0x2012
row_177: 0x2000
row_178: 0x0008
row_179: 0x0200
row_180: 0x2001
row_181: 0x0008
row_182: 0x0020
row_183: 0x0004
row_184: 0x2110
row_185: 0x1000
row_186: 0x020C
row_187: 0x4000
row_188: 0x0109
row_189: 0x0400
row_190: 0xA000
row_191: 0x0100
row_192: 0x0400
row_193: 0x0022
row_194: 0x2001
row_195: 0x2181
row_196: 0xA002
row_197: 0x0008
row_198: 0x0080
row_199: 0x8902
row_200: 0x001A
row_201: 0x1010
row_202: 0x8008
row_203: 0x0200
row_204: 0x0020
row_205: 0x0308
row_206: 0x0026
row_207: 0x000A
row_208: 0xA110
row_209: 0x1000
row_210: 0x0A00
row_211: 0x0200
row_212: 0x0100
row_213: 0x0B00
row_214: 0x0010
row_215: 0x0001
row_216: 0x2140
row_217: 0x0022
row_218: 0x2000
row_219: 0x0181
row_220: 0x8840
row_221: 0x8000
row_222: 0x0080
row_223: 0x8902
row_224: 0x001C
row_225: 0x1004
row_226: 0x2401
row_227: 0x0200
row_228: 0x0001
row_229: 0x0308
row_230: 0x0026
row_231: 0x0002
row_232: 0xA010
row_233: 0x1100
row_234: 0x0818
row_235: 0x0600
row_236: 0x0500
row_237: 0x1000
row_238: 0x8800
row_239: 0x00A0
row_240: 0x0400
row_241: 0x0222
row_242: 0x2200
row_243: 0x0100
row_244: 0x0008
row_245: 0x0001
row_246: 0x0480
row_247: 0x8142
row_248: 0x000C
row_249: 0x1004
row_250: 0x9000
row_251: 0x0200
row_252: 0x0001
row_253: 0x0108
row_254: 0x0824
row_255: 0x0080
