// ProSparsity Hardware Test Data (256 neurons × 16 timesteps)
// Format: 16-bit hex values, one per neuron row
// Total neurons: 256
// Raw spike data for ProSparsity reuse detection

neuron_000: 0x0402
neuron_001: 0x0002
neuron_002: 0x2000
neuron_003: 0x2100
neuron_004: 0x0000
neuron_005: 0x0000
neuron_006: 0x0080
neuron_007: 0xC102
neuron_008: 0x0818
neuron_009: 0x9000
neuron_010: 0x0000
neuron_011: 0x0000
neuron_012: 0x0021
neuron_013: 0x0308
neuron_014: 0x0800
neuron_015: 0x0000
neuron_016: 0x8110
neuron_017: 0x1010
neuron_018: 0x0000
neuron_019: 0x4202
neuron_020: 0x0400
neuron_021: 0x1000
neuron_022: 0x0080
neuron_023: 0x0000
neuron_024: 0x0002
neuron_025: 0x0002
neuron_026: 0x2200
neuron_027: 0x0100
neuron_028: 0x0000
neuron_029: 0x0000
neuron_030: 0x0080
neuron_031: 0x4902
neuron_032: 0x0018
neuron_033: 0x1000
neuron_034: 0x1008
neuron_035: 0x0200
neuron_036: 0x0001
neuron_037: 0x0308
neuron_038: 0x0000
neuron_039: 0x0021
neuron_040: 0x8110
neuron_041: 0x1000
neuron_042: 0x0000
neuron_043: 0x4200
neuron_044: 0x0580
neuron_045: 0x9000
neuron_046: 0x0080
neuron_047: 0x0080
neuron_048: 0x0402
neuron_049: 0x0002
neuron_050: 0x2280
neuron_051: 0x0001
neuron_052: 0x0000
neuron_053: 0x0080
neuron_054: 0x8080
neuron_055: 0x4142
neuron_056: 0x4008
neuron_057: 0x1020
neuron_058: 0x0080
neuron_059: 0x0200
neuron_060: 0x0000
neuron_061: 0x0108
neuron_062: 0x0000
neuron_063: 0x0020
neuron_064: 0x4010
neuron_065: 0x0010
neuron_066: 0x1000
neuron_067: 0x4200
neuron_068: 0x0400
neuron_069: 0x9000
neuron_070: 0x0080
neuron_071: 0x0081
neuron_072: 0x4482
neuron_073: 0x0002
neuron_074: 0x2284
neuron_075: 0x0060
neuron_076: 0x0000
neuron_077: 0x0820
neuron_078: 0x0080
neuron_079: 0x41C2
neuron_080: 0x0008
neuron_081: 0x1000
neuron_082: 0x1002
neuron_083: 0x0220
neuron_084: 0x05A1
neuron_085: 0x0108
neuron_086: 0x0024
neuron_087: 0x0000
neuron_088: 0x0810
neuron_089: 0x0010
neuron_090: 0x1000
neuron_091: 0x4200
neuron_092: 0x0400
neuron_093: 0x1000
neuron_094: 0x2181
neuron_095: 0x0081
neuron_096: 0x4402
neuron_097: 0x0082
neuron_098: 0x6284
neuron_099: 0x0020
neuron_100: 0x0000
neuron_101: 0x0201
neuron_102: 0x04CA
neuron_103: 0xC1C2
neuron_104: 0x4818
neuron_105: 0x1000
neuron_106: 0x4080
neuron_107: 0x0220
neuron_108: 0x00A1
neuron_109: 0x0108
neuron_110: 0x0030
neuron_111: 0x0001
neuron_112: 0xC010
neuron_113: 0x0010
neuron_114: 0x1000
neuron_115: 0x4200
neuron_116: 0x0400
neuron_117: 0x9000
neuron_118: 0xA080
neuron_119: 0x0481
neuron_120: 0x0000
neuron_121: 0x0682
neuron_122: 0x6214
neuron_123: 0x0080
neuron_124: 0x0000
neuron_125: 0x0000
neuron_126: 0x0480
neuron_127: 0xD0C2
neuron_128: 0x0018
neuron_129: 0x3820
neuron_130: 0x4080
neuron_131: 0x0200
neuron_132: 0x0020
neuron_133: 0x0108
neuron_134: 0x0020
neuron_135: 0x0010
neuron_136: 0x4110
neuron_137: 0x0010
neuron_138: 0x0000
neuron_139: 0x4600
neuron_140: 0x0402
neuron_141: 0x0140
neuron_142: 0x0080
neuron_143: 0x0000
neuron_144: 0x0402
neuron_145: 0x0062
neuron_146: 0x2390
neuron_147: 0x0100
neuron_148: 0x0000
neuron_149: 0x0010
neuron_150: 0x8480
neuron_151: 0xD182
neuron_152: 0x2018
neuron_153: 0xB000
neuron_154: 0x4000
neuron_155: 0x4200
neuron_156: 0x0000
neuron_157: 0x0108
neuron_158: 0x0020
neuron_159: 0x0000
neuron_160: 0x4130
neuron_161: 0x5010
neuron_162: 0x0000
neuron_163: 0x4212
neuron_164: 0x0400
neuron_165: 0x1000
neuron_166: 0x8080
neuron_167: 0x0001
neuron_168: 0x4402
neuron_169: 0x0022
neuron_170: 0x3100
neuron_171: 0x2181
neuron_172: 0x1800
neuron_173: 0x0000
neuron_174: 0x4080
neuron_175: 0xC102
neuron_176: 0x201A
neuron_177: 0x1800
neuron_178: 0x0000
neuron_179: 0x0200
neuron_180: 0x2001
neuron_181: 0x0008
neuron_182: 0x0020
neuron_183: 0x0430
neuron_184: 0x6110
neuron_185: 0x3014
neuron_186: 0x0100
neuron_187: 0x4000
neuron_188: 0x0400
neuron_189: 0x1000
neuron_190: 0xA090
neuron_191: 0x0040
neuron_192: 0x0602
neuron_193: 0x0022
neuron_194: 0x2001
neuron_195: 0x2181
neuron_196: 0x0000
neuron_197: 0x0808
neuron_198: 0x0088
neuron_199: 0xD982
neuron_200: 0x081B
neuron_201: 0x1010
neuron_202: 0x0000
neuron_203: 0x0220
neuron_204: 0x0021
neuron_205: 0x0308
neuron_206: 0x0026
neuron_207: 0x0000
neuron_208: 0xA110
neuron_209: 0x1000
neuron_210: 0x0000
neuron_211: 0x4200
neuron_212: 0x0500
neuron_213: 0x1000
neuron_214: 0x0080
neuron_215: 0x0005
neuron_216: 0x080A
neuron_217: 0x2062
neuron_218: 0x2000
neuron_219: 0x01A1
neuron_220: 0x1000
neuron_221: 0x8800
neuron_222: 0x00AA
neuron_223: 0x8902
neuron_224: 0x081D
neuron_225: 0x1804
neuron_226: 0x0000
neuron_227: 0x0200
neuron_228: 0x0401
neuron_229: 0x0308
neuron_230: 0x0026
neuron_231: 0x0002
neuron_232: 0xE010
neuron_233: 0x1110
neuron_234: 0x0000
neuron_235: 0x4600
neuron_236: 0x0500
neuron_237: 0x1000
neuron_238: 0x8880
neuron_239: 0x00E4
neuron_240: 0x040A
neuron_241: 0x2222
neuron_242: 0x2200
neuron_243: 0x01A0
neuron_244: 0x0000
neuron_245: 0x0001
neuron_246: 0x0480
neuron_247: 0xC142
neuron_248: 0x000C
neuron_249: 0x1004
neuron_250: 0x0000
neuron_251: 0x0200
neuron_252: 0x0401
neuron_253: 0x0108
neuron_254: 0x0824
neuron_255: 0x0000
