// ProSparsity Hardware Test Data (256 neurons × 16 timesteps)
// Format: 16-bit hex values, one per neuron row
// Total neurons: 256
// Raw spike data for ProSparsity reuse detection

neuron_000: 0x048A
neuron_001: 0x0002
neuron_002: 0x2020
neuron_003: 0x21A0
neuron_004: 0x0000
neuron_005: 0x0024
neuron_006: 0x4083
neuron_007: 0xC102
neuron_008: 0x0819
neuron_009: 0xB000
neuron_010: 0x0000
neuron_011: 0x0080
neuron_012: 0x0021
neuron_013: 0x0308
neuron_014: 0x0848
neuron_015: 0x0080
neuron_016: 0xE510
neuron_017: 0x9090
neuron_018: 0x4128
neuron_019: 0x4203
neuron_020: 0x0400
neuron_021: 0x5000
neuron_022: 0x2882
neuron_023: 0x0500
neuron_024: 0x000A
neuron_025: 0x0006
neuron_026: 0x2240
neuron_027: 0x0100
neuron_028: 0x0100
neuron_029: 0x0800
neuron_030: 0x4081
neuron_031: 0x4902
neuron_032: 0x0018
neuron_033: 0x1000
neuron_034: 0x1008
neuron_035: 0x4200
neuron_036: 0x0001
neuron_037: 0x4308
neuron_038: 0x0008
neuron_039: 0x0061
neuron_040: 0xA510
neuron_041: 0x1010
neuron_042: 0x4020
neuron_043: 0x4201
neuron_044: 0x15A0
neuron_045: 0xB008
neuron_046: 0x0881
neuron_047: 0x4480
neuron_048: 0x048A
neuron_049: 0x2006
neuron_050: 0x2280
neuron_051: 0x0001
neuron_052: 0x0000
neuron_053: 0x4090
neuron_054: 0xC082
neuron_055: 0x4142
neuron_056: 0x4009
neuron_057: 0x1021
neuron_058: 0x0080
neuron_059: 0x0200
neuron_060: 0x0000
neuron_061: 0x010C
neuron_062: 0x1040
neuron_063: 0x0020
neuron_064: 0x6510
neuron_065: 0x0010
neuron_066: 0x5520
neuron_067: 0x4204
neuron_068: 0x1400
neuron_069: 0xB000
neuron_070: 0x0080
neuron_071: 0x0481
neuron_072: 0x448A
neuron_073: 0x2006
neuron_074: 0x2384
neuron_075: 0x0862
neuron_076: 0x4840
neuron_077: 0x1934
neuron_078: 0x4082
neuron_079: 0x41C2
neuron_080: 0x0248
neuron_081: 0x1000
neuron_082: 0x1002
neuron_083: 0x4220
neuron_084: 0x05A1
neuron_085: 0x010C
neuron_086: 0x4024
neuron_087: 0x0080
neuron_088: 0xAD10
neuron_089: 0x8010
neuron_090: 0x5120
neuron_091: 0x4201
neuron_092: 0x1488
neuron_093: 0x1010
neuron_094: 0x2181
neuron_095: 0x0481
neuron_096: 0x440A
neuron_097: 0x2082
neuron_098: 0x6284
neuron_099: 0x0020
neuron_100: 0x0100
neuron_101: 0x4215
neuron_102: 0x44CA
neuron_103: 0xC1C2
neuron_104: 0x4A19
neuron_105: 0x1002
neuron_106: 0x4084
neuron_107: 0x42A2
neuron_108: 0x80A1
neuron_109: 0x010C
neuron_110: 0x0130
neuron_111: 0x0011
neuron_112: 0xE510
neuron_113: 0x0010
neuron_114: 0x5120
neuron_115: 0x4305
neuron_116: 0x1480
neuron_117: 0x9010
neuron_118: 0xA080
neuron_119: 0x04C1
neuron_120: 0x1088
neuron_121: 0x0682
neuron_122: 0x6214
neuron_123: 0x00A0
neuron_124: 0x4000
neuron_125: 0x0004
neuron_126: 0x4481
neuron_127: 0xD0C2
neuron_128: 0x0218
neuron_129: 0x3820
neuron_130: 0x4080
neuron_131: 0x0A80
neuron_132: 0x0020
neuron_133: 0x010C
neuron_134: 0x0060
neuron_135: 0x0010
neuron_136: 0xE510
neuron_137: 0x0010
neuron_138: 0x4520
neuron_139: 0x4605
neuron_140: 0x1402
neuron_141: 0x4140
neuron_142: 0x2080
neuron_143: 0x0400
neuron_144: 0x0482
neuron_145: 0x0462
neuron_146: 0x2390
neuron_147: 0x0300
neuron_148: 0x0000
neuron_149: 0x0036
neuron_150: 0x84A1
neuron_151: 0xD182
neuron_152: 0x2019
neuron_153: 0xB000
neuron_154: 0x4000
neuron_155: 0x4200
neuron_156: 0x0000
neuron_157: 0x0108
neuron_158: 0x0020
neuron_159: 0x0100
neuron_160: 0x6530
neuron_161: 0x5010
neuron_162: 0x4400
neuron_163: 0x4212
neuron_164: 0x0400
neuron_165: 0x1000
neuron_166: 0x8080
neuron_167: 0x0001
neuron_168: 0x4402
neuron_169: 0x0422
neuron_170: 0x31A0
neuron_171: 0x2181
neuron_172: 0x1800
neuron_173: 0x0104
neuron_174: 0x4081
neuron_175: 0xC102
neuron_176: 0x241A
neuron_177: 0x9800
neuron_178: 0x0000
neuron_179: 0x0200
neuron_180: 0x2001
neuron_181: 0xC008
neuron_182: 0x0820
neuron_183: 0x0530
neuron_184: 0xE510
neuron_185: 0x3014
neuron_186: 0x4320
neuron_187: 0x4008
neuron_188: 0x1C00
neuron_189: 0x5008
neuron_190: 0xA890
neuron_191: 0x0044
neuron_192: 0x1602
neuron_193: 0x0022
neuron_194: 0x20A1
neuron_195: 0x21A1
neuron_196: 0x0000
neuron_197: 0x0818
neuron_198: 0x408B
neuron_199: 0xD982
neuron_200: 0x0A1B
neuron_201: 0x1010
neuron_202: 0x0000
neuron_203: 0x0A20
neuron_204: 0x0021
neuron_205: 0x0308
neuron_206: 0x0866
neuron_207: 0x0000
neuron_208: 0xA510
neuron_209: 0x9000
neuron_210: 0x4120
neuron_211: 0x4204
neuron_212: 0x1520
neuron_213: 0x7008
neuron_214: 0x0880
neuron_215: 0x0505
neuron_216: 0x080A
neuron_217: 0x2062
neuron_218: 0x2020
neuron_219: 0x03A1
neuron_220: 0x5000
neuron_221: 0x8810
neuron_222: 0x40AB
neuron_223: 0x8902
neuron_224: 0x0C1D
neuron_225: 0x1804
neuron_226: 0x0000
neuron_227: 0x0200
neuron_228: 0x0401
neuron_229: 0xC308
neuron_230: 0x0826
neuron_231: 0x0002
neuron_232: 0xE510
neuron_233: 0x9110
neuron_234: 0x4320
neuron_235: 0x4605
neuron_236: 0x0520
neuron_237: 0x7008
neuron_238: 0x8882
neuron_239: 0x00E4
neuron_240: 0x048A
neuron_241: 0x2222
neuron_242: 0x22A0
neuron_243: 0x03A0
neuron_244: 0x4000
neuron_245: 0x0081
neuron_246: 0x0483
neuron_247: 0xC142
neuron_248: 0x040C
neuron_249: 0x1044
neuron_250: 0x8000
neuron_251: 0x4202
neuron_252: 0x0401
neuron_253: 0x410C
neuron_254: 0x0864
neuron_255: 0x0000
