// ProsperityHDL Tile Data (256x16)
// Format: 16-bit hex values, one per row
// Total rows: 256
// Generated from SDT CIFAR-10 data

row_000: 0x048A
row_001: 0x0002
row_002: 0x2020
row_003: 0x21A0
row_004: 0x0001
row_005: 0x0024
row_006: 0x4083
row_007: 0xC102
row_008: 0x0819
row_009: 0xB000
row_010: 0x2000
row_011: 0x0080
row_012: 0x0021
row_013: 0x0308
row_014: 0x0848
row_015: 0x0080
row_016: 0xE510
row_017: 0x9090
row_018: 0x4128
row_019: 0x4203
row_020: 0x0400
row_021: 0x5000
row_022: 0x2882
row_023: 0x0500
row_024: 0x000A
row_025: 0x0006
row_026: 0x2240
row_027: 0x0100
row_028: 0x0100
row_029: 0x0800
row_030: 0x4081
row_031: 0x4902
row_032: 0x0018
row_033: 0x1000
row_034: 0x1008
row_035: 0x4200
row_036: 0x0001
row_037: 0x4308
row_038: 0x0008
row_039: 0x0061
row_040: 0xA510
row_041: 0x1010
row_042: 0x4020
row_043: 0x4201
row_044: 0x15A0
row_045: 0xB008
row_046: 0x0881
row_047: 0x4480
row_048: 0x048A
row_049: 0x2006
row_050: 0x2280
row_051: 0x0001
row_052: 0x0202
row_053: 0x4090
row_054: 0xC082
row_055: 0x4142
row_056: 0x4009
row_057: 0x1021
row_058: 0x0080
row_059: 0x0200
row_060: 0x0480
row_061: 0x010C
row_062: 0x1040
row_063: 0x0020
row_064: 0x6510
row_065: 0x0010
row_066: 0x5520
row_067: 0x4204
row_068: 0x1400
row_069: 0xB000
row_070: 0x0080
row_071: 0x0481
row_072: 0x448A
row_073: 0x2006
row_074: 0x2384
row_075: 0x0862
row_076: 0x4840
row_077: 0x1934
row_078: 0x4082
row_079: 0x41C2
row_080: 0x0248
row_081: 0x1000
row_082: 0x1002
row_083: 0x4220
row_084: 0x05A1
row_085: 0x010C
row_086: 0x4024
row_087: 0x0080
row_088: 0xAD10
row_089: 0x8010
row_090: 0x5120
row_091: 0x4201
row_092: 0x1488
row_093: 0x1010
row_094: 0x2181
row_095: 0x0481
row_096: 0x440A
row_097: 0x2082
row_098: 0x6284
row_099: 0x0020
row_100: 0x0100
row_101: 0x4215
row_102: 0x44CA
row_103: 0xC1C2
row_104: 0x4A19
row_105: 0x1002
row_106: 0x4084
row_107: 0x42A2
row_108: 0x80A1
row_109: 0x010C
row_110: 0x0130
row_111: 0x0011
row_112: 0xE510
row_113: 0x0010
row_114: 0x5120
row_115: 0x4305
row_116: 0x1480
row_117: 0x9010
row_118: 0xA080
row_119: 0x04C1
row_120: 0x1088
row_121: 0x0682
row_122: 0x6214
row_123: 0x00A0
row_124: 0x4000
row_125: 0x0004
row_126: 0x4481
row_127: 0xD0C2
row_128: 0x0218
row_129: 0x3820
row_130: 0x4080
row_131: 0x0A80
row_132: 0x0020
row_133: 0x010C
row_134: 0x0060
row_135: 0x0010
row_136: 0xE510
row_137: 0x0010
row_138: 0x4520
row_139: 0x4605
row_140: 0x1402
row_141: 0x4140
row_142: 0x2080
row_143: 0x0400
row_144: 0x0482
row_145: 0x0462
row_146: 0x2390
row_147: 0x0300
row_148: 0xC010
row_149: 0x0036
row_150: 0x84A1
row_151: 0xD182
row_152: 0x2019
row_153: 0xB000
row_154: 0x4000
row_155: 0x4200
row_156: 0x1104
row_157: 0x0108
row_158: 0x0020
row_159: 0x0100
row_160: 0x6530
row_161: 0x5010
row_162: 0x4400
row_163: 0x4212
row_164: 0x0400
row_165: 0x1000
row_166: 0x8080
row_167: 0x0001
row_168: 0x4402
row_169: 0x0422
row_170: 0x31A0
row_171: 0x2181
row_172: 0x1800
row_173: 0x0104
row_174: 0x4081
row_175: 0xC102
row_176: 0x241A
row_177: 0x9800
row_178: 0x0026
row_179: 0x0200
row_180: 0x2001
row_181: 0xC008
row_182: 0x0820
row_183: 0x0530
row_184: 0xE510
row_185: 0x3014
row_186: 0x4320
row_187: 0x4008
row_188: 0x1C00
row_189: 0x5008
row_190: 0xA890
row_191: 0x0044
row_192: 0x1602
row_193: 0x0022
row_194: 0x20A1
row_195: 0x21A1
row_196: 0x5200
row_197: 0x0818
row_198: 0x408B
row_199: 0xD982
row_200: 0x0A1B
row_201: 0x1010
row_202: 0x020A
row_203: 0x0A20
row_204: 0x0021
row_205: 0x0308
row_206: 0x0866
row_207: 0x0812
row_208: 0xA510
row_209: 0x9000
row_210: 0x4120
row_211: 0x4204
row_212: 0x1520
row_213: 0x7008
row_214: 0x0880
row_215: 0x0505
row_216: 0x080A
row_217: 0x2062
row_218: 0x2020
row_219: 0x03A1
row_220: 0x5000
row_221: 0x8810
row_222: 0x40AB
row_223: 0x8902
row_224: 0x0C1D
row_225: 0x1804
row_226: 0x0281
row_227: 0x0200
row_228: 0x0401
row_229: 0xC308
row_230: 0x0826
row_231: 0x0002
row_232: 0xE510
row_233: 0x9110
row_234: 0x4320
row_235: 0x4605
row_236: 0x0520
row_237: 0x7008
row_238: 0x8882
row_239: 0x00E4
row_240: 0x048A
row_241: 0x2222
row_242: 0x22A0
row_243: 0x03A0
row_244: 0x4000
row_245: 0x0081
row_246: 0x0483
row_247: 0xC142
row_248: 0x040C
row_249: 0x1044
row_250: 0x8000
row_251: 0x4202
row_252: 0x0401
row_253: 0x410C
row_254: 0x0864
row_255: 0x0006
