// ProsperityHDL Tile Data (256x16)
// Format: 16-bit hex values, one per row
// Total rows: 256
// Generated from SDT CIFAR-10 data

row_000: 0x0402
row_001: 0x0002
row_002: 0x2000
row_003: 0x2100
row_004: 0x0001
row_005: 0x2000
row_006: 0x0080
row_007: 0xC102
row_008: 0x0818
row_009: 0x9000
row_010: 0x0202
row_011: 0x0480
row_012: 0x0021
row_013: 0x0308
row_014: 0x0800
row_015: 0x8000
row_016: 0x8110
row_017: 0x1010
row_018: 0x0004
row_019: 0x4202
row_020: 0x0400
row_021: 0x1000
row_022: 0x0080
row_023: 0x0002
row_024: 0x0002
row_025: 0x0002
row_026: 0x2200
row_027: 0x0100
row_028: 0x1000
row_029: 0x000A
row_030: 0x0080
row_031: 0x4902
row_032: 0x0018
row_033: 0x1000
row_034: 0x1008
row_035: 0x0200
row_036: 0x0001
row_037: 0x0308
row_038: 0x2000
row_039: 0x0021
row_040: 0x8110
row_041: 0x1000
row_042: 0x0080
row_043: 0x4200
row_044: 0x0580
row_045: 0x9000
row_046: 0x0080
row_047: 0x0080
row_048: 0x0402
row_049: 0x0002
row_050: 0x2280
row_051: 0x0001
row_052: 0x0006
row_053: 0x0080
row_054: 0x8080
row_055: 0x4142
row_056: 0x4008
row_057: 0x1020
row_058: 0x0080
row_059: 0x0200
row_060: 0x4002
row_061: 0x0108
row_062: 0x0044
row_063: 0x0020
row_064: 0x4010
row_065: 0x0010
row_066: 0x1000
row_067: 0x4200
row_068: 0x0400
row_069: 0x9000
row_070: 0x0080
row_071: 0x0081
row_072: 0x4482
row_073: 0x0002
row_074: 0x2284
row_075: 0x0060
row_076: 0x0921
row_077: 0x0820
row_078: 0x0080
row_079: 0x41C2
row_080: 0x0008
row_081: 0x1000
row_082: 0x1002
row_083: 0x0220
row_084: 0x05A1
row_085: 0x0108
row_086: 0x0024
row_087: 0x1002
row_088: 0x0810
row_089: 0x0010
row_090: 0x1000
row_091: 0x4200
row_092: 0x0400
row_093: 0x1000
row_094: 0x2181
row_095: 0x0081
row_096: 0x4402
row_097: 0x0082
row_098: 0x6284
row_099: 0x0020
row_100: 0x2001
row_101: 0x0201
row_102: 0x04CA
row_103: 0xC1C2
row_104: 0x4818
row_105: 0x1000
row_106: 0x4080
row_107: 0x0220
row_108: 0x00A1
row_109: 0x0108
row_110: 0x0030
row_111: 0x0001
row_112: 0xC010
row_113: 0x0010
row_114: 0x1000
row_115: 0x4200
row_116: 0x0400
row_117: 0x9000
row_118: 0xA080
row_119: 0x0481
row_120: 0x4109
row_121: 0x0682
row_122: 0x6214
row_123: 0x0080
row_124: 0x5002
row_125: 0x4128
row_126: 0x0480
row_127: 0xD0C2
row_128: 0x0018
row_129: 0x3820
row_130: 0x4080
row_131: 0x0200
row_132: 0x0020
row_133: 0x0108
row_134: 0x0020
row_135: 0x0010
row_136: 0x4110
row_137: 0x0010
row_138: 0x8000
row_139: 0x4600
row_140: 0x0402
row_141: 0x0140
row_142: 0x0080
row_143: 0x4001
row_144: 0x0402
row_145: 0x0062
row_146: 0x2390
row_147: 0x0100
row_148: 0x0020
row_149: 0x0010
row_150: 0x8480
row_151: 0xD182
row_152: 0x2018
row_153: 0xB000
row_154: 0x4000
row_155: 0x4200
row_156: 0x0118
row_157: 0x0108
row_158: 0x0020
row_159: 0x2240
row_160: 0x4130
row_161: 0x5010
row_162: 0x0002
row_163: 0x4212
row_164: 0x0400
row_165: 0x1000
row_166: 0x8080
row_167: 0x0001
row_168: 0x4402
row_169: 0x0022
row_170: 0x3100
row_171: 0x2181
row_172: 0x1800
row_173: 0x2000
row_174: 0x4080
row_175: 0xC102
row_176: 0x201A
row_177: 0x1800
row_178: 0x0068
row_179: 0x0200
row_180: 0x2001
row_181: 0x0008
row_182: 0x0020
row_183: 0x0430
row_184: 0x6110
row_185: 0x3014
row_186: 0x0100
row_187: 0x4000
row_188: 0x0400
row_189: 0x1000
row_190: 0xA090
row_191: 0x0040
row_192: 0x0602
row_193: 0x0022
row_194: 0x2001
row_195: 0x2181
row_196: 0x8404
row_197: 0x0808
row_198: 0x0088
row_199: 0xD982
row_200: 0x081B
row_201: 0x1010
row_202: 0x0280
row_203: 0x0220
row_204: 0x0021
row_205: 0x0308
row_206: 0x0026
row_207: 0x0006
row_208: 0xA110
row_209: 0x1000
row_210: 0x0C00
row_211: 0x4200
row_212: 0x0500
row_213: 0x1000
row_214: 0x0080
row_215: 0x0005
row_216: 0x080A
row_217: 0x2062
row_218: 0x2000
row_219: 0x01A1
row_220: 0x1000
row_221: 0x8800
row_222: 0x00AA
row_223: 0x8902
row_224: 0x081D
row_225: 0x1804
row_226: 0x1008
row_227: 0x0200
row_228: 0x0401
row_229: 0x0308
row_230: 0x0026
row_231: 0x0002
row_232: 0xE010
row_233: 0x1110
row_234: 0x0600
row_235: 0x4600
row_236: 0x0500
row_237: 0x1000
row_238: 0x8880
row_239: 0x00E4
row_240: 0x040A
row_241: 0x2222
row_242: 0x2200
row_243: 0x01A0
row_244: 0x00A0
row_245: 0x0001
row_246: 0x0480
row_247: 0xC142
row_248: 0x000C
row_249: 0x1004
row_250: 0x0081
row_251: 0x0200
row_252: 0x0401
row_253: 0x0108
row_254: 0x0824
row_255: 0x0100
