// ProsperityHDL Tile Data (256x16)
// Format: 16-bit hex values, one per row
// Total rows: 256
// Generated from SDT CIFAR-10 data

row_000: 0x0001
row_001: 0x0080
row_002: 0x0010
row_003: 0x0001
row_004: 0x2000
row_005: 0x0202
row_006: 0x0480
row_007: 0x8000
row_008: 0x0004
row_009: 0x0002
row_010: 0x8200
row_011: 0x0500
row_012: 0x1000
row_013: 0x000A
row_014: 0x0002
row_015: 0x2000
row_016: 0x0080
row_017: 0x2000
row_018: 0x0006
row_019: 0x4002
row_020: 0x0010
row_021: 0x0800
row_022: 0x0044
row_023: 0x8800
row_024: 0x8000
row_025: 0x0800
row_026: 0x0020
row_027: 0x0008
row_028: 0x1000
row_029: 0x0C00
row_030: 0x8000
row_031: 0x2001
row_032: 0x0020
row_033: 0x0088
row_034: 0x0020
row_035: 0x2200
row_036: 0x0002
row_037: 0x2000
row_038: 0x0040
row_039: 0x0004
row_040: 0x0400
row_041: 0x0280
row_042: 0x0006
row_043: 0x0010
row_044: 0x0C00
row_045: 0x0084
row_046: 0x0202
row_047: 0x4080
row_048: 0x8080
row_049: 0x0020
row_050: 0x0060
row_051: 0x0100
row_052: 0x2001
row_053: 0x0004
row_054: 0x8200
row_055: 0x0400
row_056: 0x0002
row_057: 0x0002
row_058: 0x0081
row_059: 0x0004
row_060: 0x0440
row_061: 0x0008
row_062: 0x0402
row_063: 0x0040
row_064: 0x8005
row_065: 0x0580
row_066: 0x0814
row_067: 0x8081
row_068: 0x0030
row_069: 0x0292
row_070: 0x0580
row_071: 0x8002
row_072: 0x1000
row_073: 0x0002
row_074: 0x8202
row_075: 0x2504
row_076: 0x1004
row_077: 0x000B
row_078: 0xC002
row_079: 0x3000
row_080: 0x0082
row_081: 0x2400
row_082: 0x0206
row_083: 0x4006
row_084: 0x0810
row_085: 0x1000
row_086: 0x8044
row_087: 0x8880
row_088: 0x8200
row_089: 0x2804
row_090: 0x2002
row_091: 0x0001
row_092: 0x0100
row_093: 0x0C03
row_094: 0x0800
row_095: 0x6021
row_096: 0x00A0
row_097: 0x4088
row_098: 0x0010
row_099: 0x2E00
row_100: 0x8202
row_101: 0x2002
row_102: 0x0050
row_103: 0x0404
row_104: 0x0402
row_105: 0x1280
row_106: 0x0200
row_107: 0x0810
row_108: 0x8C00
row_109: 0x5084
row_110: 0x0002
row_111: 0x4088
row_112: 0xA082
row_113: 0x0060
row_114: 0x2060
row_115: 0x2100
row_116: 0x0010
row_117: 0x0046
row_118: 0x8610
row_119: 0x1000
row_120: 0x0100
row_121: 0x2002
row_122: 0x4000
row_123: 0x0014
row_124: 0xC440
row_125: 0x0018
row_126: 0x0702
row_127: 0x01C0
row_128: 0x0800
row_129: 0x0008
row_130: 0x0100
row_131: 0x4080
row_132: 0x0080
row_133: 0xA100
row_134: 0x4040
row_135: 0x0004
row_136: 0x1028
row_137: 0x0301
row_138: 0x0080
row_139: 0x0020
row_140: 0x0004
row_141: 0x1001
row_142: 0x5100
row_143: 0x0800
row_144: 0x5000
row_145: 0x0C40
row_146: 0x2040
row_147: 0x0821
row_148: 0x2001
row_149: 0x0068
row_150: 0x8300
row_151: 0x4050
row_152: 0xA200
row_153: 0x1021
row_154: 0x4108
row_155: 0x0042
row_156: 0xC800
row_157: 0x0181
row_158: 0x0800
row_159: 0x0040
row_160: 0x1000
row_161: 0x1400
row_162: 0x0010
row_163: 0x8000
row_164: 0x0030
row_165: 0x8000
row_166: 0x1000
row_167: 0x0220
row_168: 0x4500
row_169: 0x0040
row_170: 0x4010
row_171: 0x1000
row_172: 0x4000
row_173: 0x5000
row_174: 0x1200
row_175: 0x4000
row_176: 0x4080
row_177: 0x0080
row_178: 0x0406
row_179: 0x8400
row_180: 0x2108
row_181: 0x1080
row_182: 0x1880
row_183: 0x0002
row_184: 0x0202
row_185: 0x4800
row_186: 0x0002
row_187: 0x0040
row_188: 0x0001
row_189: 0x0508
row_190: 0x0800
row_191: 0x0070
row_192: 0x080C
row_193: 0x0001
row_194: 0x2000
row_195: 0xA040
row_196: 0x0840
row_197: 0x0200
row_198: 0x5001
row_199: 0x4000
row_200: 0x0104
row_201: 0x4004
row_202: 0x0200
row_203: 0x1060
row_204: 0x40A0
row_205: 0x0888
row_206: 0x0002
row_207: 0x6080
row_208: 0x0500
row_209: 0x0800
row_210: 0x0100
row_211: 0x0300
row_212: 0x0022
row_213: 0x0800
row_214: 0xC000
row_215: 0x1000
row_216: 0x0100
row_217: 0x3000
row_218: 0x0040
row_219: 0x0400
row_220: 0x0300
row_221: 0x0401
row_222: 0x1080
row_223: 0x0100
row_224: 0x4000
row_225: 0x8001
row_226: 0x0020
row_227: 0x0206
row_228: 0x2001
row_229: 0x000C
row_230: 0x0001
row_231: 0x0004
row_232: 0x2000
row_233: 0x00C0
row_234: 0x0300
row_235: 0x0024
row_236: 0x1000
row_237: 0x0020
row_238: 0x0020
row_239: 0x0002
row_240: 0x0008
row_241: 0x0401
row_242: 0x8000
row_243: 0x8000
row_244: 0xA000
row_245: 0x0002
row_246: 0x8100
row_247: 0x9400
row_248: 0x4240
row_249: 0x0800
row_250: 0x0400
row_251: 0x0814
row_252: 0x2000
row_253: 0x2001
row_254: 0x2000
row_255: 0x0180
