// ProsperityHDL Tile Data (256x16)
// Format: 16-bit hex values, one per row
// Total rows: 256
// Generated from SDT CIFAR-10 data

row_000: 0x04E0
row_001: 0x69F8
row_002: 0x5EFA
row_003: 0xE22B
row_004: 0x8E97
row_005: 0x86BB
row_006: 0xC211
row_007: 0xF0AC
row_008: 0x3950
row_009: 0xD931
row_010: 0x4077
row_011: 0xF92B
row_012: 0xBAC2
row_013: 0xDB04
row_014: 0x6FD2
row_015: 0x90E4
row_016: 0xFF13
row_017: 0x0135
row_018: 0xE294
row_019: 0x66F3
row_020: 0x1A60
row_021: 0xF596
row_022: 0x0702
row_023: 0x3E0D
row_024: 0x4851
row_025: 0x8941
row_026: 0x1C01
row_027: 0x09CB
row_028: 0x44BB
row_029: 0x3EA2
row_030: 0x9DC9
row_031: 0xA12D
row_032: 0x40AA
row_033: 0xD4F9
row_034: 0x0154
row_035: 0xD00F
row_036: 0x41E0
row_037: 0x870D
row_038: 0x6342
row_039: 0x61B0
row_040: 0x30C3
row_041: 0xDA9C
row_042: 0xEB93
row_043: 0xCC01
row_044: 0xD940
row_045: 0xBB94
row_046: 0xCB77
row_047: 0x9EDB
row_048: 0x9086
row_049: 0x6046
row_050: 0x9725
row_051: 0x6DB0
row_052: 0xE16D
row_053: 0x5032
row_054: 0xB627
row_055: 0x1D46
row_056: 0xC684
row_057: 0x74EB
row_058: 0xE617
row_059: 0x7B99
row_060: 0xD12F
row_061: 0x2832
row_062: 0xA66E
row_063: 0xB2DD
row_064: 0x1C31
row_065: 0xA5B8
row_066: 0x78AC
row_067: 0x1CBC
row_068: 0x0280
row_069: 0x28A4
row_070: 0x540F
row_071: 0x91AB
row_072: 0xA835
row_073: 0xA94E
row_074: 0xF002
row_075: 0xA0EE
row_076: 0xB679
row_077: 0x18DA
row_078: 0x0B92
row_079: 0x1FC8
row_080: 0xAFCB
row_081: 0xF417
row_082: 0x9C5D
row_083: 0x5018
row_084: 0xEACD
row_085: 0x0F4E
row_086: 0xC44A
row_087: 0x9D9F
row_088: 0xFA1D
row_089: 0xD65E
row_090: 0x08C8
row_091: 0xA468
row_092: 0x98D9
row_093: 0x72C9
row_094: 0x9582
row_095: 0xE9D3
row_096: 0x88D0
row_097: 0x0582
row_098: 0x3B72
row_099: 0xEA9E
row_100: 0x151D
row_101: 0x617E
row_102: 0x0623
row_103: 0x312C
row_104: 0x46AA
row_105: 0xC725
row_106: 0x83B4
row_107: 0x19E2
row_108: 0xF320
row_109: 0x31B4
row_110: 0x9390
row_111: 0x6FDE
row_112: 0x8B74
row_113: 0x7264
row_114: 0x0381
row_115: 0x8625
row_116: 0xDE23
row_117: 0x0F79
row_118: 0x6EB4
row_119: 0x235D
row_120: 0xE1E6
row_121: 0xE8C0
row_122: 0xB415
row_123: 0xA966
row_124: 0x78E4
row_125: 0x764E
row_126: 0xD216
row_127: 0xAF64
row_128: 0x9657
row_129: 0x0B31
row_130: 0xB200
row_131: 0xB08E
row_132: 0x86AE
row_133: 0xAF25
row_134: 0x3196
row_135: 0x1735
row_136: 0x546C
row_137: 0x1C4A
row_138: 0x88E3
row_139: 0x3C73
row_140: 0x406C
row_141: 0x7C57
row_142: 0x8894
row_143: 0x8B19
row_144: 0xC45A
row_145: 0xCACD
row_146: 0xF0EE
row_147: 0xE466
row_148: 0xEA3A
row_149: 0x3EF3
row_150: 0x1565
row_151: 0x74E6
row_152: 0xDA4F
row_153: 0xF58A
row_154: 0xDAF8
row_155: 0x5BF0
row_156: 0xBBE5
row_157: 0x174E
row_158: 0xEC17
row_159: 0x7FF7
row_160: 0x1E42
row_161: 0x17F9
row_162: 0xF4DF
row_163: 0x8ABE
row_164: 0x79FF
row_165: 0xEC79
row_166: 0x3723
row_167: 0xD09B
row_168: 0x84BB
row_169: 0xDD6E
row_170: 0x1DAB
row_171: 0xE4C7
row_172: 0xB46B
row_173: 0x94D4
row_174: 0x98D3
row_175: 0x4811
row_176: 0xA01D
row_177: 0x9A5D
row_178: 0x5AF2
row_179: 0xFF8D
row_180: 0xC3BE
row_181: 0x2DF8
row_182: 0x9167
row_183: 0xFBD8
row_184: 0x6B34
row_185: 0x5DEE
row_186: 0xBE4F
row_187: 0xCD67
row_188: 0x1C49
row_189: 0xD0E8
row_190: 0x6CB3
row_191: 0xFB0F
row_192: 0x9E5F
row_193: 0x77F2
row_194: 0x85FB
row_195: 0xE8D7
row_196: 0x4FDF
row_197: 0x8FBF
row_198: 0xCDED
row_199: 0xCFAB
row_200: 0xB3D7
row_201: 0xD31F
row_202: 0x9A6A
row_203: 0x3CF7
row_204: 0xAE2D
row_205: 0xB5B0
row_206: 0x6914
row_207: 0xCEA8
row_208: 0xE2C2
row_209: 0xBBEF
row_210: 0xFD77
row_211: 0x7365
row_212: 0x577E
row_213: 0xFDB1
row_214: 0xEE73
row_215: 0x4CDF
row_216: 0x7883
row_217: 0xFDFD
row_218: 0xEAC9
row_219: 0x6573
row_220: 0x9EF3
row_221: 0xDB7A
row_222: 0x621E
row_223: 0x843D
row_224: 0x627F
row_225: 0x4DC1
row_226: 0xD0CA
row_227: 0x6C7F
row_228: 0x7BFD
row_229: 0xF5CC
row_230: 0x95DD
row_231: 0x4E70
row_232: 0xCB4C
row_233: 0x6F71
row_234: 0x722E
row_235: 0x502F
row_236: 0x22FC
row_237: 0xBF65
row_238: 0x0917
row_239: 0x863E
row_240: 0xD6D8
row_241: 0x41B5
row_242: 0x751C
row_243: 0x1495
row_244: 0x2F75
row_245: 0xF372
row_246: 0x53E8
row_247: 0x94DF
row_248: 0xD603
row_249: 0xFEE6
row_250: 0x2866
row_251: 0x0F86
row_252: 0xF179
row_253: 0x465A
row_254: 0xF71F
row_255: 0x0CE4
