// ProSparsity Hardware Test Data (256 neurons × 16 timesteps)
// Format: 16-bit hex values, one per neuron row
// Total neurons: 256
// Raw spike data for ProSparsity reuse detection

neuron_000: 0x04E0
neuron_001: 0x69F8
neuron_002: 0x5EFA
neuron_003: 0xE22B
neuron_004: 0x8E97
neuron_005: 0x86B9
neuron_006: 0xC211
neuron_007: 0xF0AC
neuron_008: 0x3950
neuron_009: 0xD931
neuron_010: 0x4077
neuron_011: 0xF92B
neuron_012: 0x3AC2
neuron_013: 0xDB04
neuron_014: 0x6FD2
neuron_015: 0x90E4
neuron_016: 0xFF13
neuron_017: 0x0135
neuron_018: 0xE294
neuron_019: 0x66F3
neuron_020: 0x1A60
neuron_021: 0xF596
neuron_022: 0x0702
neuron_023: 0x3E0D
neuron_024: 0x4851
neuron_025: 0x8941
neuron_026: 0x1C01
neuron_027: 0x09CB
neuron_028: 0x44BB
neuron_029: 0x3EA2
neuron_030: 0x9DC9
neuron_031: 0xA12D
neuron_032: 0x40AA
neuron_033: 0xD4F9
neuron_034: 0x0154
neuron_035: 0xD00F
neuron_036: 0x41E0
neuron_037: 0x870D
neuron_038: 0x6342
neuron_039: 0x61B0
neuron_040: 0x30C3
neuron_041: 0xDA9C
neuron_042: 0xEB93
neuron_043: 0xCC01
neuron_044: 0xD940
neuron_045: 0xBB94
neuron_046: 0xCB77
neuron_047: 0x9EDB
neuron_048: 0x9086
neuron_049: 0x6046
neuron_050: 0x9725
neuron_051: 0x6DB0
neuron_052: 0xE16D
neuron_053: 0x5032
neuron_054: 0xB627
neuron_055: 0x1D46
neuron_056: 0xC684
neuron_057: 0x74EB
neuron_058: 0xE617
neuron_059: 0x7B99
neuron_060: 0xD12F
neuron_061: 0x2832
neuron_062: 0xA66E
neuron_063: 0xB2DD
neuron_064: 0x1C31
neuron_065: 0xA5B8
neuron_066: 0x78AC
neuron_067: 0x1CBC
neuron_068: 0x0280
neuron_069: 0x28A4
neuron_070: 0x540F
neuron_071: 0x91AB
neuron_072: 0xA835
neuron_073: 0xA94E
neuron_074: 0xF002
neuron_075: 0xA0EE
neuron_076: 0xB679
neuron_077: 0x18DA
neuron_078: 0x0B92
neuron_079: 0x1FC8
neuron_080: 0xAFCB
neuron_081: 0xF417
neuron_082: 0x9C5D
neuron_083: 0x5018
neuron_084: 0xEACD
neuron_085: 0x0F4E
neuron_086: 0xC44A
neuron_087: 0x9D9F
neuron_088: 0xFA1D
neuron_089: 0xD65E
neuron_090: 0x08C8
neuron_091: 0xA468
neuron_092: 0x98D9
neuron_093: 0x72C9
neuron_094: 0x9582
neuron_095: 0xE9D3
neuron_096: 0x88D0
neuron_097: 0x0582
neuron_098: 0x3B72
neuron_099: 0xEA9E
neuron_100: 0x151D
neuron_101: 0x617E
neuron_102: 0x0623
neuron_103: 0x312C
neuron_104: 0x46AA
neuron_105: 0xC725
neuron_106: 0x83B4
neuron_107: 0x19E2
neuron_108: 0x7320
neuron_109: 0x31B4
neuron_110: 0x9390
neuron_111: 0x6FDE
neuron_112: 0x8B74
neuron_113: 0x7264
neuron_114: 0x0381
neuron_115: 0x8625
neuron_116: 0xDE23
neuron_117: 0x0F79
neuron_118: 0x6EB4
neuron_119: 0x235D
neuron_120: 0xE1E6
neuron_121: 0xE8C0
neuron_122: 0xB415
neuron_123: 0xA966
neuron_124: 0x78E4
neuron_125: 0x764E
neuron_126: 0xD216
neuron_127: 0xAF64
neuron_128: 0x9657
neuron_129: 0x0B31
neuron_130: 0xB200
neuron_131: 0xB08E
neuron_132: 0x86AE
neuron_133: 0xAE25
neuron_134: 0x3196
neuron_135: 0x1735
neuron_136: 0x546C
neuron_137: 0x1C4A
neuron_138: 0x88E3
neuron_139: 0x3C73
neuron_140: 0x406C
neuron_141: 0x7C57
neuron_142: 0x8894
neuron_143: 0x8B19
neuron_144: 0xC45A
neuron_145: 0xCACD
neuron_146: 0xF0EE
neuron_147: 0xE466
neuron_148: 0xEA3A
neuron_149: 0x3EF1
neuron_150: 0x1565
neuron_151: 0x74E6
neuron_152: 0xDA4F
neuron_153: 0xF58A
neuron_154: 0xDAF8
neuron_155: 0x5BF0
neuron_156: 0x3BE5
neuron_157: 0x174E
neuron_158: 0xEC17
neuron_159: 0x7FF7
neuron_160: 0x1E42
neuron_161: 0x17F9
neuron_162: 0xF4DF
neuron_163: 0x8ABE
neuron_164: 0x79FF
neuron_165: 0xEC79
neuron_166: 0x3723
neuron_167: 0xD09B
neuron_168: 0x84BB
neuron_169: 0xDD6E
neuron_170: 0x1DAB
neuron_171: 0xE4C7
neuron_172: 0xB46B
neuron_173: 0x94D4
neuron_174: 0x98D3
neuron_175: 0x4811
neuron_176: 0xA01D
neuron_177: 0x9A5D
neuron_178: 0x5AF2
neuron_179: 0xFF8D
neuron_180: 0xC3BE
neuron_181: 0x2CF8
neuron_182: 0x9167
neuron_183: 0xFBD8
neuron_184: 0x6B34
neuron_185: 0x5DEE
neuron_186: 0xBE4F
neuron_187: 0xCD67
neuron_188: 0x1C49
neuron_189: 0xD0E8
neuron_190: 0x6CB3
neuron_191: 0xFB0F
neuron_192: 0x9E5F
neuron_193: 0x77F2
neuron_194: 0x85FB
neuron_195: 0xE8D7
neuron_196: 0x4FDF
neuron_197: 0x8FBF
neuron_198: 0xCDED
neuron_199: 0xCFAB
neuron_200: 0xB3C7
neuron_201: 0xD31F
neuron_202: 0x9A6A
neuron_203: 0x3CF7
neuron_204: 0xAE29
neuron_205: 0xB5B0
neuron_206: 0x6914
neuron_207: 0xCEA8
neuron_208: 0xE2C2
neuron_209: 0xB3EF
neuron_210: 0xFD77
neuron_211: 0x7365
neuron_212: 0x577E
neuron_213: 0xFDB1
neuron_214: 0xEE73
neuron_215: 0x4CDF
neuron_216: 0x7883
neuron_217: 0xFDFD
neuron_218: 0xEAC9
neuron_219: 0x6573
neuron_220: 0x9EF3
neuron_221: 0xDB7A
neuron_222: 0x621E
neuron_223: 0x843D
neuron_224: 0x627F
neuron_225: 0x4DC1
neuron_226: 0xD0CA
neuron_227: 0x6C7F
neuron_228: 0x7BFD
neuron_229: 0xF4CC
neuron_230: 0x95DD
neuron_231: 0x4E70
neuron_232: 0xCB4C
neuron_233: 0x6F71
neuron_234: 0x722E
neuron_235: 0x502F
neuron_236: 0x22FC
neuron_237: 0xBF65
neuron_238: 0x0917
neuron_239: 0x863E
neuron_240: 0xD6D0
neuron_241: 0x41B5
neuron_242: 0x751C
neuron_243: 0x1095
neuron_244: 0x2E75
neuron_245: 0x7360
neuron_246: 0x53E8
neuron_247: 0x94DF
neuron_248: 0xD603
neuron_249: 0xEEA6
neuron_250: 0x2866
neuron_251: 0x0F86
neuron_252: 0x7179
neuron_253: 0x461A
neuron_254: 0xF31F
neuron_255: 0x0CE4
