// ProSparsity Hardware Test Data (256 neurons × 16 timesteps)
// Format: 16-bit hex values, one per neuron row
// Total neurons: 256
// Raw spike data for ProSparsity reuse detection

neuron_000: 0x703E
neuron_001: 0x631C
neuron_002: 0x30A8
neuron_003: 0x0085
neuron_004: 0x4000
neuron_005: 0x0003
neuron_006: 0x0000
neuron_007: 0x3CA0
neuron_008: 0x29E7
neuron_009: 0x0C30
neuron_010: 0x1043
neuron_011: 0xE3E0
neuron_012: 0x0100
neuron_013: 0xC000
neuron_014: 0x4000
neuron_015: 0x0308
neuron_016: 0x1E00
neuron_017: 0x0000
neuron_018: 0x000C
neuron_019: 0x0000
neuron_020: 0x4000
neuron_021: 0x0218
neuron_022: 0x0000
neuron_023: 0x8200
neuron_024: 0x1500
neuron_025: 0x0000
neuron_026: 0x0800
neuron_027: 0xE080
neuron_028: 0x0001
neuron_029: 0x00F0
neuron_030: 0x0000
neuron_031: 0xD000
neuron_032: 0x0007
neuron_033: 0x0000
neuron_034: 0x3080
neuron_035: 0x7388
neuron_036: 0x403F
neuron_037: 0x639C
neuron_038: 0x21FC
neuron_039: 0xA187
neuron_040: 0x8030
neuron_041: 0x0003
neuron_042: 0xD000
neuron_043: 0xBC22
neuron_044: 0xFFE7
neuron_045: 0x0C21
neuron_046: 0xCA4B
neuron_047: 0xF3F0
neuron_048: 0xA180
neuron_049: 0xC2A9
neuron_050: 0x630D
neuron_051: 0x038C
neuron_052: 0x1E00
neuron_053: 0x0000
neuron_054: 0x030E
neuron_055: 0x0000
neuron_056: 0x4100
neuron_057: 0xC830
neuron_058: 0x0053
neuron_059: 0x4130
neuron_060: 0x3388
neuron_061: 0x0000
neuron_062: 0x1800
neuron_063: 0xF1B0
neuron_064: 0x0061
neuron_065: 0x0190
neuron_066: 0x2084
neuron_067: 0xC809
neuron_068: 0x0013
neuron_069: 0x4000
neuron_070: 0x3082
neuron_071: 0x638C
neuron_072: 0x203A
neuron_073: 0x731D
neuron_074: 0x20A8
neuron_075: 0xA18F
neuron_076: 0x4001
neuron_077: 0x1043
neuron_078: 0x5404
neuron_079: 0x3DA0
neuron_080: 0x2AE5
neuron_081: 0x0C30
neuron_082: 0xD10B
neuron_083: 0xE3F1
neuron_084: 0x6700
neuron_085: 0xC02C
neuron_086: 0x610C
neuron_087: 0x030C
neuron_088: 0x3FE0
neuron_089: 0x0008
neuron_090: 0x000C
neuron_091: 0x0000
neuron_092: 0x4000
neuron_093: 0x4A1A
neuron_094: 0x0002
neuron_095: 0x0300
neuron_096: 0x2100
neuron_097: 0x0014
neuron_098: 0x0400
neuron_099: 0xF0C0
neuron_100: 0x0001
neuron_101: 0x02F4
neuron_102: 0x24A0
neuron_103: 0xD804
neuron_104: 0x8007
neuron_105: 0x8900
neuron_106: 0x3000
neuron_107: 0x7380
neuron_108: 0x603F
neuron_109: 0x631C
neuron_110: 0x21FC
neuron_111: 0x25C7
neuron_112: 0x8030
neuron_113: 0x0203
neuron_114: 0xF000
neuron_115: 0xBC21
neuron_116: 0xADE7
neuron_117: 0x0821
neuron_118: 0xC246
neuron_119: 0xF3F0
neuron_120: 0x2180
neuron_121: 0xC22C
neuron_122: 0x630D
neuron_123: 0x039C
neuron_124: 0x1F00
neuron_125: 0x0008
neuron_126: 0x030F
neuron_127: 0x0000
neuron_128: 0x4004
neuron_129: 0x4A30
neuron_130: 0x8053
neuron_131: 0x6030
neuron_132: 0x3388
neuron_133: 0x0000
neuron_134: 0x1820
neuron_135: 0xF1B0
neuron_136: 0x0033
neuron_137: 0x01C0
neuron_138: 0x2124
neuron_139: 0xC808
neuron_140: 0x0013
neuron_141: 0x6040
neuron_142: 0x3080
neuron_143: 0x638C
neuron_144: 0x7018
neuron_145: 0x4000
neuron_146: 0x7BFC
neuron_147: 0x30C0
neuron_148: 0xC0C4
neuron_149: 0x4043
neuron_150: 0x0610
neuron_151: 0x38A0
neuron_152: 0x39E7
neuron_153: 0x0C00
neuron_154: 0x0003
neuron_155: 0xE3B0
neuron_156: 0x0000
neuron_157: 0xC000
neuron_158: 0x4508
neuron_159: 0x0309
neuron_160: 0x1C8A
neuron_161: 0x4208
neuron_162: 0x2180
neuron_163: 0x0000
neuron_164: 0x5302
neuron_165: 0x821B
neuron_166: 0x0001
neuron_167: 0xC310
neuron_168: 0x0538
neuron_169: 0x0000
neuron_170: 0x6100
neuron_171: 0xC000
neuron_172: 0x0421
neuron_173: 0x02B0
neuron_174: 0x00E0
neuron_175: 0x5805
neuron_176: 0x0001
neuron_177: 0x0010
neuron_178: 0x3082
neuron_179: 0x5108
neuron_180: 0x003F
neuron_181: 0x631C
neuron_182: 0x01FC
neuron_183: 0x8587
neuron_184: 0x0030
neuron_185: 0x1003
neuron_186: 0x5004
neuron_187: 0x9C20
neuron_188: 0x2867
neuron_189: 0x0C30
neuron_190: 0x0003
neuron_191: 0xE3F0
neuron_192: 0x6100
neuron_193: 0xC220
neuron_194: 0x630C
neuron_195: 0x039C
neuron_196: 0x1E22
neuron_197: 0x0808
neuron_198: 0x000C
neuron_199: 0x10C2
neuron_200: 0x4104
neuron_201: 0x4A1A
neuron_202: 0x0053
neuron_203: 0x41B0
neuron_204: 0x3300
neuron_205: 0x0014
neuron_206: 0x1800
neuron_207: 0xF1B0
neuron_208: 0x0001
neuron_209: 0x01C0
neuron_210: 0x2124
neuron_211: 0xC002
neuron_212: 0x8233
neuron_213: 0x4820
neuron_214: 0x3010
neuron_215: 0x638C
neuron_216: 0x703F
neuron_217: 0x739D
neuron_218: 0x30EC
neuron_219: 0x2485
neuron_220: 0xC401
neuron_221: 0x0043
neuron_222: 0xB000
neuron_223: 0x3CA2
neuron_224: 0x6FE7
neuron_225: 0x0C30
neuron_226: 0xDA43
neuron_227: 0xFBF1
neuron_228: 0x2580
neuron_229: 0xC008
neuron_230: 0x4001
neuron_231: 0x0308
neuron_232: 0x3EC0
neuron_233: 0x0000
neuron_234: 0x030E
neuron_235: 0x0000
neuron_236: 0x4100
neuron_237: 0x4238
neuron_238: 0x0010
neuron_239: 0x8200
neuron_240: 0x3188
neuron_241: 0x0000
neuron_242: 0x1800
neuron_243: 0xF0C0
neuron_244: 0x0021
neuron_245: 0x02F4
neuron_246: 0x0480
neuron_247: 0xC808
neuron_248: 0x0007
neuron_249: 0xC100
neuron_250: 0x3080
neuron_251: 0x7388
neuron_252: 0x203F
neuron_253: 0x431C
neuron_254: 0x01FC
neuron_255: 0x05CF
