// ProsperityHDL Tile Data (256x16)
// Format: 16-bit hex values, one per row
// Total rows: 256
// Generated from SDT CIFAR-10 data

row_000: 0x703E
row_001: 0x631C
row_002: 0x30A8
row_003: 0x0085
row_004: 0x4000
row_005: 0x0003
row_006: 0x0001
row_007: 0x3CA0
row_008: 0x29E7
row_009: 0x0C30
row_010: 0x1043
row_011: 0xE3E0
row_012: 0x0100
row_013: 0xC000
row_014: 0x4000
row_015: 0x0308
row_016: 0x1E00
row_017: 0x2000
row_018: 0x000C
row_019: 0x0202
row_020: 0x4000
row_021: 0x0218
row_022: 0x0480
row_023: 0x8200
row_024: 0x1500
row_025: 0x8000
row_026: 0x0800
row_027: 0xE080
row_028: 0x0001
row_029: 0x00F0
row_030: 0x0004
row_031: 0xD000
row_032: 0x0007
row_033: 0x0002
row_034: 0x3080
row_035: 0x7388
row_036: 0x403F
row_037: 0x639C
row_038: 0x21FC
row_039: 0xA187
row_040: 0x8030
row_041: 0x0003
row_042: 0xD000
row_043: 0xBC22
row_044: 0xFFE7
row_045: 0x0C21
row_046: 0xCA4B
row_047: 0xF3F0
row_048: 0xA180
row_049: 0xC2A9
row_050: 0x630D
row_051: 0x038C
row_052: 0x1E00
row_053: 0x1000
row_054: 0x030E
row_055: 0x000A
row_056: 0x4100
row_057: 0xC830
row_058: 0x0053
row_059: 0x4130
row_060: 0x3388
row_061: 0x2000
row_062: 0x1800
row_063: 0xF1B0
row_064: 0x0061
row_065: 0x0190
row_066: 0x2084
row_067: 0xC809
row_068: 0x0013
row_069: 0x4000
row_070: 0x3082
row_071: 0x638C
row_072: 0x203A
row_073: 0x731D
row_074: 0x20A8
row_075: 0xA18F
row_076: 0x4001
row_077: 0x1043
row_078: 0x5404
row_079: 0x3DA0
row_080: 0x2AE5
row_081: 0x0C30
row_082: 0xD10B
row_083: 0xE3F1
row_084: 0x6700
row_085: 0xC02C
row_086: 0x610C
row_087: 0x030C
row_088: 0x3FE0
row_089: 0x0008
row_090: 0x000C
row_091: 0xE280
row_092: 0x4000
row_093: 0x4A1A
row_094: 0x0002
row_095: 0x0300
row_096: 0x2100
row_097: 0x0014
row_098: 0x0400
row_099: 0xF0C0
row_100: 0x0001
row_101: 0x02F4
row_102: 0x24A0
row_103: 0xD804
row_104: 0x8007
row_105: 0x8900
row_106: 0x3000
row_107: 0x7380
row_108: 0x603F
row_109: 0x631C
row_110: 0x21FC
row_111: 0x25C7
row_112: 0x8030
row_113: 0x0203
row_114: 0xF000
row_115: 0xBC21
row_116: 0xADE7
row_117: 0x0821
row_118: 0xC246
row_119: 0xF3F0
row_120: 0x2180
row_121: 0xC22C
row_122: 0x630D
row_123: 0x039C
row_124: 0x1F00
row_125: 0x0008
row_126: 0x030F
row_127: 0xF9B4
row_128: 0x4004
row_129: 0x4A30
row_130: 0x8053
row_131: 0x6030
row_132: 0x3388
row_133: 0x0412
row_134: 0x1820
row_135: 0xF1B0
row_136: 0x0033
row_137: 0x01C0
row_138: 0x2124
row_139: 0xC808
row_140: 0x0013
row_141: 0x6040
row_142: 0x3080
row_143: 0x638C
row_144: 0x7018
row_145: 0x4000
row_146: 0x7BFC
row_147: 0x30C0
row_148: 0xC0C4
row_149: 0x4043
row_150: 0x0610
row_151: 0x38A0
row_152: 0x39E7
row_153: 0x0C00
row_154: 0x0003
row_155: 0xE3B0
row_156: 0x7000
row_157: 0xC000
row_158: 0x4508
row_159: 0x0309
row_160: 0x1C8A
row_161: 0x4208
row_162: 0x2180
row_163: 0x0100
row_164: 0x5302
row_165: 0x821B
row_166: 0x0001
row_167: 0xC310
row_168: 0x0538
row_169: 0x1400
row_170: 0x6100
row_171: 0xC000
row_172: 0x0421
row_173: 0x02B0
row_174: 0x00E0
row_175: 0x5805
row_176: 0x0001
row_177: 0x0010
row_178: 0x3082
row_179: 0x5108
row_180: 0x003F
row_181: 0x631C
row_182: 0x01FC
row_183: 0x8587
row_184: 0x0030
row_185: 0x1003
row_186: 0x5004
row_187: 0x9C20
row_188: 0x2867
row_189: 0x0C30
row_190: 0x0003
row_191: 0xE3F0
row_192: 0x6100
row_193: 0xC220
row_194: 0x630C
row_195: 0x039C
row_196: 0x1E22
row_197: 0x0808
row_198: 0x000C
row_199: 0x10C2
row_200: 0x4104
row_201: 0x4A1A
row_202: 0x0053
row_203: 0x41B0
row_204: 0x3300
row_205: 0x0014
row_206: 0x1800
row_207: 0xF1B0
row_208: 0x0001
row_209: 0x01C0
row_210: 0x2124
row_211: 0xC002
row_212: 0x8233
row_213: 0x4820
row_214: 0x3010
row_215: 0x638C
row_216: 0x703F
row_217: 0x739D
row_218: 0x30EC
row_219: 0x2485
row_220: 0xC401
row_221: 0x0043
row_222: 0xB000
row_223: 0x3CA2
row_224: 0x6FE7
row_225: 0x0C30
row_226: 0xDA43
row_227: 0xFBF1
row_228: 0x2580
row_229: 0xC008
row_230: 0x4001
row_231: 0x0308
row_232: 0x3EC0
row_233: 0x4840
row_234: 0x030E
row_235: 0x0430
row_236: 0x4100
row_237: 0x4238
row_238: 0x0010
row_239: 0x8200
row_240: 0x3188
row_241: 0x0C00
row_242: 0x1800
row_243: 0xF0C0
row_244: 0x0021
row_245: 0x02F4
row_246: 0x0480
row_247: 0xC808
row_248: 0x0007
row_249: 0xC100
row_250: 0x3080
row_251: 0x7388
row_252: 0x203F
row_253: 0x431C
row_254: 0x01FC
row_255: 0x05CF
