// ProsperityHDL Tile Data (256x16)
// Format: 16-bit hex values, one per row
// Total rows: 256
// Generated from SDT CIFAR-10 data

row_000: 0x0001
row_001: 0x0005
row_002: 0x0080
row_003: 0xC052
row_004: 0x5894
row_005: 0x0A00
row_006: 0x8001
row_007: 0x0090
row_008: 0x8404
row_009: 0x8280
row_010: 0xD084
row_011: 0x2632
row_012: 0x0001
row_013: 0x0002
row_014: 0x08B0
row_015: 0x0004
row_016: 0x0015
row_017: 0x0080
row_018: 0xC210
row_019: 0x5890
row_020: 0x0200
row_021: 0x8401
row_022: 0x02C8
row_023: 0x8424
row_024: 0x8200
row_025: 0xD084
row_026: 0x4612
row_027: 0x2000
row_028: 0x0103
row_029: 0x18B0
row_030: 0x0040
row_031: 0x8015
row_032: 0x8090
row_033: 0x2020
row_034: 0x5808
row_035: 0x0210
row_036: 0x8000
row_037: 0x0080
row_038: 0x0400
row_039: 0x8200
row_040: 0xD004
row_041: 0xC282
row_042: 0x0008
row_043: 0x0102
row_044: 0x8820
row_045: 0x0400
row_046: 0x0095
row_047: 0x8088
row_048: 0x7012
row_049: 0x5014
row_050: 0x0202
row_051: 0x9000
row_052: 0x0218
row_053: 0x8400
row_054: 0x8200
row_055: 0xD004
row_056: 0x8282
row_057: 0x0048
row_058: 0x0102
row_059: 0x8884
row_060: 0x2404
row_061: 0x0015
row_062: 0x8080
row_063: 0x7010
row_064: 0x1874
row_065: 0x0200
row_066: 0xB000
row_067: 0x01C8
row_068: 0x0400
row_069: 0x92A0
row_070: 0xC084
row_071: 0x02A0
row_072: 0x4040
row_073: 0x0102
row_074: 0x9000
row_075: 0x2E72
row_076: 0x0005
row_077: 0x0080
row_078: 0x0230
row_079: 0x1894
row_080: 0x0A00
row_081: 0x8001
row_082: 0x0298
row_083: 0x9004
row_084: 0x8200
row_085: 0xD084
row_086: 0x6262
row_087: 0x0048
row_088: 0x0002
row_089: 0x40B0
row_090: 0x0004
row_091: 0x0085
row_092: 0x8080
row_093: 0xD210
row_094: 0x5094
row_095: 0x0300
row_096: 0x8001
row_097: 0x0088
row_098: 0x9420
row_099: 0x8280
row_100: 0xD084
row_101: 0x02A0
row_102: 0x0048
row_103: 0x0100
row_104: 0x9880
row_105: 0x0041
row_106: 0x0005
row_107: 0x1102
row_108: 0x2200
row_109: 0x0068
row_110: 0x0200
row_111: 0x1400
row_112: 0x0288
row_113: 0x0404
row_114: 0x8200
row_115: 0xD084
row_116: 0x8682
row_117: 0x0058
row_118: 0x0102
row_119: 0x90A0
row_120: 0x0404
row_121: 0x0095
row_122: 0x8080
row_123: 0x7210
row_124: 0x1052
row_125: 0x0200
row_126: 0x9000
row_127: 0x0058
row_128: 0x0400
row_129: 0x8200
row_130: 0x5004
row_131: 0x8482
row_132: 0x0048
row_133: 0x0102
row_134: 0x80A0
row_135: 0x2400
row_136: 0x0085
row_137: 0x8088
row_138: 0xD010
row_139: 0x1036
row_140: 0x0200
row_141: 0x9000
row_142: 0x4488
row_143: 0x1400
row_144: 0x82C0
row_145: 0xE084
row_146: 0x0A20
row_147: 0x5048
row_148: 0x0102
row_149: 0x1040
row_150: 0x0003
row_151: 0x0005
row_152: 0x0080
row_153: 0x0290
row_154: 0x18C4
row_155: 0x0A00
row_156: 0xA401
row_157: 0x00C8
row_158: 0x8404
row_159: 0x8200
row_160: 0x5084
row_161: 0x32E0
row_162: 0x0040
row_163: 0x0001
row_164: 0x1090
row_165: 0x0004
row_166: 0x0005
row_167: 0x8080
row_168: 0x3290
row_169: 0x1886
row_170: 0x0200
row_171: 0xA001
row_172: 0x0288
row_173: 0x9024
row_174: 0x8A00
row_175: 0x5004
row_176: 0x4042
row_177: 0x0040
row_178: 0x0002
row_179: 0x4090
row_180: 0x0041
row_181: 0x0005
row_182: 0x8000
row_183: 0x3000
row_184: 0x480A
row_185: 0x0210
row_186: 0x8001
row_187: 0x0088
row_188: 0x0400
row_189: 0x9220
row_190: 0xF004
row_191: 0x9480
row_192: 0x0058
row_193: 0x010A
row_194: 0x90A0
row_195: 0x0400
row_196: 0x8095
row_197: 0x8080
row_198: 0x7210
row_199: 0x0846
row_200: 0x0200
row_201: 0x9000
row_202: 0x0648
row_203: 0x0400
row_204: 0x8200
row_205: 0xD004
row_206: 0xB080
row_207: 0x0050
row_208: 0x0103
row_209: 0x98A0
row_210: 0x2400
row_211: 0x0095
row_212: 0x8088
row_213: 0x7210
row_214: 0x1856
row_215: 0x0200
row_216: 0x9400
row_217: 0x0100
row_218: 0x0400
row_219: 0x8200
row_220: 0x5004
row_221: 0x08A0
row_222: 0x4000
row_223: 0x0100
row_224: 0x8840
row_225: 0x0004
row_226: 0x0005
row_227: 0x8080
row_228: 0x0290
row_229: 0x58D4
row_230: 0x0A00
row_231: 0xA001
row_232: 0x02D8
row_233: 0x9404
row_234: 0x8200
row_235: 0x5004
row_236: 0x22C0
row_237: 0x0008
row_238: 0x0103
row_239: 0x0890
row_240: 0x1104
row_241: 0x0026
row_242: 0x5200
row_243: 0x020A
row_244: 0x0812
row_245: 0x0281
row_246: 0x0006
row_247: 0x4002
row_248: 0x2050
row_249: 0x0100
row_250: 0x0104
row_251: 0x9010
row_252: 0x1030
row_253: 0x1030
row_254: 0x8000
row_255: 0x4001
