// ProSparsity Hardware Test Data (256 neurons × 16 timesteps)
// Format: 16-bit hex values, one per neuron row
// Total neurons: 256
// Raw spike data for ProSparsity reuse detection

neuron_000: 0x0001
neuron_001: 0x0005
neuron_002: 0x0080
neuron_003: 0xC052
neuron_004: 0x5894
neuron_005: 0x0A00
neuron_006: 0x8001
neuron_007: 0x0090
neuron_008: 0x8404
neuron_009: 0x8280
neuron_010: 0xD084
neuron_011: 0x2632
neuron_012: 0x0000
neuron_013: 0x0002
neuron_014: 0x08B0
neuron_015: 0x0004
neuron_016: 0x0015
neuron_017: 0x0080
neuron_018: 0xC210
neuron_019: 0x5890
neuron_020: 0x0200
neuron_021: 0x8401
neuron_022: 0x02C8
neuron_023: 0x8424
neuron_024: 0x8200
neuron_025: 0xD084
neuron_026: 0x4612
neuron_027: 0x0000
neuron_028: 0x0103
neuron_029: 0x18B0
neuron_030: 0x0040
neuron_031: 0x8015
neuron_032: 0x8090
neuron_033: 0x2020
neuron_034: 0x5808
neuron_035: 0x0210
neuron_036: 0x8000
neuron_037: 0x0080
neuron_038: 0x0400
neuron_039: 0x8200
neuron_040: 0xD004
neuron_041: 0xC282
neuron_042: 0x0008
neuron_043: 0x0102
neuron_044: 0x8820
neuron_045: 0x0400
neuron_046: 0x0095
neuron_047: 0x8088
neuron_048: 0x7012
neuron_049: 0x5014
neuron_050: 0x0000
neuron_051: 0x9000
neuron_052: 0x0218
neuron_053: 0x8400
neuron_054: 0x8200
neuron_055: 0xD004
neuron_056: 0x8282
neuron_057: 0x0048
neuron_058: 0x0102
neuron_059: 0x8884
neuron_060: 0x2404
neuron_061: 0x0015
neuron_062: 0x8080
neuron_063: 0x7010
neuron_064: 0x1874
neuron_065: 0x0200
neuron_066: 0xB000
neuron_067: 0x01C8
neuron_068: 0x0400
neuron_069: 0x92A0
neuron_070: 0xC084
neuron_071: 0x02A0
neuron_072: 0x4040
neuron_073: 0x0102
neuron_074: 0x9000
neuron_075: 0x0000
neuron_076: 0x0005
neuron_077: 0x0080
neuron_078: 0x0230
neuron_079: 0x1894
neuron_080: 0x0A00
neuron_081: 0x8001
neuron_082: 0x0298
neuron_083: 0x9004
neuron_084: 0x8200
neuron_085: 0xD084
neuron_086: 0x6262
neuron_087: 0x0048
neuron_088: 0x0002
neuron_089: 0x40B0
neuron_090: 0x0004
neuron_091: 0x0085
neuron_092: 0x8080
neuron_093: 0xD210
neuron_094: 0x5094
neuron_095: 0x0300
neuron_096: 0x8001
neuron_097: 0x0088
neuron_098: 0x9420
neuron_099: 0x8280
neuron_100: 0xD084
neuron_101: 0x02A0
neuron_102: 0x0048
neuron_103: 0x0100
neuron_104: 0x9880
neuron_105: 0x0041
neuron_106: 0x0005
neuron_107: 0x0000
neuron_108: 0x2200
neuron_109: 0x0068
neuron_110: 0x0200
neuron_111: 0x1400
neuron_112: 0x0288
neuron_113: 0x0404
neuron_114: 0x8200
neuron_115: 0xD084
neuron_116: 0x8682
neuron_117: 0x0058
neuron_118: 0x0102
neuron_119: 0x90A0
neuron_120: 0x0404
neuron_121: 0x0095
neuron_122: 0x8080
neuron_123: 0x7210
neuron_124: 0x1052
neuron_125: 0x0200
neuron_126: 0x9000
neuron_127: 0x0058
neuron_128: 0x0400
neuron_129: 0x8200
neuron_130: 0x5004
neuron_131: 0x8482
neuron_132: 0x0048
neuron_133: 0x0102
neuron_134: 0x80A0
neuron_135: 0x2400
neuron_136: 0x0085
neuron_137: 0x8088
neuron_138: 0xD010
neuron_139: 0x1036
neuron_140: 0x0200
neuron_141: 0x9000
neuron_142: 0x4488
neuron_143: 0x1400
neuron_144: 0x82C0
neuron_145: 0xE084
neuron_146: 0x0A20
neuron_147: 0x5048
neuron_148: 0x0102
neuron_149: 0x1040
neuron_150: 0x0003
neuron_151: 0x0005
neuron_152: 0x0080
neuron_153: 0x0290
neuron_154: 0x18C4
neuron_155: 0x0A00
neuron_156: 0xA401
neuron_157: 0x00C8
neuron_158: 0x8404
neuron_159: 0x8200
neuron_160: 0x5084
neuron_161: 0x32E0
neuron_162: 0x0040
neuron_163: 0x0001
neuron_164: 0x1090
neuron_165: 0x0004
neuron_166: 0x0005
neuron_167: 0x8080
neuron_168: 0x3290
neuron_169: 0x1886
neuron_170: 0x0200
neuron_171: 0xA001
neuron_172: 0x0288
neuron_173: 0x9024
neuron_174: 0x8A00
neuron_175: 0x5004
neuron_176: 0x4042
neuron_177: 0x0040
neuron_178: 0x0002
neuron_179: 0x4090
neuron_180: 0x0041
neuron_181: 0x0005
neuron_182: 0x8000
neuron_183: 0x3000
neuron_184: 0x480A
neuron_185: 0x0210
neuron_186: 0x8001
neuron_187: 0x0088
neuron_188: 0x0400
neuron_189: 0x9220
neuron_190: 0xF004
neuron_191: 0x9480
neuron_192: 0x0058
neuron_193: 0x010A
neuron_194: 0x90A0
neuron_195: 0x0400
neuron_196: 0x8095
neuron_197: 0x8080
neuron_198: 0x7210
neuron_199: 0x0846
neuron_200: 0x0200
neuron_201: 0x9000
neuron_202: 0x0648
neuron_203: 0x0400
neuron_204: 0x8200
neuron_205: 0xD004
neuron_206: 0xB080
neuron_207: 0x0050
neuron_208: 0x0103
neuron_209: 0x98A0
neuron_210: 0x2400
neuron_211: 0x0095
neuron_212: 0x8088
neuron_213: 0x7210
neuron_214: 0x1856
neuron_215: 0x0200
neuron_216: 0x9400
neuron_217: 0x0100
neuron_218: 0x0400
neuron_219: 0x8200
neuron_220: 0x5004
neuron_221: 0x08A0
neuron_222: 0x4000
neuron_223: 0x0100
neuron_224: 0x8840
neuron_225: 0x0004
neuron_226: 0x0005
neuron_227: 0x8080
neuron_228: 0x0290
neuron_229: 0x58D4
neuron_230: 0x0A00
neuron_231: 0xA001
neuron_232: 0x02D8
neuron_233: 0x9404
neuron_234: 0x8200
neuron_235: 0x5004
neuron_236: 0x22C0
neuron_237: 0x0008
neuron_238: 0x0103
neuron_239: 0x0890
neuron_240: 0x0000
neuron_241: 0x0000
neuron_242: 0x0000
neuron_243: 0x0000
neuron_244: 0x0000
neuron_245: 0x0000
neuron_246: 0x0000
neuron_247: 0x0000
neuron_248: 0x0000
neuron_249: 0x0000
neuron_250: 0x0000
neuron_251: 0x0000
neuron_252: 0x0000
neuron_253: 0x0000
neuron_254: 0x0000
neuron_255: 0x0000
