// ProsperityHDL Tile Data (256x16)
// Format: 16-bit hex values, one per row
// Total rows: 256
// Generated from SDT CIFAR-10 data

row_000: 0x5A20
row_001: 0x69FE
row_002: 0x5FFF
row_003: 0xFB69
row_004: 0x8F9F
row_005: 0xBB39
row_006: 0xD2D1
row_007: 0xFDB4
row_008: 0xE971
row_009: 0xDBF5
row_010: 0x4077
row_011: 0xCFBB
row_012: 0x3BE7
row_013: 0xDB4C
row_014: 0x6FD3
row_015: 0xB6E0
row_016: 0xFF1A
row_017: 0x2335
row_018: 0xE294
row_019: 0xE6F3
row_020: 0x1EAB
row_021: 0xD7DE
row_022: 0x4F06
row_023: 0xFE7D
row_024: 0x4D5D
row_025: 0xCF42
row_026: 0x3D13
row_027: 0x09FB
row_028: 0x4DDB
row_029: 0xB7AF
row_030: 0xB149
row_031: 0x213D
row_032: 0x60FA
row_033: 0xDC59
row_034: 0x8955
row_035: 0xD22F
row_036: 0x41F8
row_037: 0xA7A4
row_038: 0x67C3
row_039: 0x6569
row_040: 0xBCD2
row_041: 0xDAB9
row_042: 0xCB83
row_043: 0xDC29
row_044: 0xF9D0
row_045: 0x939C
row_046: 0x5F77
row_047: 0xAEB9
row_048: 0x1874
row_049: 0xF7E6
row_050: 0x7567
row_051: 0x7B4A
row_052: 0x930E
row_053: 0xFBD1
row_054: 0xD1C3
row_055: 0xFD89
row_056: 0xC9CB
row_057: 0xC7E5
row_058: 0x2556
row_059: 0x6713
row_060: 0xAABB
row_061: 0x93CC
row_062: 0xA859
row_063: 0x2546
row_064: 0xE61C
row_065: 0x4653
row_066: 0xF9C3
row_067: 0xD422
row_068: 0x27A8
row_069: 0x5BDC
row_070: 0x6F0A
row_071: 0xC4F3
row_072: 0xDEAC
row_073: 0xC713
row_074: 0x7F12
row_075: 0x317F
row_076: 0xD88B
row_077: 0x293B
row_078: 0x3B3A
row_079: 0xA8AD
row_080: 0x6D32
row_081: 0xEF58
row_082: 0xECD6
row_083: 0xC315
row_084: 0x40A0
row_085: 0xF3B0
row_086: 0xADCF
row_087: 0xEF19
row_088: 0x8EAE
row_089: 0x9B2B
row_090: 0x9385
row_091: 0x3A3F
row_092: 0xD998
row_093: 0xEEBD
row_094: 0x5E3B
row_095: 0xEABD
row_096: 0xFAC2
row_097: 0x5BFE
row_098: 0x4F09
row_099: 0xFFFF
row_100: 0xB96F
row_101: 0xBBB7
row_102: 0xF293
row_103: 0xD549
row_104: 0xEBF9
row_105: 0x93AF
row_106: 0xF873
row_107: 0x8F3B
row_108: 0x7B2F
row_109: 0xA28E
row_110: 0xED15
row_111: 0xB6D9
row_112: 0x579D
row_113: 0x64F3
row_114: 0x2BF0
row_115: 0xF736
row_116: 0x0DF9
row_117: 0x46FC
row_118: 0xEEB6
row_119: 0xF17E
row_120: 0xE776
row_121: 0xCF57
row_122: 0xE510
row_123: 0x3851
row_124: 0xDBFD
row_125: 0xEBE7
row_126: 0x37E1
row_127: 0x877D
row_128: 0xFD5E
row_129: 0xFE78
row_130: 0xBA4D
row_131: 0xF374
row_132: 0x77B3
row_133: 0xA9A6
row_134: 0xF1E7
row_135: 0xFFDA
row_136: 0xCEAC
row_137: 0xDCFB
row_138: 0x2EC2
row_139: 0xF33F
row_140: 0xF99F
row_141: 0xD2FF
row_142: 0x717C
row_143: 0xABE5
row_144: 0x7DE0
row_145: 0xFD86
row_146: 0xDF39
row_147: 0x794A
row_148: 0xF9C5
row_149: 0xBBE4
row_150: 0xDDF7
row_151: 0xE7D2
row_152: 0xFF28
row_153: 0x8A1F
row_154: 0xD14E
row_155: 0x17B2
row_156: 0x3D75
row_157: 0xA04F
row_158: 0x4B79
row_159: 0x23DB
row_160: 0x3CFD
row_161: 0x21F5
row_162: 0x3196
row_163: 0x9D2A
row_164: 0x6DEA
row_165: 0x757A
row_166: 0x7C69
row_167: 0xDBF5
row_168: 0x47E0
row_169: 0x5EDA
row_170: 0x6F13
row_171: 0xA26B
row_172: 0x6DBD
row_173: 0xB54B
row_174: 0x3C36
row_175: 0x3B61
row_176: 0x5657
row_177: 0x9ED2
row_178: 0xB37F
row_179: 0x7766
row_180: 0xC938
row_181: 0xF7B2
row_182: 0xFD53
row_183: 0xDB4F
row_184: 0xDC54
row_185: 0x1EE9
row_186: 0xF301
row_187: 0x9B69
row_188: 0xFDFD
row_189: 0x13DC
row_190: 0x39D0
row_191: 0x6BAD
row_192: 0xF88B
row_193: 0xC8DB
row_194: 0x0FCD
row_195: 0xD9E4
row_196: 0xFFCF
row_197: 0x7BF2
row_198: 0x795D
row_199: 0x478A
row_200: 0x5B3E
row_201: 0xF2ED
row_202: 0xA95F
row_203: 0xAE16
row_204: 0x356F
row_205: 0xD6BE
row_206: 0x1AB3
row_207: 0xE8E3
row_208: 0xEE5C
row_209: 0x2C99
row_210: 0xA3EB
row_211: 0x8BAB
row_212: 0xCFBC
row_213: 0x6BFC
row_214: 0x4F3C
row_215: 0xC9F3
row_216: 0x7579
row_217: 0xA7A7
row_218: 0x79F1
row_219: 0xEB79
row_220: 0x083D
row_221: 0xF953
row_222: 0xBC18
row_223: 0x64B7
row_224: 0x4EF0
row_225: 0xEB5F
row_226: 0x95EA
row_227: 0x2E6F
row_228: 0x7D77
row_229: 0xFBF3
row_230: 0xF5C1
row_231: 0x6758
row_232: 0xECF0
row_233: 0x3835
row_234: 0xE7E1
row_235: 0x56BF
row_236: 0xB698
row_237: 0x1AEC
row_238: 0x5DC1
row_239: 0xEA53
row_240: 0x5A40
row_241: 0x41CE
row_242: 0xDF3D
row_243: 0xDF5E
row_244: 0xB124
row_245: 0x7B7B
row_246: 0xF083
row_247: 0x4710
row_248: 0xE5A7
row_249: 0xBBA7
row_250: 0x2855
row_251: 0x4E1B
row_252: 0x39A7
row_253: 0xB89D
row_254: 0xCC9D
row_255: 0x3741
