// ProSparsity Hardware Test Data (256 neurons × 16 timesteps)
// Format: 16-bit hex values, one per neuron row
// Total neurons: 256
// Raw spike data for ProSparsity reuse detection

neuron_000: 0x1220
neuron_001: 0x29FC
neuron_002: 0x56FF
neuron_003: 0xAA29
neuron_004: 0x0F9F
neuron_005: 0x8B39
neuron_006: 0x92D1
neuron_007: 0xFDB4
neuron_008: 0xA971
neuron_009: 0xDBF5
neuron_010: 0x4077
neuron_011: 0xC9AB
neuron_012: 0x3BE7
neuron_013: 0xDB48
neuron_014: 0x6FC3
neuron_015: 0xB6E0
neuron_016: 0xFF0A
neuron_017: 0x2335
neuron_018: 0xE294
neuron_019: 0x66F1
neuron_020: 0x1AA3
neuron_021: 0xD7DE
neuron_022: 0x4706
neuron_023: 0x3E3D
neuron_024: 0x485D
neuron_025: 0xCD40
neuron_026: 0x1C03
neuron_027: 0x09FB
neuron_028: 0x4DDB
neuron_029: 0x36AD
neuron_030: 0xA149
neuron_031: 0x213D
neuron_032: 0x60FA
neuron_033: 0x5459
neuron_034: 0x0954
neuron_035: 0xD20F
neuron_036: 0x41E8
neuron_037: 0xA7A4
neuron_038: 0x67C2
neuron_039: 0x6461
neuron_040: 0x38D2
neuron_041: 0xCAB8
neuron_042: 0xC983
neuron_043: 0xCC09
neuron_044: 0xF940
neuron_045: 0x939C
neuron_046: 0x5F77
neuron_047: 0x8EB9
neuron_048: 0x1874
neuron_049: 0xB7E4
neuron_050: 0x6466
neuron_051: 0x6B0A
neuron_052: 0x130E
neuron_053: 0xC9D1
neuron_054: 0x91C3
neuron_055: 0xFD89
neuron_056: 0xC9CB
neuron_057: 0xC7E5
neuron_058: 0x2556
neuron_059: 0x6513
neuron_060: 0xAABB
neuron_061: 0x93C8
neuron_062: 0xA049
neuron_063: 0x2546
neuron_064: 0xE60C
neuron_065: 0x4643
neuron_066: 0xF9C3
neuron_067: 0x5420
neuron_068: 0x23A0
neuron_069: 0x5BDC
neuron_070: 0x670A
neuron_071: 0x04B3
neuron_072: 0xDEAC
neuron_073: 0xC511
neuron_074: 0x7E02
neuron_075: 0x317E
neuron_076: 0xD88B
neuron_077: 0x2839
neuron_078: 0x3B3A
neuron_079: 0xA88D
neuron_080: 0x6D32
neuron_081: 0xEF18
neuron_082: 0x6C96
neuron_083: 0xC315
neuron_084: 0x00A0
neuron_085: 0xF3B0
neuron_086: 0xACCF
neuron_087: 0xEF19
neuron_088: 0x0AAE
neuron_089: 0x9B2B
neuron_090: 0x9185
neuron_091: 0x2A3F
neuron_092: 0xD998
neuron_093: 0xEEBD
neuron_094: 0x5E3B
neuron_095: 0xCABD
neuron_096: 0xB2C2
neuron_097: 0x1BFE
neuron_098: 0x4E09
neuron_099: 0xEEBF
neuron_100: 0x396F
neuron_101: 0x8BB7
neuron_102: 0xF293
neuron_103: 0xD549
neuron_104: 0xEBF9
neuron_105: 0x93AF
neuron_106: 0xF873
neuron_107: 0x8D3B
neuron_108: 0x7B2F
neuron_109: 0xA28A
neuron_110: 0xED05
neuron_111: 0xB6D9
neuron_112: 0x578D
neuron_113: 0x64E3
neuron_114: 0x2BF0
neuron_115: 0x7736
neuron_116: 0x09F1
neuron_117: 0x06FC
neuron_118: 0xEEB6
neuron_119: 0xB17E
neuron_120: 0xE276
neuron_121: 0xCD55
neuron_122: 0xC400
neuron_123: 0x3850
neuron_124: 0xDBED
neuron_125: 0xEAE7
neuron_126: 0x07E1
neuron_127: 0x875D
neuron_128: 0xFD5E
neuron_129: 0xFE78
neuron_130: 0xBA4D
neuron_131: 0xD374
neuron_132: 0x77B3
neuron_133: 0xA9A6
neuron_134: 0xF0E7
neuron_135: 0xFED2
neuron_136: 0x4AAC
neuron_137: 0xDCFA
neuron_138: 0x2EC2
neuron_139: 0xF31F
neuron_140: 0xE98F
neuron_141: 0xD2FF
neuron_142: 0x717C
neuron_143: 0x8BE5
neuron_144: 0x35E0
neuron_145: 0xBD86
neuron_146: 0xDE39
neuron_147: 0x690A
neuron_148: 0x78C5
neuron_149: 0xABE4
neuron_150: 0xDDF7
neuron_151: 0xE7D2
neuron_152: 0xFF28
neuron_153: 0x8A1F
neuron_154: 0xD14E
neuron_155: 0x15A2
neuron_156: 0x3D75
neuron_157: 0xA04B
neuron_158: 0x4B79
neuron_159: 0x23DB
neuron_160: 0x3CFD
neuron_161: 0x21E5
neuron_162: 0x3194
neuron_163: 0x1D28
neuron_164: 0x6DE2
neuron_165: 0x757A
neuron_166: 0x7C69
neuron_167: 0xDBB5
neuron_168: 0x42E0
neuron_169: 0x5CDA
neuron_170: 0x4F03
neuron_171: 0xA26A
neuron_172: 0x6DAD
neuron_173: 0xB449
neuron_174: 0x2C36
neuron_175: 0x3B41
neuron_176: 0x5657
neuron_177: 0x9E92
neuron_178: 0x333F
neuron_179: 0x5766
neuron_180: 0xC908
neuron_181: 0xF7B2
neuron_182: 0xFD53
neuron_183: 0xDA4F
neuron_184: 0xD854
neuron_185: 0x1EE9
neuron_186: 0xF101
neuron_187: 0x8B49
neuron_188: 0xFDED
neuron_189: 0x13DC
neuron_190: 0x39D0
neuron_191: 0x6BAC
neuron_192: 0xF88B
neuron_193: 0x88C9
neuron_194: 0x0ECC
neuron_195: 0x89E4
neuron_196: 0xFECF
neuron_197: 0x6972
neuron_198: 0x795D
neuron_199: 0x478A
neuron_200: 0x1B3E
neuron_201: 0xF2ED
neuron_202: 0xA95F
neuron_203: 0xAA16
neuron_204: 0x356F
neuron_205: 0xD6BA
neuron_206: 0x1AB3
neuron_207: 0xE8E3
neuron_208: 0xEE5C
neuron_209: 0x2C89
neuron_210: 0xA3E9
neuron_211: 0x0BA9
neuron_212: 0x8BBC
neuron_213: 0x6BFC
neuron_214: 0x473C
neuron_215: 0x09B3
neuron_216: 0x7079
neuron_217: 0xA704
neuron_218: 0x78E1
neuron_219: 0xEB78
neuron_220: 0x083D
neuron_221: 0x7851
neuron_222: 0x9C18
neuron_223: 0x64B7
neuron_224: 0x4EF0
neuron_225: 0xEB1F
neuron_226: 0x95EA
neuron_227: 0x2E4F
neuron_228: 0x3D57
neuron_229: 0xFBF3
neuron_230: 0xF4C0
neuron_231: 0x6758
neuron_232: 0x6CF0
neuron_233: 0x2834
neuron_234: 0xE7E1
neuron_235: 0x569F
neuron_236: 0xA418
neuron_237: 0x1AEC
neuron_238: 0x5DC1
neuron_239: 0xCA53
neuron_240: 0x1240
neuron_241: 0x01CC
neuron_242: 0xDE3D
neuron_243: 0x8E1E
neuron_244: 0x3124
neuron_245: 0x4B7B
neuron_246: 0xB083
neuron_247: 0x4710
neuron_248: 0xE5A7
neuron_249: 0xBBA7
neuron_250: 0x2855
neuron_251: 0x4C1B
neuron_252: 0x39A7
neuron_253: 0xB89D
neuron_254: 0xCC8D
neuron_255: 0x3741
