// ProSparsity Hardware Test Data (256 neurons × 16 timesteps)
// Format: 16-bit hex values, one per neuron row
// Total neurons: 256
// Raw spike data for ProSparsity reuse detection

neuron_000: 0x5EA0
neuron_001: 0x69FE
neuron_002: 0xDFFF
neuron_003: 0xFF79
neuron_004: 0x8FFF
neuron_005: 0xFBBD
neuron_006: 0xDAD9
neuron_007: 0xFFB7
neuron_008: 0xF971
neuron_009: 0xFBF5
neuron_010: 0x48F7
neuron_011: 0xEFBB
neuron_012: 0x3FF7
neuron_013: 0xDF4C
neuron_014: 0x6FD3
neuron_015: 0xF6E0
neuron_016: 0xFF1A
neuron_017: 0x23BD
neuron_018: 0xF29E
neuron_019: 0xF6F3
neuron_020: 0x1EEB
neuron_021: 0xD7DE
neuron_022: 0x7F8E
neuron_023: 0xFE7D
neuron_024: 0xCF5D
neuron_025: 0xDFE2
neuron_026: 0x3D13
neuron_027: 0x1BFB
neuron_028: 0x7FFF
neuron_029: 0xB7AF
neuron_030: 0xBD7D
neuron_031: 0xE17F
neuron_032: 0x62FA
neuron_033: 0xDCF9
neuron_034: 0xC955
neuron_035: 0xDE2F
neuron_036: 0x73FA
neuron_037: 0xA7AC
neuron_038: 0x67E7
neuron_039: 0xE76D
neuron_040: 0xBFF3
neuron_041: 0xDABB
neuron_042: 0xEB8B
neuron_043: 0xDD29
neuron_044: 0xFBF0
neuron_045: 0x979C
neuron_046: 0xFF77
neuron_047: 0xBEBF
neuron_048: 0x5EF4
neuron_049: 0xF7E6
neuron_050: 0xFDF7
neuron_051: 0x7F5A
neuron_052: 0x976E
neuron_053: 0xFBF5
neuron_054: 0xDBCB
neuron_055: 0xFF8F
neuron_056: 0xD9CB
neuron_057: 0xE7E5
neuron_058: 0x2DD6
neuron_059: 0x671B
neuron_060: 0xAFBB
neuron_061: 0x97CC
neuron_062: 0xAC59
neuron_063: 0xE566
neuron_064: 0xE71C
neuron_065: 0x46DB
neuron_066: 0xF9DB
neuron_067: 0xD472
neuron_068: 0x2FEA
neuron_069: 0xDBDC
neuron_070: 0x7F8E
neuron_071: 0xD4F3
neuron_072: 0xDFAC
neuron_073: 0xD7B3
neuron_074: 0x7F12
neuron_075: 0x33FF
neuron_076: 0xFBEF
neuron_077: 0xA93B
neuron_078: 0xBF7F
neuron_079: 0xE8EF
neuron_080: 0x6FB2
neuron_081: 0xEFF8
neuron_082: 0xECD7
neuron_083: 0xCF15
neuron_084: 0x72F2
neuron_085: 0xF3B8
neuron_086: 0xADEF
neuron_087: 0xEF1D
neuron_088: 0xAFAF
neuron_089: 0x9BAB
neuron_090: 0xB38F
neuron_091: 0x7B3F
neuron_092: 0xDBB8
neuron_093: 0xEEBD
neuron_094: 0xFE3B
neuron_095: 0xFEBF
neuron_096: 0xFEC2
neuron_097: 0x5BFE
neuron_098: 0xDF9D
neuron_099: 0xFFFF
neuron_100: 0xBD6F
neuron_101: 0xFBB7
neuron_102: 0xFADB
neuron_103: 0xD74F
neuron_104: 0xFBF9
neuron_105: 0xF3AF
neuron_106: 0xF8F3
neuron_107: 0xAF3B
neuron_108: 0x7F3F
neuron_109: 0xA78E
neuron_110: 0xED15
neuron_111: 0xF6F9
neuron_112: 0x579D
neuron_113: 0x64FB
neuron_114: 0x3BFA
neuron_115: 0xF776
neuron_116: 0x0DFB
neuron_117: 0xC6FC
neuron_118: 0xFEBE
neuron_119: 0xF17E
neuron_120: 0xE776
neuron_121: 0xDFF7
neuron_122: 0xED10
neuron_123: 0x3AF1
neuron_124: 0xFBFD
neuron_125: 0xEBE7
neuron_126: 0xBFFD
neuron_127: 0xC77F
neuron_128: 0xFFDE
neuron_129: 0xFEF8
neuron_130: 0xFA4D
neuron_131: 0xFF74
neuron_132: 0x77F3
neuron_133: 0xABAE
neuron_134: 0xF5E7
neuron_135: 0xFFDE
neuron_136: 0xEFAD
neuron_137: 0xDCFB
neuron_138: 0x2FCA
neuron_139: 0xFB3F
neuron_140: 0xFBBF
neuron_141: 0xD6FF
neuron_142: 0xF57C
neuron_143: 0xBFE7
neuron_144: 0x7FE0
neuron_145: 0xFD86
neuron_146: 0xDFBD
neuron_147: 0x7D5A
neuron_148: 0xFDE7
neuron_149: 0xFBE5
neuron_150: 0xDFFF
neuron_151: 0xE7D7
neuron_152: 0xFF28
neuron_153: 0xEA3F
neuron_154: 0xD9CE
neuron_155: 0x37BB
neuron_156: 0x3D75
neuron_157: 0xA54F
neuron_158: 0x4F79
neuron_159: 0xE3FB
neuron_160: 0x3DFD
neuron_161: 0x21FD
neuron_162: 0x319E
neuron_163: 0xDD7A
neuron_164: 0x6DEA
neuron_165: 0xF5FA
neuron_166: 0x7CED
neuron_167: 0xDBF5
neuron_168: 0xC7E4
neuron_169: 0x5EFA
neuron_170: 0x6F13
neuron_171: 0xB2EB
neuron_172: 0x7FFD
neuron_173: 0xB54B
neuron_174: 0xBD7F
neuron_175: 0xFB63
neuron_176: 0x56D7
neuron_177: 0xDEFA
neuron_178: 0xF37F
neuron_179: 0x7F66
neuron_180: 0xFB7A
neuron_181: 0xF7BA
neuron_182: 0xFD77
neuron_183: 0xDB4F
neuron_184: 0xFF75
neuron_185: 0x9EEB
neuron_186: 0xF38B
neuron_187: 0xDB69
neuron_188: 0xFFFD
neuron_189: 0x17DC
neuron_190: 0xBDD0
neuron_191: 0x7FAF
neuron_192: 0xFE8B
neuron_193: 0xC8DF
neuron_194: 0x9FDD
neuron_195: 0xDDF4
neuron_196: 0xFFEF
neuron_197: 0x7BFF
neuron_198: 0xFB5D
neuron_199: 0x478F
neuron_200: 0x5B3E
neuron_201: 0xF2ED
neuron_202: 0xA9DF
neuron_203: 0xAF1F
neuron_204: 0x357F
neuron_205: 0xD7BE
neuron_206: 0x1EB3
neuron_207: 0xE8E3
neuron_208: 0xEF5C
neuron_209: 0x2C99
neuron_210: 0xB3FB
neuron_211: 0xDBFB
neuron_212: 0xCFFE
neuron_213: 0xEBFC
neuron_214: 0x7FBC
neuron_215: 0xD9F3
neuron_216: 0xF77D
neuron_217: 0xF7A7
neuron_218: 0x79F1
neuron_219: 0xFBF9
neuron_220: 0x7B7D
neuron_221: 0xF953
neuron_222: 0xBD7D
neuron_223: 0xE4F7
neuron_224: 0x4EF2
neuron_225: 0xEFFF
neuron_226: 0xD5EB
neuron_227: 0x2E6F
neuron_228: 0x7F77
neuron_229: 0xFBFB
neuron_230: 0xF5E5
neuron_231: 0xE75C
neuron_232: 0xEFF1
neuron_233: 0xB8BF
neuron_234: 0xE7EB
neuron_235: 0x5FBF
neuron_236: 0xBEB8
neuron_237: 0x1EFC
neuron_238: 0xFDC1
neuron_239: 0xFE57
neuron_240: 0x5EC0
neuron_241: 0x41CE
neuron_242: 0xDFBD
neuron_243: 0xDF5E
neuron_244: 0xB566
neuron_245: 0x7BFF
neuron_246: 0xFACB
neuron_247: 0x4717
neuron_248: 0xF5A7
neuron_249: 0xFBA7
neuron_250: 0x28D5
neuron_251: 0x6F1B
neuron_252: 0x3DB7
neuron_253: 0xBD9D
neuron_254: 0xCC9D
neuron_255: 0xF761
