// ProSparsity Hardware Test Data (256 neurons × 16 timesteps)
// Format: 16-bit hex values, one per neuron row
// Total neurons: 256
// Raw spike data for ProSparsity reuse detection

neuron_000: 0x5A20
neuron_001: 0x69FE
neuron_002: 0x5FFF
neuron_003: 0xFB69
neuron_004: 0x8FFF
neuron_005: 0xBB39
neuron_006: 0xD2D1
neuron_007: 0xFDB5
neuron_008: 0xE971
neuron_009: 0xDBF5
neuron_010: 0x4077
neuron_011: 0xCFBB
neuron_012: 0x3FF7
neuron_013: 0xDF4C
neuron_014: 0x6FD3
neuron_015: 0xB6E0
neuron_016: 0xFF1A
neuron_017: 0x2335
neuron_018: 0xF296
neuron_019: 0xF6F3
neuron_020: 0x1EAB
neuron_021: 0xD7DE
neuron_022: 0x5F06
neuron_023: 0xFE7D
neuron_024: 0x4D5D
neuron_025: 0xCF42
neuron_026: 0x3D13
neuron_027: 0x0BFB
neuron_028: 0x4DDF
neuron_029: 0xB7AF
neuron_030: 0xB549
neuron_031: 0x613D
neuron_032: 0x60FA
neuron_033: 0xDC79
neuron_034: 0x8955
neuron_035: 0xD22F
neuron_036: 0x61F8
neuron_037: 0xA7A4
neuron_038: 0x67E3
neuron_039: 0x6569
neuron_040: 0xBCD2
neuron_041: 0xDAB9
neuron_042: 0xCB8B
neuron_043: 0xDC29
neuron_044: 0xF9D0
neuron_045: 0x939C
neuron_046: 0x5F77
neuron_047: 0xAEB9
neuron_048: 0x5874
neuron_049: 0xF7E6
neuron_050: 0x7567
neuron_051: 0x7B4A
neuron_052: 0x936E
neuron_053: 0xFBD1
neuron_054: 0xD1C3
neuron_055: 0xFD89
neuron_056: 0xC9CB
neuron_057: 0xC7E5
neuron_058: 0x2556
neuron_059: 0x6713
neuron_060: 0xAEBB
neuron_061: 0x97CC
neuron_062: 0xA859
neuron_063: 0x2566
neuron_064: 0xE61C
neuron_065: 0x4653
neuron_066: 0xF9C3
neuron_067: 0xD422
neuron_068: 0x2FA8
neuron_069: 0x5BDC
neuron_070: 0x7F0A
neuron_071: 0xD4F3
neuron_072: 0xDEAC
neuron_073: 0xC713
neuron_074: 0x7F12
neuron_075: 0x337F
neuron_076: 0xD8CF
neuron_077: 0xA93B
neuron_078: 0x3F7A
neuron_079: 0xE8AD
neuron_080: 0x6D32
neuron_081: 0xEF78
neuron_082: 0xECD6
neuron_083: 0xC315
neuron_084: 0x60A0
neuron_085: 0xF3B0
neuron_086: 0xADEF
neuron_087: 0xEF19
neuron_088: 0x8EAE
neuron_089: 0x9B2B
neuron_090: 0x938D
neuron_091: 0x3A3F
neuron_092: 0xD998
neuron_093: 0xEEBD
neuron_094: 0x5E3B
neuron_095: 0xEABD
neuron_096: 0xFAC2
neuron_097: 0x5BFE
neuron_098: 0x5F09
neuron_099: 0xFFFF
neuron_100: 0xB96F
neuron_101: 0xBBB7
neuron_102: 0xF293
neuron_103: 0xD549
neuron_104: 0xEBF9
neuron_105: 0xD3AF
neuron_106: 0xF873
neuron_107: 0x8F3B
neuron_108: 0x7F3F
neuron_109: 0xA68E
neuron_110: 0xED15
neuron_111: 0xB6F9
neuron_112: 0x579D
neuron_113: 0x64F3
neuron_114: 0x3BF2
neuron_115: 0xF736
neuron_116: 0x0DF9
neuron_117: 0x46FC
neuron_118: 0xFEB6
neuron_119: 0xF17E
neuron_120: 0xE776
neuron_121: 0xCF57
neuron_122: 0xE510
neuron_123: 0x3A71
neuron_124: 0xDBFD
neuron_125: 0xEBE7
neuron_126: 0x37E9
neuron_127: 0xC77D
neuron_128: 0xFD5E
neuron_129: 0xFE78
neuron_130: 0xBA4D
neuron_131: 0xF374
neuron_132: 0x77B3
neuron_133: 0xA9A6
neuron_134: 0xF1E7
neuron_135: 0xFFDA
neuron_136: 0xCEAC
neuron_137: 0xDCFB
neuron_138: 0x2FCA
neuron_139: 0xFB3F
neuron_140: 0xF99F
neuron_141: 0xD2FF
neuron_142: 0x757C
neuron_143: 0xABE5
neuron_144: 0x7DE0
neuron_145: 0xFD86
neuron_146: 0xDF39
neuron_147: 0x794A
neuron_148: 0xF9E5
neuron_149: 0xBBE4
neuron_150: 0xDDF7
neuron_151: 0xE7D3
neuron_152: 0xFF28
neuron_153: 0xCA3F
neuron_154: 0xD14E
neuron_155: 0x17B3
neuron_156: 0x3D75
neuron_157: 0xA44F
neuron_158: 0x4B79
neuron_159: 0x23FB
neuron_160: 0x3CFD
neuron_161: 0x21F5
neuron_162: 0x3196
neuron_163: 0x9D2A
neuron_164: 0x6DEA
neuron_165: 0x757A
neuron_166: 0x7C69
neuron_167: 0xDBF5
neuron_168: 0x47E0
neuron_169: 0x5EDA
neuron_170: 0x6F13
neuron_171: 0xA26B
neuron_172: 0x6DFD
neuron_173: 0xB54B
neuron_174: 0x3C7E
neuron_175: 0x7B61
neuron_176: 0x5657
neuron_177: 0x9EF2
neuron_178: 0xB37F
neuron_179: 0x7766
neuron_180: 0xE938
neuron_181: 0xF7B2
neuron_182: 0xFD73
neuron_183: 0xDB4F
neuron_184: 0xDC54
neuron_185: 0x1EE9
neuron_186: 0xF309
neuron_187: 0x9B69
neuron_188: 0xFDFD
neuron_189: 0x13DC
neuron_190: 0x3DD0
neuron_191: 0x6BAD
neuron_192: 0xF88B
neuron_193: 0xC8DB
neuron_194: 0x0FCD
neuron_195: 0xD9E4
neuron_196: 0xFFEF
neuron_197: 0x7BFA
neuron_198: 0x795D
neuron_199: 0x478B
neuron_200: 0x5B3E
neuron_201: 0xF2ED
neuron_202: 0xA95F
neuron_203: 0xAE17
neuron_204: 0x357F
neuron_205: 0xD6BE
neuron_206: 0x1AB3
neuron_207: 0xE8E3
neuron_208: 0xEE5C
neuron_209: 0x2C99
neuron_210: 0xB3EB
neuron_211: 0x9BAB
neuron_212: 0xCFBC
neuron_213: 0x6BFC
neuron_214: 0x5F3C
neuron_215: 0xD9F3
neuron_216: 0x7579
neuron_217: 0xA7A7
neuron_218: 0x79F1
neuron_219: 0xEB79
neuron_220: 0x087D
neuron_221: 0xF953
neuron_222: 0xBC58
neuron_223: 0x64B7
neuron_224: 0x4EF0
neuron_225: 0xEB7F
neuron_226: 0x95EA
neuron_227: 0x2E6F
neuron_228: 0x7D77
neuron_229: 0xFBF3
neuron_230: 0xF5E1
neuron_231: 0x6758
neuron_232: 0xECF0
neuron_233: 0x3835
neuron_234: 0xE7E9
neuron_235: 0x56BF
neuron_236: 0xB698
neuron_237: 0x1AEC
neuron_238: 0x5DC1
neuron_239: 0xEA53
neuron_240: 0x5A40
neuron_241: 0x41CE
neuron_242: 0xDF3D
neuron_243: 0xDF5E
neuron_244: 0xB164
neuron_245: 0x7B7B
neuron_246: 0xF083
neuron_247: 0x4711
neuron_248: 0xE5A7
neuron_249: 0xFBA7
neuron_250: 0x2855
neuron_251: 0x4E1B
neuron_252: 0x3DB7
neuron_253: 0xBC9D
neuron_254: 0xCC9D
neuron_255: 0x3761
