// ProSparsity Hardware Test Data (256 neurons × 16 timesteps)
// Format: 16-bit hex values, one per neuron row
// Total neurons: 256
// Raw spike data for ProSparsity reuse detection

neuron_000: 0x5AA0
neuron_001: 0x69FE
neuron_002: 0xDFFF
neuron_003: 0xFB79
neuron_004: 0x8FFF
neuron_005: 0xFB39
neuron_006: 0xD2D9
neuron_007: 0xFFB7
neuron_008: 0xE971
neuron_009: 0xDBF5
neuron_010: 0x48F7
neuron_011: 0xCFBB
neuron_012: 0x3FF7
neuron_013: 0xDF4C
neuron_014: 0x6FD3
neuron_015: 0xB6E0
neuron_016: 0xFF1A
neuron_017: 0x2335
neuron_018: 0xF296
neuron_019: 0xF6F3
neuron_020: 0x1EAB
neuron_021: 0xD7DE
neuron_022: 0x7F06
neuron_023: 0xFE7D
neuron_024: 0x4D5D
neuron_025: 0xDF42
neuron_026: 0x3D13
neuron_027: 0x0BFB
neuron_028: 0x4DDF
neuron_029: 0xB7AF
neuron_030: 0xBD4D
neuron_031: 0x613F
neuron_032: 0x60FA
neuron_033: 0xDCF9
neuron_034: 0x8955
neuron_035: 0xDE2F
neuron_036: 0x71F8
neuron_037: 0xA7A4
neuron_038: 0x67E7
neuron_039: 0x676D
neuron_040: 0xBDD3
neuron_041: 0xDAB9
neuron_042: 0xEB8B
neuron_043: 0xDC29
neuron_044: 0xF9F0
neuron_045: 0x939C
neuron_046: 0x5F77
neuron_047: 0xAEBF
neuron_048: 0x5AF4
neuron_049: 0xF7E6
neuron_050: 0xFD67
neuron_051: 0x7B5A
neuron_052: 0x936E
neuron_053: 0xFBF1
neuron_054: 0xD3CB
neuron_055: 0xFF8B
neuron_056: 0xC9CB
neuron_057: 0xC7E5
neuron_058: 0x2DD6
neuron_059: 0x6713
neuron_060: 0xAFBB
neuron_061: 0x97CC
neuron_062: 0xA859
neuron_063: 0xA566
neuron_064: 0xE71C
neuron_065: 0x4653
neuron_066: 0xF9C3
neuron_067: 0xD462
neuron_068: 0x2FAA
neuron_069: 0xDBDC
neuron_070: 0x7F0A
neuron_071: 0xD4F3
neuron_072: 0xDEAC
neuron_073: 0xD713
neuron_074: 0x7F12
neuron_075: 0x33FF
neuron_076: 0xD9CF
neuron_077: 0xA93B
neuron_078: 0x3F7E
neuron_079: 0xE8AF
neuron_080: 0x6DB2
neuron_081: 0xEFF8
neuron_082: 0xECD7
neuron_083: 0xCF15
neuron_084: 0x70B0
neuron_085: 0xF3B0
neuron_086: 0xADEF
neuron_087: 0xEF1D
neuron_088: 0xAFAF
neuron_089: 0x9BAB
neuron_090: 0xB38F
neuron_091: 0x7A3F
neuron_092: 0xD9B8
neuron_093: 0xEEBD
neuron_094: 0x5E3B
neuron_095: 0xEABF
neuron_096: 0xFAC2
neuron_097: 0x5BFE
neuron_098: 0xDF09
neuron_099: 0xFFFF
neuron_100: 0xB96F
neuron_101: 0xFBB7
neuron_102: 0xF2DB
neuron_103: 0xD74B
neuron_104: 0xEBF9
neuron_105: 0xD3AF
neuron_106: 0xF8F3
neuron_107: 0x8F3B
neuron_108: 0x7F3F
neuron_109: 0xA68E
neuron_110: 0xED15
neuron_111: 0xB6F9
neuron_112: 0x579D
neuron_113: 0x64F3
neuron_114: 0x3BF2
neuron_115: 0xF776
neuron_116: 0x0DFB
neuron_117: 0xC6FC
neuron_118: 0xFEB6
neuron_119: 0xF17E
neuron_120: 0xE776
neuron_121: 0xDF57
neuron_122: 0xED10
neuron_123: 0x3AF1
neuron_124: 0xDBFD
neuron_125: 0xEBE7
neuron_126: 0x3FED
neuron_127: 0xC77F
neuron_128: 0xFDDE
neuron_129: 0xFEF8
neuron_130: 0xBA4D
neuron_131: 0xFF74
neuron_132: 0x77B3
neuron_133: 0xABA6
neuron_134: 0xF5E7
neuron_135: 0xFFDE
neuron_136: 0xEFAD
neuron_137: 0xDCFB
neuron_138: 0x2FCA
neuron_139: 0xFB3F
neuron_140: 0xF9BF
neuron_141: 0xD2FF
neuron_142: 0x757C
neuron_143: 0xABE7
neuron_144: 0x7FE0
neuron_145: 0xFD86
neuron_146: 0xDF39
neuron_147: 0x795A
neuron_148: 0xF9E5
neuron_149: 0xFBE4
neuron_150: 0xDFFF
neuron_151: 0xE7D3
neuron_152: 0xFF28
neuron_153: 0xCA3F
neuron_154: 0xD9CE
neuron_155: 0x17B3
neuron_156: 0x3D75
neuron_157: 0xA44F
neuron_158: 0x4B79
neuron_159: 0xA3FB
neuron_160: 0x3DFD
neuron_161: 0x21F5
neuron_162: 0x3196
neuron_163: 0xDD6A
neuron_164: 0x6DEA
neuron_165: 0xF57A
neuron_166: 0x7C69
neuron_167: 0xDBF5
neuron_168: 0x47E0
neuron_169: 0x5EDA
neuron_170: 0x6F13
neuron_171: 0xA2EB
neuron_172: 0x6DFD
neuron_173: 0xB54B
neuron_174: 0x3D7E
neuron_175: 0x7B63
neuron_176: 0x56D7
neuron_177: 0x9EF2
neuron_178: 0xB37F
neuron_179: 0x7F66
neuron_180: 0xF938
neuron_181: 0xF7B2
neuron_182: 0xFD77
neuron_183: 0xDB4F
neuron_184: 0xFD55
neuron_185: 0x9EE9
neuron_186: 0xF38B
neuron_187: 0xDB69
neuron_188: 0xFDFD
neuron_189: 0x13DC
neuron_190: 0x3DD0
neuron_191: 0x6BAF
neuron_192: 0xFA8B
neuron_193: 0xC8DB
neuron_194: 0x8FCD
neuron_195: 0xD9F4
neuron_196: 0xFFEF
neuron_197: 0x7BFA
neuron_198: 0xFB5D
neuron_199: 0x478B
neuron_200: 0x5B3E
neuron_201: 0xF2ED
neuron_202: 0xA9DF
neuron_203: 0xAF17
neuron_204: 0x357F
neuron_205: 0xD6BE
neuron_206: 0x1AB3
neuron_207: 0xE8E3
neuron_208: 0xEF5C
neuron_209: 0x2C99
neuron_210: 0xB3EB
neuron_211: 0xDBEB
neuron_212: 0xCFBE
neuron_213: 0xEBFC
neuron_214: 0x7F3C
neuron_215: 0xD9F3
neuron_216: 0x7579
neuron_217: 0xB7A7
neuron_218: 0x79F1
neuron_219: 0xEBF9
neuron_220: 0x097D
neuron_221: 0xF953
neuron_222: 0xBD5C
neuron_223: 0x64B7
neuron_224: 0x4EF2
neuron_225: 0xEBFF
neuron_226: 0x95EB
neuron_227: 0x2E6F
neuron_228: 0x7D77
neuron_229: 0xFBF3
neuron_230: 0xF5E5
neuron_231: 0x675C
neuron_232: 0xEDF1
neuron_233: 0xB8BD
neuron_234: 0xE7EB
neuron_235: 0x56BF
neuron_236: 0xBEB8
neuron_237: 0x1AFC
neuron_238: 0x5DC1
neuron_239: 0xEA57
neuron_240: 0x5AC0
neuron_241: 0x41CE
neuron_242: 0xDF3D
neuron_243: 0xDF5E
neuron_244: 0xB164
neuron_245: 0x7B7B
neuron_246: 0xF2CB
neuron_247: 0x4713
neuron_248: 0xE5A7
neuron_249: 0xFBA7
neuron_250: 0x28D5
neuron_251: 0x4F1B
neuron_252: 0x3DB7
neuron_253: 0xBC9D
neuron_254: 0xCC9D
neuron_255: 0xB761
