// ProsperityHDL Tile Data (256x16)
// Format: 16-bit hex values, one per row
// Total rows: 256
// Generated from SDT CIFAR-10 data

row_000: 0x5AA0
row_001: 0x69FE
row_002: 0xDFFF
row_003: 0xFF79
row_004: 0x8FFF
row_005: 0xFBB9
row_006: 0xDAD9
row_007: 0xFFB7
row_008: 0xE971
row_009: 0xFBF5
row_010: 0x48F7
row_011: 0xCFBB
row_012: 0x3FF7
row_013: 0xDF4C
row_014: 0x6FD3
row_015: 0xF6E0
row_016: 0xFF1A
row_017: 0x23B5
row_018: 0xF29E
row_019: 0xF6F3
row_020: 0x1EEB
row_021: 0xD7DE
row_022: 0x7F8E
row_023: 0xFE7D
row_024: 0xCF5D
row_025: 0xDFC2
row_026: 0x3D13
row_027: 0x0BFB
row_028: 0x7FFF
row_029: 0xB7AF
row_030: 0xBD5D
row_031: 0xE17F
row_032: 0x62FA
row_033: 0xDCF9
row_034: 0x8955
row_035: 0xDE2F
row_036: 0x73FA
row_037: 0xA7AC
row_038: 0x67E7
row_039: 0xE76D
row_040: 0xBFD3
row_041: 0xDAB9
row_042: 0xEB8B
row_043: 0xDD29
row_044: 0xFBF0
row_045: 0x979C
row_046: 0x7F77
row_047: 0xAEBF
row_048: 0x5AF4
row_049: 0xF7E6
row_050: 0xFD77
row_051: 0x7F5A
row_052: 0x976E
row_053: 0xFBF1
row_054: 0xDBCB
row_055: 0xFF8B
row_056: 0xC9CB
row_057: 0xE7E5
row_058: 0x2DD6
row_059: 0x671B
row_060: 0xAFBB
row_061: 0x97CC
row_062: 0xAC59
row_063: 0xE566
row_064: 0xE71C
row_065: 0x46D3
row_066: 0xF9DB
row_067: 0xD472
row_068: 0x2FEA
row_069: 0xDBDC
row_070: 0x7F8E
row_071: 0xD4F3
row_072: 0xDFAC
row_073: 0xD793
row_074: 0x7F12
row_075: 0x33FF
row_076: 0xFBEF
row_077: 0xA93B
row_078: 0xBF7F
row_079: 0xE8EF
row_080: 0x6FB2
row_081: 0xEFF8
row_082: 0xECD7
row_083: 0xCF15
row_084: 0x72F2
row_085: 0xF3B8
row_086: 0xADEF
row_087: 0xEF1D
row_088: 0xAFAF
row_089: 0x9BAB
row_090: 0xB38F
row_091: 0x7B3F
row_092: 0xDBB8
row_093: 0xEEBD
row_094: 0x7E3B
row_095: 0xEEBF
row_096: 0xFAC2
row_097: 0x5BFE
row_098: 0xDF1D
row_099: 0xFFFF
row_100: 0xBD6F
row_101: 0xFBB7
row_102: 0xFADB
row_103: 0xD74B
row_104: 0xEBF9
row_105: 0xF3AF
row_106: 0xF8F3
row_107: 0x8F3B
row_108: 0x7F3F
row_109: 0xA68E
row_110: 0xED15
row_111: 0xF6F9
row_112: 0x579D
row_113: 0x64F3
row_114: 0x3BFA
row_115: 0xF776
row_116: 0x0DFB
row_117: 0xC6FC
row_118: 0xFEBE
row_119: 0xF17E
row_120: 0xE776
row_121: 0xDFD7
row_122: 0xED10
row_123: 0x3AF1
row_124: 0xFBFD
row_125: 0xEBE7
row_126: 0xBFFD
row_127: 0xC77F
row_128: 0xFFDE
row_129: 0xFEF8
row_130: 0xBA4D
row_131: 0xFF74
row_132: 0x77F3
row_133: 0xABAE
row_134: 0xF5E7
row_135: 0xFFDE
row_136: 0xEFAD
row_137: 0xDCFB
row_138: 0x2FCA
row_139: 0xFB3F
row_140: 0xFBBF
row_141: 0xD6FF
row_142: 0x757C
row_143: 0xAFE7
row_144: 0x7FE0
row_145: 0xFD86
row_146: 0xDF3D
row_147: 0x7D5A
row_148: 0xFDE7
row_149: 0xFBE4
row_150: 0xDFFF
row_151: 0xE7D3
row_152: 0xFF28
row_153: 0xEA3F
row_154: 0xD9CE
row_155: 0x17BB
row_156: 0x3D75
row_157: 0xA44F
row_158: 0x4F79
row_159: 0xE3FB
row_160: 0x3DFD
row_161: 0x21F5
row_162: 0x319E
row_163: 0xDD7A
row_164: 0x6DEA
row_165: 0xF5FA
row_166: 0x7CED
row_167: 0xDBF5
row_168: 0xC7E4
row_169: 0x5EDA
row_170: 0x6F13
row_171: 0xA2EB
row_172: 0x7FFD
row_173: 0xB54B
row_174: 0xBD7F
row_175: 0xFB63
row_176: 0x56D7
row_177: 0xDEFA
row_178: 0xB37F
row_179: 0x7F66
row_180: 0xFB7A
row_181: 0xF7BA
row_182: 0xFD77
row_183: 0xDB4F
row_184: 0xFF55
row_185: 0x9EE9
row_186: 0xF38B
row_187: 0xDB69
row_188: 0xFFFD
row_189: 0x17DC
row_190: 0x3DD0
row_191: 0x6FAF
row_192: 0xFA8B
row_193: 0xC8DF
row_194: 0x8FDD
row_195: 0xDDF4
row_196: 0xFFEF
row_197: 0x7BFA
row_198: 0xFB5D
row_199: 0x478B
row_200: 0x5B3E
row_201: 0xF2ED
row_202: 0xA9DF
row_203: 0xAF1F
row_204: 0x357F
row_205: 0xD6BE
row_206: 0x1EB3
row_207: 0xE8E3
row_208: 0xEF5C
row_209: 0x2C99
row_210: 0xB3FB
row_211: 0xDBFB
row_212: 0xCFFE
row_213: 0xEBFC
row_214: 0x7FBC
row_215: 0xD9F3
row_216: 0xF77D
row_217: 0xF7A7
row_218: 0x79F1
row_219: 0xEBF9
row_220: 0x3B7D
row_221: 0xF953
row_222: 0xBD5D
row_223: 0xE4F7
row_224: 0x4EF2
row_225: 0xEFFF
row_226: 0x95EB
row_227: 0x2E6F
row_228: 0x7F77
row_229: 0xFBFB
row_230: 0xF5E5
row_231: 0xE75C
row_232: 0xEFF1
row_233: 0xB8BD
row_234: 0xE7EB
row_235: 0x57BF
row_236: 0xBEB8
row_237: 0x1EFC
row_238: 0x7DC1
row_239: 0xEE57
row_240: 0x5AC0
row_241: 0x41CE
row_242: 0xDF3D
row_243: 0xDF5E
row_244: 0xB566
row_245: 0x7BFB
row_246: 0xFACB
row_247: 0x4713
row_248: 0xE5A7
row_249: 0xFBA7
row_250: 0x28D5
row_251: 0x4F1B
row_252: 0x3DB7
row_253: 0xBC9D
row_254: 0xCC9D
row_255: 0xF761
