// ProsperityHDL Tile Data (256x16)
// Format: 16-bit hex values, one per row
// Total rows: 256
// Generated from SDT CIFAR-10 data

row_000: 0x0220
row_001: 0x29FC
row_002: 0x56FB
row_003: 0xAA29
row_004: 0x0E9F
row_005: 0x8B39
row_006: 0x9251
row_007: 0xFDB4
row_008: 0xA971
row_009: 0xDB35
row_010: 0x4077
row_011: 0xC9AB
row_012: 0x3BE7
row_013: 0xDB08
row_014: 0x6FC3
row_015: 0xB4E0
row_016: 0xFF02
row_017: 0x2335
row_018: 0xE294
row_019: 0x66F1
row_020: 0x1AA3
row_021: 0xD7D6
row_022: 0x4706
row_023: 0x3E2D
row_024: 0x4859
row_025: 0x8D40
row_026: 0x1C01
row_027: 0x09CB
row_028: 0x4D9B
row_029: 0x36A5
row_030: 0xA149
row_031: 0x212D
row_032: 0x60BA
row_033: 0x5459
row_034: 0x0154
row_035: 0xD20F
row_036: 0x41E8
row_037: 0xA704
row_038: 0x67C2
row_039: 0x6460
row_040: 0x38C2
row_041: 0xCAB8
row_042: 0xC983
row_043: 0xC409
row_044: 0xF940
row_045: 0x939C
row_046: 0x5B77
row_047: 0x8EB9
row_048: 0x0874
row_049: 0xB7E4
row_050: 0x6466
row_051: 0x6B0A
row_052: 0x120E
row_053: 0xC9C1
row_054: 0x91C3
row_055: 0xF589
row_056: 0x49CB
row_057: 0x8725
row_058: 0x2556
row_059: 0x6513
row_060: 0xAABB
row_061: 0x9388
row_062: 0xA049
row_063: 0x2546
row_064: 0xE604
row_065: 0x4643
row_066: 0xF9C3
row_067: 0x5420
row_068: 0x23A0
row_069: 0x5BDC
row_070: 0x670A
row_071: 0x04B3
row_072: 0x9EAC
row_073: 0x8511
row_074: 0x7E02
row_075: 0x317E
row_076: 0xD883
row_077: 0x2839
row_078: 0x3B3A
row_079: 0xA88D
row_080: 0x6D32
row_081: 0xEF18
row_082: 0x6C16
row_083: 0xC315
row_084: 0x00A0
row_085: 0xF3B0
row_086: 0xACCF
row_087: 0xEF19
row_088: 0x0AAE
row_089: 0x9B2B
row_090: 0x9185
row_091: 0x023F
row_092: 0xD998
row_093: 0xEEBD
row_094: 0x5E3B
row_095: 0xCABD
row_096: 0xA2C2
row_097: 0x1BFE
row_098: 0x4E09
row_099: 0xEEBF
row_100: 0x396F
row_101: 0x8BA7
row_102: 0xF293
row_103: 0xD549
row_104: 0xEBF9
row_105: 0x93AF
row_106: 0xF873
row_107: 0x8D3B
row_108: 0x7B2F
row_109: 0xA28A
row_110: 0xED05
row_111: 0xB6D9
row_112: 0x578D
row_113: 0x64E3
row_114: 0x2BF0
row_115: 0x7736
row_116: 0x09F1
row_117: 0x06FC
row_118: 0xEEB6
row_119: 0xB16E
row_120: 0xA276
row_121: 0xCD55
row_122: 0xC400
row_123: 0x3850
row_124: 0xDBED
row_125: 0xEAE7
row_126: 0x07E1
row_127: 0x875D
row_128: 0xFD5E
row_129: 0xFE78
row_130: 0xBA4D
row_131: 0xD374
row_132: 0x77B3
row_133: 0xA926
row_134: 0xF0E7
row_135: 0xFED2
row_136: 0x4AAC
row_137: 0xDCFA
row_138: 0x2EC2
row_139: 0xF31F
row_140: 0xE98F
row_141: 0xD2FF
row_142: 0x717C
row_143: 0x8BE5
row_144: 0x25E0
row_145: 0xBD86
row_146: 0xDE39
row_147: 0x690A
row_148: 0x7845
row_149: 0xABE4
row_150: 0xDDF7
row_151: 0xE7D2
row_152: 0xFF28
row_153: 0x8A1F
row_154: 0xD14E
row_155: 0x15A2
row_156: 0x3D75
row_157: 0xA04B
row_158: 0x4B59
row_159: 0x23DB
row_160: 0x3CF5
row_161: 0x21E5
row_162: 0x3194
row_163: 0x1D28
row_164: 0x6DE2
row_165: 0x757A
row_166: 0x7C69
row_167: 0xDBA5
row_168: 0x02E0
row_169: 0x5CDA
row_170: 0x4F03
row_171: 0xA26A
row_172: 0x6DA5
row_173: 0xB449
row_174: 0x2C36
row_175: 0x3B41
row_176: 0x5657
row_177: 0x9E92
row_178: 0x333F
row_179: 0x5766
row_180: 0xC908
row_181: 0xF7B2
row_182: 0xFD53
row_183: 0xDA4F
row_184: 0xD854
row_185: 0x1EE9
row_186: 0xF101
row_187: 0x8B49
row_188: 0xFDED
row_189: 0x13DC
row_190: 0x39D0
row_191: 0x6BAC
row_192: 0xE88B
row_193: 0x88C9
row_194: 0x0ECC
row_195: 0x89E4
row_196: 0xFECF
row_197: 0x4932
row_198: 0x795D
row_199: 0x478A
row_200: 0x1B3E
row_201: 0xF26D
row_202: 0xA95F
row_203: 0xAA16
row_204: 0x356F
row_205: 0xD6BA
row_206: 0x0AB3
row_207: 0xE8E3
row_208: 0xEE54
row_209: 0x2C89
row_210: 0xA2E9
row_211: 0x0BA9
row_212: 0x8BBC
row_213: 0x6BFC
row_214: 0x472C
row_215: 0x09B3
row_216: 0x3079
row_217: 0xA704
row_218: 0x78E1
row_219: 0xEB78
row_220: 0x083D
row_221: 0x7851
row_222: 0x9C18
row_223: 0x64B7
row_224: 0x4EF0
row_225: 0xEB1F
row_226: 0x95EA
row_227: 0x264F
row_228: 0x3D57
row_229: 0xFB63
row_230: 0xF4C0
row_231: 0x6758
row_232: 0x6CF0
row_233: 0x2834
row_234: 0xE7E1
row_235: 0x569F
row_236: 0xA418
row_237: 0x1AEC
row_238: 0x5DC1
row_239: 0xCA53
row_240: 0x1240
row_241: 0x01CC
row_242: 0xDE3D
row_243: 0x8E1E
row_244: 0x3124
row_245: 0x4B7B
row_246: 0xB083
row_247: 0x4710
row_248: 0x65A7
row_249: 0xBBA7
row_250: 0x2855
row_251: 0x4C1B
row_252: 0x39A7
row_253: 0xB89D
row_254: 0xCC8D
row_255: 0x3741
