// ProsperityHDL Tile Data (256x16)
// Format: 16-bit hex values, one per row
// Total rows: 256
// Generated from SDT CIFAR-10 data

row_000: 0x0004
row_001: 0x0001
row_002: 0x2000
row_003: 0x0202
row_004: 0x4040
row_005: 0x8000
row_006: 0x0480
row_007: 0x8000
row_008: 0x0004
row_009: 0x0002
row_010: 0x2000
row_011: 0x0010
row_012: 0x1000
row_013: 0x0040
row_014: 0x000A
row_015: 0x0044
row_016: 0x4088
row_017: 0x0040
row_018: 0x2000
row_019: 0x0080
row_020: 0x8000
row_021: 0x0400
row_022: 0x0010
row_023: 0x0006
row_024: 0x1000
row_025: 0x4002
row_026: 0x1000
row_027: 0x0008
row_028: 0x0044
row_029: 0x8800
row_030: 0x0040
row_031: 0x0002
row_032: 0x8000
row_033: 0x0800
row_034: 0x0100
row_035: 0x0001
row_036: 0x0020
row_037: 0x0C00
row_038: 0x8400
row_039: 0x0400
row_040: 0x1160
row_041: 0x8000
row_042: 0x2001
row_043: 0x0010
row_044: 0x0020
row_045: 0x0800
row_046: 0x2000
row_047: 0x0088
row_048: 0x5200
row_049: 0x0080
row_050: 0x2200
row_051: 0x2061
row_052: 0x0002
row_053: 0x0020
row_054: 0x2000
row_055: 0x0040
row_056: 0x0100
row_057: 0x0400
row_058: 0x4000
row_059: 0x0010
row_060: 0x0280
row_061: 0x0006
row_062: 0x0400
row_063: 0x0080
row_064: 0x0010
row_065: 0x0001
row_066: 0x2801
row_067: 0x8202
row_068: 0x2041
row_069: 0x0004
row_070: 0x8000
row_071: 0xD000
row_072: 0x8104
row_073: 0x8102
row_074: 0x0008
row_075: 0x1010
row_076: 0x0020
row_077: 0x0460
row_078: 0x8400
row_079: 0x0400
row_080: 0x4100
row_081: 0x0001
row_082: 0x2280
row_083: 0x0208
row_084: 0xB000
row_085: 0x2400
row_086: 0x0400
row_087: 0xA000
row_088: 0x0208
row_089: 0x8000
row_090: 0x1208
row_091: 0x0028
row_092: 0x2244
row_093: 0x8880
row_094: 0x1060
row_095: 0x0040
row_096: 0x8100
row_097: 0x0001
row_098: 0x0108
row_099: 0x0080
row_100: 0x1000
row_101: 0x1100
row_102: 0x0048
row_103: 0x0422
row_104: 0x1760
row_105: 0x9040
row_106: 0x0400
row_107: 0x8000
row_108: 0x0320
row_109: 0x1001
row_110: 0x0800
row_111: 0x00CC
row_112: 0x2000
row_113: 0x80C0
row_114: 0x0118
row_115: 0x3071
row_116: 0x8002
row_117: 0x0120
row_118: 0x0002
row_119: 0x0001
row_120: 0x0102
row_121: 0x1000
row_122: 0x5008
row_123: 0x0042
row_124: 0x0400
row_125: 0x0016
row_126: 0x0401
row_127: 0x8204
row_128: 0x1000
row_129: 0x0400
row_130: 0x8000
row_131: 0x0100
row_132: 0x0100
row_133: 0x0400
row_134: 0x0020
row_135: 0xA002
row_136: 0x8008
row_137: 0x0004
row_138: 0x000A
row_139: 0x0A00
row_140: 0x0400
row_141: 0x0B00
row_142: 0x0010
row_143: 0x1000
row_144: 0x000A
row_145: 0x0010
row_146: 0x0100
row_147: 0x4000
row_148: 0x2140
row_149: 0x8840
row_150: 0x0004
row_151: 0x2401
row_152: 0x0818
row_153: 0x000C
row_154: 0x0500
row_155: 0x1000
row_156: 0x0018
row_157: 0x8000
row_158: 0x4040
row_159: 0x8000
row_160: 0x0008
row_161: 0x0082
row_162: 0x8000
row_163: 0x9000
row_164: 0x0080
row_165: 0x8000
row_166: 0xA000
row_167: 0x0001
row_168: 0x8020
row_169: 0xC001
row_170: 0x2000
row_171: 0x0001
row_172: 0x0A02
row_173: 0x2000
row_174: 0x2040
row_175: 0x0040
row_176: 0x4018
row_177: 0x0B01
row_178: 0x0001
row_179: 0x0008
row_180: 0x0002
row_181: 0x4080
row_182: 0x8000
row_183: 0x10A0
row_184: 0x2004
row_185: 0x0002
row_186: 0x1200
row_187: 0x0020
row_188: 0x2000
row_189: 0x010A
row_190: 0x0008
row_191: 0x4400
row_192: 0x0004
row_193: 0x2410
row_194: 0x000A
row_195: 0xC200
row_196: 0x4040
row_197: 0x8000
row_198: 0x0120
row_199: 0x0800
row_200: 0x8050
row_201: 0x0800
row_202: 0x2000
row_203: 0x0010
row_204: 0x8004
row_205: 0x4080
row_206: 0x0440
row_207: 0x0044
row_208: 0x4088
row_209: 0x0040
row_210: 0x0100
row_211: 0x3040
row_212: 0x8000
row_213: 0x0400
row_214: 0x0010
row_215: 0x0001
row_216: 0x1000
row_217: 0x2020
row_218: 0x1000
row_219: 0x0008
row_220: 0x3400
row_221: 0x0088
row_222: 0x0040
row_223: 0x0002
row_224: 0x8010
row_225: 0x1006
row_226: 0x0100
row_227: 0x0001
row_228: 0x0008
row_229: 0x0A04
row_230: 0x8400
row_231: 0x0400
row_232: 0x1160
row_233: 0x0200
row_234: 0x0109
row_235: 0x0010
row_236: 0x4C00
row_237: 0x0800
row_238: 0x2000
row_239: 0x1400
row_240: 0x5200
row_241: 0x0080
row_242: 0x0240
row_243: 0x2061
row_244: 0x0288
row_245: 0x0020
row_246: 0x2804
row_247: 0x0008
row_248: 0x0100
row_249: 0x5020
row_250: 0x4000
row_251: 0x0010
row_252: 0xA001
row_253: 0x0020
row_254: 0x0400
row_255: 0x0080
