// ProsperityHDL Tile Data (256x16)
// Format: 16-bit hex values, one per row
// Total rows: 256
// Generated from SDT CIFAR-10 data

row_000: 0x4020
row_001: 0x0001
row_002: 0x4000
row_003: 0x2000
row_004: 0x4000
row_005: 0x0800
row_006: 0x0202
row_007: 0x0480
row_008: 0x8000
row_009: 0x0004
row_010: 0x0002
row_011: 0x1000
row_012: 0x000A
row_013: 0x2000
row_014: 0x1408
row_015: 0x0080
row_016: 0x0006
row_017: 0x8001
row_018: 0x0001
row_019: 0x4002
row_020: 0x0044
row_021: 0x8800
row_022: 0x8000
row_023: 0x0800
row_024: 0x2000
row_025: 0x0200
row_026: 0x0020
row_027: 0x0002
row_028: 0x1200
row_029: 0x0C00
row_030: 0x8000
row_031: 0x2001
row_032: 0x0004
row_033: 0x0020
row_034: 0x0088
row_035: 0x2200
row_036: 0x0002
row_037: 0x2000
row_038: 0x0040
row_039: 0x0400
row_040: 0x0280
row_041: 0x0006
row_042: 0x0C00
row_043: 0x0800
row_044: 0x2200
row_045: 0x0084
row_046: 0x8000
row_047: 0x0202
row_048: 0x0014
row_049: 0x0080
row_050: 0x4080
row_051: 0x0004
row_052: 0x8080
row_053: 0x2800
row_054: 0x0020
row_055: 0x0060
row_056: 0x0100
row_057: 0x0004
row_058: 0x0400
row_059: 0x0002
row_060: 0x0002
row_061: 0x0081
row_062: 0x0004
row_063: 0x0440
row_064: 0x1000
row_065: 0x0011
row_066: 0x0148
row_067: 0x2000
row_068: 0x0001
row_069: 0x0822
row_070: 0x0286
row_071: 0x8480
row_072: 0x8005
row_073: 0x4084
row_074: 0x0A02
row_075: 0x2201
row_076: 0x0100
row_077: 0x6000
row_078: 0x1418
row_079: 0x0040
row_080: 0x2000
row_081: 0xC401
row_082: 0x8402
row_083: 0x0008
row_084: 0x0244
row_085: 0x9808
row_086: 0x8001
row_087: 0x0810
row_088: 0x0200
row_089: 0x0204
row_090: 0x1000
row_091: 0x0020
row_092: 0x0001
row_093: 0x0200
row_094: 0x8002
row_095: 0x0020
row_096: 0x1000
row_097: 0x0820
row_098: 0x0010
row_099: 0x2280
row_100: 0x0006
row_101: 0x0004
row_102: 0x0020
row_103: 0x0080
row_104: 0x1280
row_105: 0x0040
row_106: 0x2080
row_107: 0x0400
row_108: 0xA200
row_109: 0x2000
row_110: 0x8010
row_111: 0x0A02
row_112: 0x011C
row_113: 0x0800
row_114: 0x4083
row_115: 0x4024
row_116: 0x3000
row_117: 0x2842
row_118: 0x4020
row_119: 0x1860
row_120: 0x0004
row_121: 0x0802
row_122: 0x1000
row_123: 0x0020
row_124: 0x8202
row_125: 0x0085
row_126: 0x0004
row_127: 0x0200
row_128: 0x1001
row_129: 0x9810
row_130: 0x9010
row_131: 0x0608
row_132: 0x4000
row_133: 0x8102
row_134: 0x0844
row_135: 0x0040
row_136: 0x0800
row_137: 0x0010
row_138: 0x4018
row_139: 0x4200
row_140: 0x0A00
row_141: 0x0004
row_142: 0x0008
row_143: 0x0002
row_144: 0x1010
row_145: 0x10A0
row_146: 0x0018
row_147: 0x1200
row_148: 0x0004
row_149: 0x0008
row_150: 0x2000
row_151: 0x0001
row_152: 0x010A
row_153: 0x1000
row_154: 0x4400
row_155: 0x2410
row_156: 0x0040
row_157: 0x000A
row_158: 0xC200
row_159: 0x0002
row_160: 0x0120
row_161: 0x0404
row_162: 0x0800
row_163: 0x8050
row_164: 0x2000
row_165: 0x0008
row_166: 0x0800
row_167: 0x0002
row_168: 0x0A00
row_169: 0x0006
row_170: 0x0002
row_171: 0x8004
row_172: 0x0046
row_173: 0x8003
row_174: 0x0100
row_175: 0x4080
row_176: 0x0440
row_177: 0x0100
row_178: 0x0400
row_179: 0x3040
row_180: 0x0801
row_181: 0x0001
row_182: 0x2020
row_183: 0x3400
row_184: 0x0088
row_185: 0x0001
row_186: 0x8010
row_187: 0x1006
row_188: 0x0008
row_189: 0x0A04
row_190: 0x0200
row_191: 0x0009
row_192: 0x4020
row_193: 0x0109
row_194: 0x4000
row_195: 0x4C00
row_196: 0x4000
row_197: 0x0800
row_198: 0x1400
row_199: 0x0240
row_200: 0x0288
row_201: 0x2804
row_202: 0x0008
row_203: 0x5020
row_204: 0xA001
row_205: 0x0020
row_206: 0x1408
row_207: 0x1001
row_208: 0x1000
row_209: 0x8001
row_210: 0x0001
row_211: 0x0010
row_212: 0x8000
row_213: 0x1000
row_214: 0x0220
row_215: 0x4500
row_216: 0x2000
row_217: 0x0200
row_218: 0x0040
row_219: 0x0002
row_220: 0x1200
row_221: 0x4010
row_222: 0x1000
row_223: 0x4000
row_224: 0x0004
row_225: 0x5000
row_226: 0x1200
row_227: 0x4080
row_228: 0x0080
row_229: 0x0406
row_230: 0x8400
row_231: 0x2108
row_232: 0x1080
row_233: 0x1880
row_234: 0x0002
row_235: 0x0800
row_236: 0x2200
row_237: 0x0202
row_238: 0x8000
row_239: 0x4800
row_240: 0x0014
row_241: 0x0080
row_242: 0x0040
row_243: 0x0004
row_244: 0x0001
row_245: 0x2800
row_246: 0x0508
row_247: 0x0070
row_248: 0x080C
row_249: 0x0001
row_250: 0x2000
row_251: 0xA040
row_252: 0x0840
row_253: 0x0200
row_254: 0x5001
row_255: 0x4000
