// ProsperityHDL Tile Data (256x16)
// Format: 16-bit hex values, one per row
// Total rows: 256
// Generated from SDT CIFAR-10 data

row_000: 0x4010
row_001: 0x4000
row_002: 0x0200
row_003: 0x0100
row_004: 0x0004
row_005: 0x0402
row_006: 0x0006
row_007: 0x1002
row_008: 0x2000
row_009: 0x0001
row_010: 0x0640
row_011: 0x2000
row_012: 0x0202
row_013: 0x0480
row_014: 0x8000
row_015: 0x1002
row_016: 0x0060
row_017: 0x0004
row_018: 0x0088
row_019: 0x0100
row_020: 0x0400
row_021: 0x0020
row_022: 0x0002
row_023: 0x0080
row_024: 0x0004
row_025: 0x1000
row_026: 0x00C9
row_027: 0x000A
row_028: 0x0020
row_029: 0x2000
row_030: 0x3000
row_031: 0x0002
row_032: 0x0504
row_033: 0x0080
row_034: 0x0004
row_035: 0x0022
row_036: 0x0004
row_037: 0x0806
row_038: 0x0006
row_039: 0x1000
row_040: 0x4002
row_041: 0x8000
row_042: 0x0800
row_043: 0x0440
row_044: 0x0044
row_045: 0x1800
row_046: 0x0402
row_047: 0x0010
row_048: 0x4000
row_049: 0x8800
row_050: 0x8050
row_051: 0x8000
row_052: 0x2040
row_053: 0x0001
row_054: 0x0800
row_055: 0x2000
row_056: 0x0800
row_057: 0x0020
row_058: 0x0C00
row_059: 0x8000
row_060: 0x2001
row_061: 0x0046
row_062: 0x0020
row_063: 0x0088
row_064: 0x4250
row_065: 0x1001
row_066: 0x0242
row_067: 0x0180
row_068: 0x0008
row_069: 0x0432
row_070: 0x0040
row_071: 0x1042
row_072: 0x0820
row_073: 0x0021
row_074: 0x0E50
row_075: 0x2082
row_076: 0x2212
row_077: 0x0409
row_078: 0x8100
row_079: 0x0008
row_080: 0x0260
row_081: 0x0144
row_082: 0x0001
row_083: 0x0001
row_084: 0x0880
row_085: 0x01A0
row_086: 0x1040
row_087: 0x0031
row_088: 0x0100
row_089: 0x0020
row_090: 0x0004
row_091: 0x080A
row_092: 0x0008
row_093: 0x0080
row_094: 0x0210
row_095: 0x00A2
row_096: 0x2040
row_097: 0x0020
row_098: 0x0820
row_099: 0x10A2
row_100: 0x1600
row_101: 0x0002
row_102: 0x2086
row_103: 0x00B0
row_104: 0x0101
row_105: 0x8008
row_106: 0x1004
row_107: 0x04C2
row_108: 0x0446
row_109: 0x0040
row_110: 0x0020
row_111: 0x0001
row_112: 0x0002
row_113: 0x4000
row_114: 0x8250
row_115: 0x0020
row_116: 0x0010
row_117: 0x0009
row_118: 0x0800
row_119: 0x0120
row_120: 0x0030
row_121: 0x20A0
row_122: 0x0C01
row_123: 0x8400
row_124: 0x0200
row_125: 0x0010
row_126: 0x0010
row_127: 0x018C
row_128: 0x2108
row_129: 0x4000
row_130: 0x8000
row_131: 0x0080
row_132: 0x0020
row_133: 0x0040
row_134: 0x2800
row_135: 0x0A80
row_136: 0x4108
row_137: 0x2000
row_138: 0x0008
row_139: 0x0004
row_140: 0x0014
row_141: 0x020C
row_142: 0x8000
row_143: 0x0008
row_144: 0x0109
row_145: 0x4000
row_146: 0x0400
row_147: 0x0100
row_148: 0x0004
row_149: 0x0100
row_150: 0xA002
row_151: 0x1000
row_152: 0x0080
row_153: 0x8000
row_154: 0x8008
row_155: 0x000A
row_156: 0x0A00
row_157: 0x0100
row_158: 0x0800
row_159: 0x0B00
row_160: 0x0010
row_161: 0x8000
row_162: 0x2140
row_163: 0x0001
row_164: 0x8840
row_165: 0x0001
row_166: 0x2000
row_167: 0x2401
row_168: 0x0818
row_169: 0x0080
row_170: 0x0080
row_171: 0x0500
row_172: 0x0001
row_173: 0x1000
row_174: 0x2000
row_175: 0x0050
row_176: 0x0008
row_177: 0x9000
row_178: 0x1000
row_179: 0x1000
row_180: 0x0080
row_181: 0x0100
row_182: 0xC000
row_183: 0x0002
row_184: 0x0088
row_185: 0x2050
row_186: 0x1000
row_187: 0x1000
row_188: 0x0010
row_189: 0x2200
row_190: 0x2000
row_191: 0x8000
row_192: 0x4010
row_193: 0x4000
row_194: 0x0200
row_195: 0x0100
row_196: 0x0004
row_197: 0x0402
row_198: 0x0006
row_199: 0x1002
row_200: 0x2000
row_201: 0xC001
row_202: 0x0640
row_203: 0x0A02
row_204: 0x2040
row_205: 0x0040
row_206: 0x4018
row_207: 0x1002
row_208: 0x0060
row_209: 0x0008
row_210: 0x0088
row_211: 0x0100
row_212: 0x0400
row_213: 0x0020
row_214: 0x0002
row_215: 0x0080
row_216: 0x0004
row_217: 0x10A0
row_218: 0x00C9
row_219: 0x1200
row_220: 0x0020
row_221: 0x2000
row_222: 0x3000
row_223: 0x0002
row_224: 0x0504
row_225: 0x010A
row_226: 0x0004
row_227: 0x0022
row_228: 0x0004
row_229: 0x0806
row_230: 0x4400
row_231: 0x1000
row_232: 0x2410
row_233: 0x8000
row_234: 0x0800
row_235: 0x0440
row_236: 0x000A
row_237: 0x1800
row_238: 0x0402
row_239: 0x0010
row_240: 0x4000
row_241: 0xC200
row_242: 0x8050
row_243: 0x0120
row_244: 0x2040
row_245: 0x0001
row_246: 0x0800
row_247: 0x2000
row_248: 0x0800
row_249: 0x8050
row_250: 0x0800
row_251: 0x8004
row_252: 0x4080
row_253: 0x0006
row_254: 0x0440
row_255: 0x0100
