// ProsperityHDL Tile Data (256x16)
// Format: 16-bit hex values, one per row
// Total rows: 256
// Generated from SDT CIFAR-10 data

row_000: 0x0004
row_001: 0x0001
row_002: 0x0002
row_003: 0x2000
row_004: 0x0010
row_005: 0x0801
row_006: 0x0200
row_007: 0x2000
row_008: 0x0004
row_009: 0x0202
row_010: 0x0022
row_011: 0x0480
row_012: 0x4000
row_013: 0x8000
row_014: 0x1000
row_015: 0x8004
row_016: 0x408A
row_017: 0x0004
row_018: 0x0002
row_019: 0x8000
row_020: 0x4000
row_021: 0x1200
row_022: 0x1000
row_023: 0x0040
row_024: 0x0400
row_025: 0x000A
row_026: 0x0002
row_027: 0x0101
row_028: 0x2000
row_029: 0x0080
row_030: 0x8000
row_031: 0xC002
row_032: 0x0200
row_033: 0x2000
row_034: 0x0400
row_035: 0x0080
row_036: 0x0004
row_037: 0x0004
row_038: 0x0006
row_039: 0x4002
row_040: 0x8000
row_041: 0x0044
row_042: 0x0008
row_043: 0x0800
row_044: 0x0280
row_045: 0x8000
row_046: 0x8800
row_047: 0x0044
row_048: 0x8000
row_049: 0x0800
row_050: 0x0020
row_051: 0x0020
row_052: 0x0C00
row_053: 0x0800
row_054: 0x8000
row_055: 0x0020
row_056: 0x00A0
row_057: 0x0080
row_058: 0x2001
row_059: 0x0020
row_060: 0x0088
row_061: 0x1008
row_062: 0x1000
row_063: 0x2200
row_064: 0x0006
row_065: 0x4001
row_066: 0x0100
row_067: 0x2040
row_068: 0x0040
row_069: 0x0500
row_070: 0x0001
row_071: 0x2400
row_072: 0x0034
row_073: 0x0120
row_074: 0x1000
row_075: 0x0580
row_076: 0x4082
row_077: 0x8000
row_078: 0x5000
row_079: 0x8008
row_080: 0x00C8
row_081: 0x1014
row_082: 0x1000
row_083: 0x4000
row_084: 0x0400
row_085: 0x2010
row_086: 0x1100
row_087: 0x0048
row_088: 0x0080
row_089: 0x008A
row_090: 0x0040
row_091: 0x0381
row_092: 0x0020
row_093: 0x1400
row_094: 0x0021
row_095: 0x0400
row_096: 0x0008
row_097: 0x6000
row_098: 0x0005
row_099: 0x8080
row_100: 0x2020
row_101: 0x0844
row_102: 0x8000
row_103: 0x5042
row_104: 0x0800
row_105: 0x0054
row_106: 0x0020
row_107: 0x0842
row_108: 0x0682
row_109: 0x5000
row_110: 0x0001
row_111: 0x0244
row_112: 0x0421
row_113: 0x0804
row_114: 0x20A0
row_115: 0x8020
row_116: 0x0800
row_117: 0x0820
row_118: 0x0800
row_119: 0x0010
row_120: 0x0004
row_121: 0x00C0
row_122: 0x1004
row_123: 0x1020
row_124: 0x0808
row_125: 0x1308
row_126: 0x002E
row_127: 0x2000
row_128: 0x2001
row_129: 0x0030
row_130: 0x0008
row_131: 0x0020
row_132: 0x0A80
row_133: 0x4108
row_134: 0x0100
row_135: 0x2000
row_136: 0x2000
row_137: 0x0008
row_138: 0x8080
row_139: 0x0004
row_140: 0x2000
row_141: 0x020C
row_142: 0x0201
row_143: 0x0200
row_144: 0x0108
row_145: 0x1200
row_146: 0x0040
row_147: 0x1020
row_148: 0x0109
row_149: 0x0001
row_150: 0x0800
row_151: 0x0400
row_152: 0x0008
row_153: 0x0001
row_154: 0x0100
row_155: 0xA002
row_156: 0x8008
row_157: 0x0040
row_158: 0x0100
row_159: 0x000A
row_160: 0x0A00
row_161: 0x0004
row_162: 0x0010
row_163: 0x0008
row_164: 0x8001
row_165: 0x0004
row_166: 0x0090
row_167: 0x0020
row_168: 0x0B00
row_169: 0x0010
row_170: 0x3020
row_171: 0x4000
row_172: 0x1002
row_173: 0x0001
row_174: 0x1080
row_175: 0x0080
row_176: 0x2140
row_177: 0x8840
row_178: 0x2401
row_179: 0x0818
row_180: 0x0100
row_181: 0x0500
row_182: 0x0100
row_183: 0x1000
row_184: 0x0008
row_185: 0x0400
row_186: 0x9000
row_187: 0x0080
row_188: 0xC000
row_189: 0x8000
row_190: 0x8000
row_191: 0xC001
row_192: 0x0004
row_193: 0x0A02
row_194: 0x0002
row_195: 0x2040
row_196: 0x0010
row_197: 0x0801
row_198: 0x0200
row_199: 0x2000
row_200: 0x0004
row_201: 0x0040
row_202: 0x4018
row_203: 0x0008
row_204: 0x4000
row_205: 0x0002
row_206: 0x1000
row_207: 0x8004
row_208: 0x408A
row_209: 0x0001
row_210: 0x10A0
row_211: 0x8000
row_212: 0x4000
row_213: 0x1200
row_214: 0x1200
row_215: 0x0040
row_216: 0x0400
row_217: 0x0020
row_218: 0x0002
row_219: 0x0181
row_220: 0x2000
row_221: 0x0080
row_222: 0x8000
row_223: 0xC002
row_224: 0x0200
row_225: 0x2000
row_226: 0x0400
row_227: 0x010A
row_228: 0x4004
row_229: 0x0004
row_230: 0x4400
row_231: 0x2410
row_232: 0x8000
row_233: 0x000A
row_234: 0x0008
row_235: 0x0800
row_236: 0x0280
row_237: 0x8000
row_238: 0xC200
row_239: 0x0044
row_240: 0x0120
row_241: 0x0800
row_242: 0x0020
row_243: 0x8050
row_244: 0x0800
row_245: 0x0900
row_246: 0x8004
row_247: 0x0020
row_248: 0x00A0
row_249: 0x0080
row_250: 0x4080
row_251: 0x8000
row_252: 0x0440
row_253: 0x1008
row_254: 0x1000
row_255: 0x0100
