// ProsperityHDL Tile Data (256x16)
// Format: 16-bit hex values, one per row
// Total rows: 256
// Generated from SDT CIFAR-10 data

row_000: 0x6100
row_001: 0xAA40
row_002: 0x0494
row_003: 0x01A5
row_004: 0x40AB
row_005: 0x0462
row_006: 0x7130
row_007: 0x5016
row_008: 0x200B
row_009: 0x0401
row_010: 0x4314
row_011: 0x3802
row_012: 0x3028
row_013: 0x624C
row_014: 0x0022
row_015: 0x1200
row_016: 0x1900
row_017: 0x3540
row_018: 0x1384
row_019: 0x8022
row_020: 0x82A4
row_021: 0x2002
row_022: 0x0868
row_023: 0x8423
row_024: 0x0309
row_025: 0x8880
row_026: 0x4100
row_027: 0x0224
row_028: 0x6940
row_029: 0x4002
row_030: 0x0420
row_031: 0x4094
row_032: 0x2080
row_033: 0x2448
row_034: 0x0840
row_035: 0xC944
row_036: 0x2004
row_037: 0x0440
row_038: 0x0769
row_039: 0x1040
row_040: 0x0440
row_041: 0x2208
row_042: 0xB751
row_043: 0x201E
row_044: 0x11CA
row_045: 0xA400
row_046: 0x7100
row_047: 0xC623
row_048: 0x0001
row_049: 0x805C
row_050: 0x0246
row_051: 0x0050
row_052: 0x0080
row_053: 0x2800
row_054: 0x2000
row_055: 0x2000
row_056: 0x0088
row_057: 0x0202
row_058: 0x0050
row_059: 0x4802
row_060: 0x0080
row_061: 0x2414
row_062: 0x0040
row_063: 0x0400
row_064: 0x4481
row_065: 0xAA61
row_066: 0x2000
row_067: 0x409C
row_068: 0x1140
row_069: 0x0440
row_070: 0x7330
row_071: 0xC10A
row_072: 0x2000
row_073: 0x0181
row_074: 0x8000
row_075: 0x4282
row_076: 0x4200
row_077: 0x0048
row_078: 0x1014
row_079: 0x0201
row_080: 0x2090
row_081: 0x3200
row_082: 0x20A4
row_083: 0x0042
row_084: 0x0204
row_085: 0x8140
row_086: 0x0080
row_087: 0x0004
row_088: 0x0810
row_089: 0x6208
row_090: 0x0008
row_091: 0x1094
row_092: 0x2280
row_093: 0x402A
row_094: 0x3000
row_095: 0x4061
row_096: 0x022A
row_097: 0x880E
row_098: 0x0840
row_099: 0x0440
row_100: 0x100E
row_101: 0x4021
row_102: 0x1800
row_103: 0x8400
row_104: 0x0046
row_105: 0x6208
row_106: 0x4078
row_107: 0x4806
row_108: 0xC880
row_109: 0x2000
row_110: 0x0022
row_111: 0x1404
row_112: 0x0151
row_113: 0x2600
row_114: 0x0020
row_115: 0x6040
row_116: 0x1841
row_117: 0x0008
row_118: 0x0010
row_119: 0x8000
row_120: 0x0004
row_121: 0x0080
row_122: 0x0052
row_123: 0x0219
row_124: 0x0080
row_125: 0x9240
row_126: 0x0280
row_127: 0x0200
row_128: 0x0850
row_129: 0x50C0
row_130: 0x4B40
row_131: 0x0088
row_132: 0x0008
row_133: 0x0140
row_134: 0x0020
row_135: 0x4010
row_136: 0x0012
row_137: 0x5800
row_138: 0x2020
row_139: 0x3014
row_140: 0x0042
row_141: 0x1412
row_142: 0x0440
row_143: 0x2240
row_144: 0x0320
row_145: 0x1904
row_146: 0x0208
row_147: 0x8524
row_148: 0x1086
row_149: 0x0200
row_150: 0x0C00
row_151: 0x049B
row_152: 0x48AE
row_153: 0x0002
row_154: 0x4110
row_155: 0x0A86
row_156: 0x0150
row_157: 0x8600
row_158: 0x402A
row_159: 0x1D40
row_160: 0x01C0
row_161: 0x2041
row_162: 0x4004
row_163: 0x1680
row_164: 0x500B
row_165: 0x200C
row_166: 0x0020
row_167: 0x8C05
row_168: 0x00A1
row_169: 0x4800
row_170: 0x1200
row_171: 0x001E
row_172: 0x0090
row_173: 0xC080
row_174: 0x8888
row_175: 0x0812
row_176: 0x0002
row_177: 0x0500
row_178: 0x6E04
row_179: 0x2002
row_180: 0x1009
row_181: 0x1102
row_182: 0x0800
row_183: 0xD043
row_184: 0x4040
row_185: 0x0801
row_186: 0x0108
row_187: 0x1034
row_188: 0x2000
row_189: 0x3250
row_190: 0x0034
row_191: 0x4020
row_192: 0x1400
row_193: 0x3154
row_194: 0x0204
row_195: 0x1040
row_196: 0xD088
row_197: 0x4402
row_198: 0x2220
row_199: 0x0402
row_200: 0x0047
row_201: 0x0124
row_202: 0x071B
row_203: 0x4802
row_204: 0x5292
row_205: 0x0208
row_206: 0x2000
row_207: 0x0500
row_208: 0x0088
row_209: 0x4805
row_210: 0x1000
row_211: 0x2000
row_212: 0x1012
row_213: 0x0444
row_214: 0x102A
row_215: 0x0110
row_216: 0x0001
row_217: 0x0881
row_218: 0xC050
row_219: 0x0102
row_220: 0x8980
row_221: 0x80C2
row_222: 0x1D28
row_223: 0x0281
row_224: 0x0002
row_225: 0xE00A
row_226: 0x6844
row_227: 0x4000
row_228: 0x0044
row_229: 0x200D
row_230: 0x0421
row_231: 0x8A10
row_232: 0x0074
row_233: 0x2004
row_234: 0x0008
row_235: 0x3104
row_236: 0x1000
row_237: 0x0400
row_238: 0x0006
row_239: 0x5000
row_240: 0x11A1
row_241: 0x0005
row_242: 0x8292
row_243: 0x8014
row_244: 0x6804
row_245: 0x4008
row_246: 0xA882
row_247: 0x8280
row_248: 0x015A
row_249: 0x1102
row_250: 0x040A
row_251: 0xA880
row_252: 0x0240
row_253: 0x0200
row_254: 0x4002
row_255: 0x1486
