// ProsperityHDL Tile Data (256x16)
// Format: 16-bit hex values, one per row
// Total rows: 256
// Generated from SDT CIFAR-10 data

row_000: 0x6100
row_001: 0xAA00
row_002: 0x04C0
row_003: 0x0129
row_004: 0x00A9
row_005: 0x0060
row_006: 0x7120
row_007: 0x4024
row_008: 0x0001
row_009: 0x0401
row_010: 0x4200
row_011: 0x4C00
row_012: 0x3020
row_013: 0x0448
row_014: 0x0422
row_015: 0x0008
row_016: 0x0824
row_017: 0x0504
row_018: 0x8114
row_019: 0x0010
row_020: 0x8184
row_021: 0x0001
row_022: 0x0020
row_023: 0x0421
row_024: 0x0008
row_025: 0x8880
row_026: 0x0002
row_027: 0x8204
row_028: 0x2040
row_029: 0x0082
row_030: 0xA026
row_031: 0x0094
row_032: 0x00C0
row_033: 0x20C8
row_034: 0x2000
row_035: 0x8940
row_036: 0x2404
row_037: 0x1000
row_038: 0x0549
row_039: 0x0160
row_040: 0x0400
row_041: 0x0020
row_042: 0x32C1
row_043: 0x200E
row_044: 0x10D2
row_045: 0xA002
row_046: 0x4080
row_047: 0x400B
row_048: 0x8027
row_049: 0x0202
row_050: 0x0010
row_051: 0x1D00
row_052: 0x4045
row_053: 0x4030
row_054: 0x0008
row_055: 0x8080
row_056: 0x00A0
row_057: 0x0080
row_058: 0x001C
row_059: 0x1100
row_060: 0x00D2
row_061: 0xE680
row_062: 0x0002
row_063: 0x2080
row_064: 0x0001
row_065: 0x2203
row_066: 0x0840
row_067: 0x0080
row_068: 0x3246
row_069: 0x0840
row_070: 0xC800
row_071: 0x002A
row_072: 0x8200
row_073: 0x0042
row_074: 0x0090
row_075: 0x5540
row_076: 0x4201
row_077: 0x0A40
row_078: 0x0284
row_079: 0x3623
row_080: 0x8210
row_081: 0x0480
row_082: 0x4888
row_083: 0x8915
row_084: 0x0004
row_085: 0x0800
row_086: 0x21A0
row_087: 0x1002
row_088: 0x0800
row_089: 0x3002
row_090: 0x0028
row_091: 0xD004
row_092: 0x2844
row_093: 0x8004
row_094: 0x2000
row_095: 0x0340
row_096: 0x0580
row_097: 0x1010
row_098: 0x8020
row_099: 0x0C04
row_100: 0x5001
row_101: 0x4400
row_102: 0x1918
row_103: 0xC001
row_104: 0x0060
row_105: 0x2128
row_106: 0x0088
row_107: 0x7406
row_108: 0x0010
row_109: 0x0604
row_110: 0x2007
row_111: 0x0400
row_112: 0x0080
row_113: 0x0400
row_114: 0x1100
row_115: 0x00C8
row_116: 0x1242
row_117: 0x0400
row_118: 0x1000
row_119: 0x9100
row_120: 0x08A2
row_121: 0x1080
row_122: 0xB001
row_123: 0x0218
row_124: 0xA000
row_125: 0x0240
row_126: 0x1A04
row_127: 0x0250
row_128: 0x0004
row_129: 0x4440
row_130: 0x0BA4
row_131: 0x8000
row_132: 0x1844
row_133: 0x0040
row_134: 0x0020
row_135: 0x0001
row_136: 0x4034
row_137: 0x0C00
row_138: 0x0788
row_139: 0x1804
row_140: 0x0001
row_141: 0x8102
row_142: 0x0004
row_143: 0x0044
row_144: 0x0009
row_145: 0x0100
row_146: 0x1220
row_147: 0x2C04
row_148: 0x58B0
row_149: 0xCC04
row_150: 0x0700
row_151: 0x1402
row_152: 0x09C8
row_153: 0x8040
row_154: 0x0008
row_155: 0x5A92
row_156: 0x8000
row_157: 0x2300
row_158: 0x0008
row_159: 0x4400
row_160: 0x0005
row_161: 0x0061
row_162: 0x1204
row_163: 0x0300
row_164: 0x1040
row_165: 0x2084
row_166: 0x0820
row_167: 0x9000
row_168: 0x0002
row_169: 0x0182
row_170: 0x0020
row_171: 0x0004
row_172: 0xA881
row_173: 0xC050
row_174: 0x0288
row_175: 0x8052
row_176: 0x0042
row_177: 0x0812
row_178: 0x0181
row_179: 0x2000
row_180: 0x040C
row_181: 0x0281
row_182: 0x00A3
row_183: 0xD001
row_184: 0x0006
row_185: 0x0840
row_186: 0x2000
row_187: 0x5064
row_188: 0x2000
row_189: 0x0010
row_190: 0x2010
row_191: 0x0140
row_192: 0x1008
row_193: 0x0010
row_194: 0x1000
row_195: 0x1800
row_196: 0x5020
row_197: 0xA000
row_198: 0x012A
row_199: 0x0400
row_200: 0x4060
row_201: 0x0084
row_202: 0x4040
row_203: 0x1A02
row_204: 0x1002
row_205: 0x4002
row_206: 0x2248
row_207: 0x3100
row_208: 0x8410
row_209: 0x2050
row_210: 0x0100
row_211: 0x0104
row_212: 0x1001
row_213: 0x2020
row_214: 0x0405
row_215: 0xC901
row_216: 0x1000
row_217: 0x0090
row_218: 0x8200
row_219: 0x0006
row_220: 0x90A0
row_221: 0x0040
row_222: 0x1A28
row_223: 0x0010
row_224: 0x9010
row_225: 0x0048
row_226: 0x484F
row_227: 0x0010
row_228: 0x1030
row_229: 0x0300
row_230: 0xA060
row_231: 0x8420
row_232: 0x4E04
row_233: 0x0224
row_234: 0x0011
row_235: 0x6084
row_236: 0x0040
row_237: 0x0110
row_238: 0x8010
row_239: 0x0120
row_240: 0x0508
row_241: 0x3000
row_242: 0x0200
row_243: 0x8408
row_244: 0x580C
row_245: 0x4808
row_246: 0x1110
row_247: 0x1204
row_248: 0x01C8
row_249: 0x1030
row_250: 0x0024
row_251: 0x1880
row_252: 0x2010
row_253: 0x0080
row_254: 0x0024
row_255: 0x7450
