// ProSparsity Hardware Test Data (256 neurons × 16 timesteps)
// Format: 16-bit hex values, one per neuron row
// Total neurons: 256
// Raw spike data for ProSparsity reuse detection

neuron_000: 0x6100
neuron_001: 0xAA00
neuron_002: 0x0484
neuron_003: 0x012D
neuron_004: 0x41A9
neuron_005: 0x0062
neuron_006: 0x7130
neuron_007: 0x4026
neuron_008: 0x200B
neuron_009: 0x0401
neuron_010: 0x4200
neuron_011: 0x3800
neuron_012: 0x3028
neuron_013: 0x404C
neuron_014: 0x0022
neuron_015: 0x1000
neuron_016: 0x1920
neuron_017: 0x3540
neuron_018: 0x1384
neuron_019: 0x8022
neuron_020: 0x84A4
neuron_021: 0x2002
neuron_022: 0x0020
neuron_023: 0x8421
neuron_024: 0x020D
neuron_025: 0x8880
neuron_026: 0x4100
neuron_027: 0x0A04
neuron_028: 0x6940
neuron_029: 0x4082
neuron_030: 0x2020
neuron_031: 0x0894
neuron_032: 0x2080
neuron_033: 0x20C8
neuron_034: 0x0140
neuron_035: 0x8944
neuron_036: 0x2004
neuron_037: 0x1440
neuron_038: 0x0369
neuron_039: 0x1140
neuron_040: 0x4440
neuron_041: 0x2208
neuron_042: 0xB351
neuron_043: 0x201E
neuron_044: 0x11C2
neuron_045: 0xA402
neuron_046: 0x7180
neuron_047: 0xC203
neuron_048: 0x8027
neuron_049: 0x0286
neuron_050: 0x1050
neuron_051: 0x1D40
neuron_052: 0x4045
neuron_053: 0x5030
neuron_054: 0x000A
neuron_055: 0x8090
neuron_056: 0x80A0
neuron_057: 0x0080
neuron_058: 0x001C
neuron_059: 0x1101
neuron_060: 0x0892
neuron_061: 0xE687
neuron_062: 0x0002
neuron_063: 0x208C
neuron_064: 0x0281
neuron_065: 0x2203
neuron_066: 0x8840
neuron_067: 0x01A0
neuron_068: 0x3246
neuron_069: 0x0840
neuron_070: 0xC800
neuron_071: 0x042A
neuron_072: 0x8200
neuron_073: 0x0042
neuron_074: 0x0090
neuron_075: 0x5540
neuron_076: 0x0201
neuron_077: 0x0A00
neuron_078: 0x0387
neuron_079: 0x3623
neuron_080: 0x8290
neuron_081: 0x0480
neuron_082: 0x4888
neuron_083: 0x8915
neuron_084: 0x0004
neuron_085: 0x0840
neuron_086: 0x21A0
neuron_087: 0x5412
neuron_088: 0x0804
neuron_089: 0x3003
neuron_090: 0x1028
neuron_091: 0xD01C
neuron_092: 0x2844
neuron_093: 0x8004
neuron_094: 0x2040
neuron_095: 0x0340
neuron_096: 0x05A0
neuron_097: 0x9050
neuron_098: 0x8863
neuron_099: 0x4C44
neuron_100: 0x5001
neuron_101: 0x4401
neuron_102: 0x3918
neuron_103: 0xC001
neuron_104: 0x0066
neuron_105: 0x2128
neuron_106: 0x0098
neuron_107: 0x7406
neuron_108: 0x0010
neuron_109: 0x0604
neuron_110: 0x2003
neuron_111: 0x0404
neuron_112: 0x0288
neuron_113: 0x0400
neuron_114: 0x1100
neuron_115: 0x00C8
neuron_116: 0x1642
neuron_117: 0x0444
neuron_118: 0x1000
neuron_119: 0x9900
neuron_120: 0x0000
neuron_121: 0x1081
neuron_122: 0xF001
neuron_123: 0x0318
neuron_124: 0xA000
neuron_125: 0x0248
neuron_126: 0x1A06
neuron_127: 0x0240
neuron_128: 0x0014
neuron_129: 0xC4C0
neuron_130: 0x6AA4
neuron_131: 0x0000
neuron_132: 0x1844
neuron_133: 0x0040
neuron_134: 0x8020
neuron_135: 0x0011
neuron_136: 0x4034
neuron_137: 0x0C00
neuron_138: 0x0788
neuron_139: 0x1814
neuron_140: 0x1005
neuron_141: 0x8500
neuron_142: 0x0104
neuron_143: 0x0044
neuron_144: 0x3229
neuron_145: 0x0100
neuron_146: 0x1A62
neuron_147: 0x2C04
neuron_148: 0x58B0
neuron_149: 0xCC04
neuron_150: 0x1710
neuron_151: 0x1402
neuron_152: 0x09CE
neuron_153: 0x0200
neuron_154: 0x8008
neuron_155: 0x5292
neuron_156: 0x8500
neuron_157: 0x2300
neuron_158: 0x0008
neuron_159: 0x4500
neuron_160: 0x0200
neuron_161: 0x8061
neuron_162: 0x1204
neuron_163: 0x0302
neuron_164: 0x1150
neuron_165: 0x20C4
neuron_166: 0x08A0
neuron_167: 0x9000
neuron_168: 0x0000
neuron_169: 0x0122
neuron_170: 0x5000
neuron_171: 0x0104
neuron_172: 0xA881
neuron_173: 0xC058
neuron_174: 0x0288
neuron_175: 0x8052
neuron_176: 0x0010
neuron_177: 0x0000
neuron_178: 0x4081
neuron_179: 0x2000
neuron_180: 0x040C
neuron_181: 0x0102
neuron_182: 0x80A3
neuron_183: 0xD091
neuron_184: 0x0040
neuron_185: 0x0A40
neuron_186: 0x2004
neuron_187: 0x5074
neuron_188: 0x2000
neuron_189: 0x0011
neuron_190: 0x3010
neuron_191: 0x0100
neuron_192: 0x1008
neuron_193: 0x0014
neuron_194: 0x1002
neuron_195: 0x1800
neuron_196: 0x5020
neuron_197: 0xA000
neuron_198: 0x012A
neuron_199: 0x0400
neuron_200: 0x4064
neuron_201: 0x0084
neuron_202: 0x4040
neuron_203: 0x1A02
neuron_204: 0x1102
neuron_205: 0x0001
neuron_206: 0x2248
neuron_207: 0x3100
neuron_208: 0x8410
neuron_209: 0x0000
neuron_210: 0x0000
neuron_211: 0x0010
neuron_212: 0x1011
neuron_213: 0x2020
neuron_214: 0x0405
neuron_215: 0xC901
neuron_216: 0x1000
neuron_217: 0x0090
neuron_218: 0x8240
neuron_219: 0x0006
neuron_220: 0x90A0
neuron_221: 0x0040
neuron_222: 0x5A28
neuron_223: 0x4010
neuron_224: 0x0010
neuron_225: 0x0048
neuron_226: 0x684F
neuron_227: 0x0010
neuron_228: 0x0000
neuron_229: 0x0300
neuron_230: 0xA060
neuron_231: 0x8430
neuron_232: 0x4E04
neuron_233: 0x0224
neuron_234: 0x0011
neuron_235: 0x6094
neuron_236: 0x0040
neuron_237: 0x0110
neuron_238: 0x9010
neuron_239: 0x1120
neuron_240: 0x0528
neuron_241: 0x3004
neuron_242: 0x0202
neuron_243: 0x8408
neuron_244: 0x580C
neuron_245: 0x4908
neuron_246: 0x1010
neuron_247: 0x1204
neuron_248: 0x01C8
neuron_249: 0x0000
neuron_250: 0x0024
neuron_251: 0x1880
neuron_252: 0x2010
neuron_253: 0x0080
neuron_254: 0x0024
neuron_255: 0x7454
