// ProSparsity Hardware Test Data (256 neurons × 16 timesteps)
// Format: 16-bit hex values, one per neuron row
// Total neurons: 256
// Raw spike data for ProSparsity reuse detection

neuron_000: 0x6100
neuron_001: 0xAA00
neuron_002: 0x04C0
neuron_003: 0x0121
neuron_004: 0x10A9
neuron_005: 0x0040
neuron_006: 0x7122
neuron_007: 0x4424
neuron_008: 0x0001
neuron_009: 0x0401
neuron_010: 0x4208
neuron_011: 0x4C00
neuron_012: 0x3020
neuron_013: 0x0448
neuron_014: 0x0C22
neuron_015: 0x0008
neuron_016: 0x0824
neuron_017: 0x0504
neuron_018: 0x8114
neuron_019: 0x0010
neuron_020: 0x8184
neuron_021: 0x0100
neuron_022: 0x0020
neuron_023: 0x0421
neuron_024: 0x000A
neuron_025: 0x8880
neuron_026: 0x0002
neuron_027: 0x8204
neuron_028: 0x2040
neuron_029: 0x0082
neuron_030: 0xA026
neuron_031: 0x0094
neuron_032: 0x00C0
neuron_033: 0x20C8
neuron_034: 0x0000
neuron_035: 0x8940
neuron_036: 0x2400
neuron_037: 0x1000
neuron_038: 0x0549
neuron_039: 0x0160
neuron_040: 0x0400
neuron_041: 0x0020
neuron_042: 0x32C1
neuron_043: 0x200E
neuron_044: 0x10D2
neuron_045: 0xA002
neuron_046: 0x4880
neuron_047: 0x400B
neuron_048: 0x8027
neuron_049: 0x0202
neuron_050: 0x0010
neuron_051: 0x1D00
neuron_052: 0x4045
neuron_053: 0x4010
neuron_054: 0x0008
neuron_055: 0x8080
neuron_056: 0x00A0
neuron_057: 0x0080
neuron_058: 0x001C
neuron_059: 0x1100
neuron_060: 0x00D2
neuron_061: 0xE680
neuron_062: 0x0002
neuron_063: 0x2080
neuron_064: 0x0001
neuron_065: 0x2203
neuron_066: 0x0840
neuron_067: 0x0080
neuron_068: 0x3246
neuron_069: 0x0840
neuron_070: 0xC800
neuron_071: 0x002A
neuron_072: 0x8200
neuron_073: 0x0042
neuron_074: 0x0090
neuron_075: 0x5540
neuron_076: 0x4201
neuron_077: 0x0A40
neuron_078: 0x0284
neuron_079: 0x3223
neuron_080: 0x8210
neuron_081: 0x0480
neuron_082: 0x4888
neuron_083: 0x8915
neuron_084: 0x0004
neuron_085: 0x0800
neuron_086: 0x21A0
neuron_087: 0x1002
neuron_088: 0x0800
neuron_089: 0x3002
neuron_090: 0x0028
neuron_091: 0xD004
neuron_092: 0x2844
neuron_093: 0x8004
neuron_094: 0x2000
neuron_095: 0x0340
neuron_096: 0x0580
neuron_097: 0x1010
neuron_098: 0x8020
neuron_099: 0x0C04
neuron_100: 0x5001
neuron_101: 0x4400
neuron_102: 0x1918
neuron_103: 0xC001
neuron_104: 0x0060
neuron_105: 0x2128
neuron_106: 0x0088
neuron_107: 0x7406
neuron_108: 0x0010
neuron_109: 0x0604
neuron_110: 0x2007
neuron_111: 0x0400
neuron_112: 0x0080
neuron_113: 0x0400
neuron_114: 0x1100
neuron_115: 0x00C8
neuron_116: 0x1242
neuron_117: 0x0400
neuron_118: 0x1000
neuron_119: 0x9100
neuron_120: 0x0000
neuron_121: 0x1080
neuron_122: 0xB001
neuron_123: 0x0218
neuron_124: 0xA000
neuron_125: 0x0240
neuron_126: 0x1A04
neuron_127: 0x0250
neuron_128: 0x0004
neuron_129: 0x4440
neuron_130: 0x0BA4
neuron_131: 0x0000
neuron_132: 0x1844
neuron_133: 0x0040
neuron_134: 0x0020
neuron_135: 0x0001
neuron_136: 0x4034
neuron_137: 0x0400
neuron_138: 0x0788
neuron_139: 0x1804
neuron_140: 0x0001
neuron_141: 0x8102
neuron_142: 0x0004
neuron_143: 0x0044
neuron_144: 0x0009
neuron_145: 0x0100
neuron_146: 0x1220
neuron_147: 0x2C04
neuron_148: 0x58B0
neuron_149: 0xCC04
neuron_150: 0x0700
neuron_151: 0x1402
neuron_152: 0x09C8
neuron_153: 0x0000
neuron_154: 0x0008
neuron_155: 0x5A92
neuron_156: 0x8000
neuron_157: 0x2300
neuron_158: 0x0008
neuron_159: 0x4400
neuron_160: 0x0000
neuron_161: 0x0061
neuron_162: 0x1204
neuron_163: 0x0300
neuron_164: 0x1040
neuron_165: 0x2084
neuron_166: 0x0820
neuron_167: 0x9000
neuron_168: 0x0000
neuron_169: 0x0182
neuron_170: 0x0000
neuron_171: 0x0004
neuron_172: 0xA881
neuron_173: 0xC050
neuron_174: 0x0288
neuron_175: 0x8052
neuron_176: 0x0000
neuron_177: 0x0000
neuron_178: 0x0181
neuron_179: 0x2000
neuron_180: 0x040C
neuron_181: 0x0000
neuron_182: 0x00A3
neuron_183: 0xD001
neuron_184: 0x0000
neuron_185: 0x0040
neuron_186: 0x2000
neuron_187: 0x5064
neuron_188: 0x2000
neuron_189: 0x0010
neuron_190: 0x2010
neuron_191: 0x0140
neuron_192: 0x1008
neuron_193: 0x0010
neuron_194: 0x1000
neuron_195: 0x1800
neuron_196: 0x5020
neuron_197: 0xA000
neuron_198: 0x012A
neuron_199: 0x0400
neuron_200: 0x4060
neuron_201: 0x0084
neuron_202: 0x4040
neuron_203: 0x1A02
neuron_204: 0x1002
neuron_205: 0x0000
neuron_206: 0x2248
neuron_207: 0x3100
neuron_208: 0x8410
neuron_209: 0x0000
neuron_210: 0x0000
neuron_211: 0x0000
neuron_212: 0x1001
neuron_213: 0x2020
neuron_214: 0x0405
neuron_215: 0xC901
neuron_216: 0x1000
neuron_217: 0x0090
neuron_218: 0x8200
neuron_219: 0x0006
neuron_220: 0x90A0
neuron_221: 0x0040
neuron_222: 0x1A28
neuron_223: 0x0010
neuron_224: 0x0000
neuron_225: 0x0048
neuron_226: 0x484F
neuron_227: 0x0010
neuron_228: 0x0000
neuron_229: 0x0300
neuron_230: 0xA060
neuron_231: 0x8420
neuron_232: 0x4E04
neuron_233: 0x0224
neuron_234: 0x0011
neuron_235: 0x6084
neuron_236: 0x0040
neuron_237: 0x0110
neuron_238: 0x8010
neuron_239: 0x0120
neuron_240: 0x0508
neuron_241: 0x3000
neuron_242: 0x0200
neuron_243: 0x8408
neuron_244: 0x580C
neuron_245: 0x4808
neuron_246: 0x1110
neuron_247: 0x1204
neuron_248: 0x01C8
neuron_249: 0x0000
neuron_250: 0x0024
neuron_251: 0x1880
neuron_252: 0x2010
neuron_253: 0x0080
neuron_254: 0x0024
neuron_255: 0x7450
