// ProsperityHDL Tile Data (256x16)
// Format: 16-bit hex values, one per row
// Total rows: 256
// Generated from SDT CIFAR-10 data

row_000: 0x0001
row_001: 0x0004
row_002: 0x2000
row_003: 0x0202
row_004: 0x0480
row_005: 0x8000
row_006: 0x0004
row_007: 0x0002
row_008: 0x1000
row_009: 0x000A
row_010: 0x2000
row_011: 0x0080
row_012: 0x0004
row_013: 0x0006
row_014: 0x4002
row_015: 0x0008
row_016: 0x2000
row_017: 0x0010
row_018: 0x0008
row_019: 0x0002
row_020: 0x0001
row_021: 0x0044
row_022: 0x8800
row_023: 0x4020
row_024: 0x8000
row_025: 0x0200
row_026: 0x0800
row_027: 0x0800
row_028: 0x0020
row_029: 0x0C00
row_030: 0x8000
row_031: 0x2001
row_032: 0x0020
row_033: 0x0088
row_034: 0x2200
row_035: 0x0010
row_036: 0x0002
row_037: 0x2000
row_038: 0x0040
row_039: 0x0400
row_040: 0x4000
row_041: 0x0080
row_042: 0x0280
row_043: 0x0006
row_044: 0x0C00
row_045: 0x0084
row_046: 0x0280
row_047: 0x0202
row_048: 0x4080
row_049: 0x8080
row_050: 0x0020
row_051: 0x0001
row_052: 0x0080
row_053: 0x0004
row_054: 0x0900
row_055: 0x4000
row_056: 0x0060
row_057: 0x0100
row_058: 0x0100
row_059: 0x0004
row_060: 0x2000
row_061: 0x0400
row_062: 0x0002
row_063: 0x0002
row_064: 0x0002
row_065: 0x0105
row_066: 0x2004
row_067: 0x2282
row_068: 0x8000
row_069: 0xC000
row_070: 0x0044
row_071: 0x0010
row_072: 0x1000
row_073: 0x0040
row_074: 0x0020
row_075: 0x0002
row_076: 0x0201
row_077: 0x0106
row_078: 0x6002
row_079: 0x0108
row_080: 0x2024
row_081: 0x0100
row_082: 0x0004
row_083: 0x8082
row_084: 0x1000
row_085: 0x0154
row_086: 0x8880
row_087: 0x4022
row_088: 0x8080
row_089: 0x0010
row_090: 0x2200
row_091: 0x0810
row_092: 0x2420
row_093: 0x0C09
row_094: 0x8100
row_095: 0x2081
row_096: 0x0004
row_097: 0x0004
row_098: 0x2202
row_099: 0x0810
row_100: 0x0102
row_101: 0x2810
row_102: 0x004A
row_103: 0x2408
row_104: 0x0010
row_105: 0x0180
row_106: 0x4280
row_107: 0x080E
row_108: 0x0004
row_109: 0x08A4
row_110: 0x2280
row_111: 0x0302
row_112: 0x4284
row_113: 0x8880
row_114: 0x4020
row_115: 0x1000
row_116: 0x0180
row_117: 0x0020
row_118: 0x8900
row_119: 0x0080
row_120: 0x0061
row_121: 0x0902
row_122: 0x0004
row_123: 0x0008
row_124: 0x0080
row_125: 0x2440
row_126: 0x00C2
row_127: 0x0022
row_128: 0x0004
row_129: 0x0100
row_130: 0x0060
row_131: 0x0004
row_132: 0x0408
row_133: 0x8000
row_134: 0x2000
row_135: 0x2000
row_136: 0x2000
row_137: 0x0230
row_138: 0x4000
row_139: 0x8002
row_140: 0x0800
row_141: 0x2000
row_142: 0x8100
row_143: 0x4000
row_144: 0x3002
row_145: 0xA004
row_146: 0x0002
row_147: 0x0040
row_148: 0x010A
row_149: 0x4400
row_150: 0x2410
row_151: 0x000A
row_152: 0x0001
row_153: 0xC200
row_154: 0x0120
row_155: 0x0800
row_156: 0x8050
row_157: 0x0800
row_158: 0x0010
row_159: 0x8004
row_160: 0x0400
row_161: 0x4080
row_162: 0x0008
row_163: 0x0440
row_164: 0x0100
row_165: 0x0040
row_166: 0x3040
row_167: 0x0001
row_168: 0x2020
row_169: 0x3400
row_170: 0x0088
row_171: 0x8010
row_172: 0x1006
row_173: 0x0080
row_174: 0x0008
row_175: 0x0A04
row_176: 0x1000
row_177: 0x0800
row_178: 0x0050
row_179: 0x0200
row_180: 0x0109
row_181: 0x0008
row_182: 0x4000
row_183: 0x0400
row_184: 0x4C00
row_185: 0x0100
row_186: 0x1400
row_187: 0x0028
row_188: 0x0240
row_189: 0x0288
row_190: 0x2804
row_191: 0x0008
row_192: 0x5020
row_193: 0x8100
row_194: 0xA001
row_195: 0x0020
row_196: 0x1001
row_197: 0x0001
row_198: 0x1000
row_199: 0x0010
row_200: 0x8000
row_201: 0x1000
row_202: 0x0220
row_203: 0x0002
row_204: 0x4500
row_205: 0x0040
row_206: 0x4010
row_207: 0x1000
row_208: 0x2000
row_209: 0x0004
row_210: 0x4000
row_211: 0x5000
row_212: 0x1200
row_213: 0x4080
row_214: 0x0080
row_215: 0x4000
row_216: 0x0010
row_217: 0x0406
row_218: 0x8400
row_219: 0x2108
row_220: 0x8000
row_221: 0x1080
row_222: 0x1880
row_223: 0x2000
row_224: 0x0004
row_225: 0x0004
row_226: 0x0020
row_227: 0x0002
row_228: 0x0202
row_229: 0x4800
row_230: 0x0040
row_231: 0x0001
row_232: 0x0040
row_233: 0x0508
row_234: 0x0070
row_235: 0x080C
row_236: 0x0001
row_237: 0x2000
row_238: 0xA040
row_239: 0x0840
row_240: 0x8000
row_241: 0x0200
row_242: 0x5001
row_243: 0x0001
row_244: 0x0200
row_245: 0x4000
row_246: 0x0104
row_247: 0x4004
row_248: 0x1060
row_249: 0x40A0
row_250: 0x0888
row_251: 0x0400
row_252: 0x6080
row_253: 0x0500
row_254: 0x0100
row_255: 0x8000
