// ProsperityHDL Tile Data (256x16)
// Format: 16-bit hex values, one per row
// Total rows: 256
// Generated from SDT CIFAR-10 data

row_000: 0x6000
row_001: 0x8004
row_002: 0x0084
row_003: 0x01A0
row_004: 0x00AB
row_005: 0x4462
row_006: 0x7120
row_007: 0x5020
row_008: 0x0003
row_009: 0x0401
row_010: 0x0100
row_011: 0x1002
row_012: 0x3008
row_013: 0x224C
row_014: 0x0022
row_015: 0x0001
row_016: 0x0800
row_017: 0x2500
row_018: 0x8304
row_019: 0x2000
row_020: 0x86A4
row_021: 0x0002
row_022: 0x0028
row_023: 0x0423
row_024: 0x0248
row_025: 0x8010
row_026: 0x0100
row_027: 0x0804
row_028: 0x6000
row_029: 0x4002
row_030: 0x0420
row_031: 0x0084
row_032: 0x2080
row_033: 0x24C8
row_034: 0x0202
row_035: 0xC944
row_036: 0x2400
row_037: 0x0440
row_038: 0x0149
row_039: 0x0040
row_040: 0x0400
row_041: 0x0480
row_042: 0xB211
row_043: 0x201A
row_044: 0x10C2
row_045: 0xA400
row_046: 0x5200
row_047: 0xC00B
row_048: 0x8521
row_049: 0x004E
row_050: 0x9050
row_051: 0x0460
row_052: 0x5004
row_053: 0x0420
row_054: 0x0002
row_055: 0xE280
row_056: 0x0088
row_057: 0x2000
row_058: 0x0A14
row_059: 0x0942
row_060: 0x0092
row_061: 0x8414
row_062: 0x104A
row_063: 0x1402
row_064: 0x4081
row_065: 0x5800
row_066: 0x0204
row_067: 0x2084
row_068: 0x0014
row_069: 0x0881
row_070: 0xF120
row_071: 0x920A
row_072: 0x0043
row_073: 0x8202
row_074: 0x0001
row_075: 0x0101
row_076: 0x2201
row_077: 0x0A08
row_078: 0x0C10
row_079: 0x3498
row_080: 0x4000
row_081: 0x2420
row_082: 0x5AA0
row_083: 0x9105
row_084: 0x10C4
row_085: 0x8000
row_086: 0x4020
row_087: 0x0242
row_088: 0x2C00
row_089: 0x7C80
row_090: 0x6108
row_091: 0x2099
row_092: 0xE000
row_093: 0x0402
row_094: 0x2100
row_095: 0x1A04
row_096: 0x0122
row_097: 0x0016
row_098: 0x1140
row_099: 0x4050
row_100: 0x0024
row_101: 0x3221
row_102: 0x0F50
row_103: 0x0300
row_104: 0x0002
row_105: 0x0081
row_106: 0x0800
row_107: 0x4082
row_108: 0xC082
row_109: 0x1000
row_110: 0x0003
row_111: 0x1000
row_112: 0x80C0
row_113: 0x0C21
row_114: 0x0100
row_115: 0x2022
row_116: 0x1000
row_117: 0x002A
row_118: 0x0006
row_119: 0x9011
row_120: 0x008C
row_121: 0x24C1
row_122: 0x5016
row_123: 0x0207
row_124: 0x2289
row_125: 0x8649
row_126: 0x1A00
row_127: 0x4200
row_128: 0x0011
row_129: 0x00A0
row_130: 0x2FB0
row_131: 0x4004
row_132: 0x1480
row_133: 0x0140
row_134: 0x8020
row_135: 0x0014
row_136: 0x0400
row_137: 0x1E00
row_138: 0x0301
row_139: 0x2210
row_140: 0x0140
row_141: 0x850A
row_142: 0x8001
row_143: 0x0044
row_144: 0x3020
row_145: 0x0004
row_146: 0x1050
row_147: 0x8810
row_148: 0x1894
row_149: 0x4481
row_150: 0x0900
row_151: 0x82C0
row_152: 0x09C4
row_153: 0x0021
row_154: 0x0122
row_155: 0x0B07
row_156: 0x00C0
row_157: 0x3000
row_158: 0x2042
row_159: 0x0400
row_160: 0x4190
row_161: 0x6940
row_162: 0x4100
row_163: 0x6022
row_164: 0x9400
row_165: 0x04AA
row_166: 0x9400
row_167: 0x1001
row_168: 0x0200
row_169: 0x00B1
row_170: 0xC800
row_171: 0x011C
row_172: 0x2280
row_173: 0xD0D9
row_174: 0x8080
row_175: 0x8604
row_176: 0x020A
row_177: 0x0020
row_178: 0x0800
row_179: 0x400F
row_180: 0x0048
row_181: 0x0001
row_182: 0x0040
row_183: 0x0820
row_184: 0x0804
row_185: 0x0C00
row_186: 0x2005
row_187: 0x2024
row_188: 0x20E2
row_189: 0x2C18
row_190: 0x1301
row_191: 0x0012
row_192: 0x11A0
row_193: 0x0812
row_194: 0x0200
row_195: 0x0850
row_196: 0x48A0
row_197: 0x4508
row_198: 0x0B20
row_199: 0x0281
row_200: 0x0102
row_201: 0x0084
row_202: 0x0500
row_203: 0x4B02
row_204: 0x46C0
row_205: 0x0200
row_206: 0x8040
row_207: 0x1400
row_208: 0x4009
row_209: 0x4100
row_210: 0x3002
row_211: 0x6000
row_212: 0x0440
row_213: 0x04A8
row_214: 0x0006
row_215: 0xC200
row_216: 0x0100
row_217: 0x0010
row_218: 0x0418
row_219: 0x4002
row_220: 0x9288
row_221: 0x10D8
row_222: 0x0C28
row_223: 0x4082
row_224: 0x0080
row_225: 0x2069
row_226: 0x08B0
row_227: 0x0048
row_228: 0x0008
row_229: 0x2050
row_230: 0x2040
row_231: 0x8245
row_232: 0x0854
row_233: 0x0684
row_234: 0x2301
row_235: 0x0011
row_236: 0x0A00
row_237: 0x0642
row_238: 0x3102
row_239: 0x8222
row_240: 0x0700
row_241: 0xB840
row_242: 0x0020
row_243: 0x0030
row_244: 0x0100
row_245: 0x4C01
row_246: 0x1900
row_247: 0x0804
row_248: 0x015A
row_249: 0x0101
row_250: 0x8104
row_251: 0x0840
row_252: 0xC20A
row_253: 0x0085
row_254: 0xC231
row_255: 0x0490
