// ProSparsity Hardware Test Data (256 neurons × 16 timesteps)
// Format: 16-bit hex values, one per neuron row
// Total neurons: 256
// Raw spike data for ProSparsity reuse detection

neuron_000: 0x6000
neuron_001: 0x0800
neuron_002: 0x0084
neuron_003: 0x01A0
neuron_004: 0x01AB
neuron_005: 0x0462
neuron_006: 0x7130
neuron_007: 0x5026
neuron_008: 0x200B
neuron_009: 0x0401
neuron_010: 0x0100
neuron_011: 0x3000
neuron_012: 0x3008
neuron_013: 0x224C
neuron_014: 0x0022
neuron_015: 0x1000
neuron_016: 0x1800
neuron_017: 0x3540
neuron_018: 0x8384
neuron_019: 0x8022
neuron_020: 0x86A4
neuron_021: 0x0002
neuron_022: 0x0828
neuron_023: 0x8423
neuron_024: 0x0209
neuron_025: 0x8010
neuron_026: 0x4100
neuron_027: 0x0804
neuron_028: 0x6040
neuron_029: 0x4002
neuron_030: 0x0420
neuron_031: 0x0084
neuron_032: 0x2080
neuron_033: 0x2CC8
neuron_034: 0x0040
neuron_035: 0xCD44
neuron_036: 0x2000
neuron_037: 0x1440
neuron_038: 0x0369
neuron_039: 0x1140
neuron_040: 0x0440
neuron_041: 0x2208
neuron_042: 0xB311
neuron_043: 0x201A
neuron_044: 0x11C2
neuron_045: 0xA400
neuron_046: 0x7304
neuron_047: 0xC203
neuron_048: 0x8521
neuron_049: 0x004E
neuron_050: 0x9050
neuron_051: 0x0460
neuron_052: 0x5004
neuron_053: 0x0420
neuron_054: 0x0002
neuron_055: 0xE280
neuron_056: 0x0088
neuron_057: 0x2000
neuron_058: 0x0A14
neuron_059: 0x0942
neuron_060: 0x0092
neuron_061: 0x8414
neuron_062: 0x104A
neuron_063: 0x1402
neuron_064: 0x4081
neuron_065: 0x5800
neuron_066: 0x0204
neuron_067: 0x2084
neuron_068: 0x0014
neuron_069: 0x0881
neuron_070: 0x0000
neuron_071: 0x920A
neuron_072: 0x0000
neuron_073: 0x8202
neuron_074: 0x0001
neuron_075: 0x0101
neuron_076: 0x2201
neuron_077: 0x0A08
neuron_078: 0x0C10
neuron_079: 0x3498
neuron_080: 0x4000
neuron_081: 0x2420
neuron_082: 0x5AA0
neuron_083: 0x9105
neuron_084: 0x10C4
neuron_085: 0x8000
neuron_086: 0x4020
neuron_087: 0x0242
neuron_088: 0x2C00
neuron_089: 0x7C80
neuron_090: 0x6108
neuron_091: 0x2099
neuron_092: 0x0000
neuron_093: 0x0402
neuron_094: 0x2100
neuron_095: 0x1A04
neuron_096: 0x0122
neuron_097: 0x0016
neuron_098: 0x1140
neuron_099: 0x4050
neuron_100: 0x0024
neuron_101: 0x3221
neuron_102: 0x0F50
neuron_103: 0x0300
neuron_104: 0x0002
neuron_105: 0x0081
neuron_106: 0x0800
neuron_107: 0x4082
neuron_108: 0xC082
neuron_109: 0x1000
neuron_110: 0x0003
neuron_111: 0x1000
neuron_112: 0x80C0
neuron_113: 0x0C21
neuron_114: 0x0100
neuron_115: 0x2022
neuron_116: 0x1000
neuron_117: 0x002A
neuron_118: 0x0000
neuron_119: 0x9011
neuron_120: 0x0000
neuron_121: 0x24C1
neuron_122: 0x5016
neuron_123: 0x0207
neuron_124: 0x2289
neuron_125: 0x8649
neuron_126: 0x1A00
neuron_127: 0x4200
neuron_128: 0x0011
neuron_129: 0x00A0
neuron_130: 0x2FB0
neuron_131: 0x4004
neuron_132: 0x1480
neuron_133: 0x0140
neuron_134: 0x8020
neuron_135: 0x0014
neuron_136: 0x0400
neuron_137: 0x1E00
neuron_138: 0x0301
neuron_139: 0x2210
neuron_140: 0x0140
neuron_141: 0x850A
neuron_142: 0x8001
neuron_143: 0x0044
neuron_144: 0x3020
neuron_145: 0x0004
neuron_146: 0x1050
neuron_147: 0x8810
neuron_148: 0x1894
neuron_149: 0x4481
neuron_150: 0x0900
neuron_151: 0x82C0
neuron_152: 0x09C4
neuron_153: 0x0021
neuron_154: 0x0122
neuron_155: 0x0B07
neuron_156: 0x00C0
neuron_157: 0x3000
neuron_158: 0x2042
neuron_159: 0x0400
neuron_160: 0x4190
neuron_161: 0x6940
neuron_162: 0x4100
neuron_163: 0x6022
neuron_164: 0x9400
neuron_165: 0x04AA
neuron_166: 0x9400
neuron_167: 0x1001
neuron_168: 0x0200
neuron_169: 0x00B1
neuron_170: 0xC800
neuron_171: 0x011C
neuron_172: 0x2280
neuron_173: 0xD0D9
neuron_174: 0x8080
neuron_175: 0x8604
neuron_176: 0x0000
neuron_177: 0x0020
neuron_178: 0x0800
neuron_179: 0x400F
neuron_180: 0x0048
neuron_181: 0x0001
neuron_182: 0x0040
neuron_183: 0x0820
neuron_184: 0x0804
neuron_185: 0x0C00
neuron_186: 0x2005
neuron_187: 0x2024
neuron_188: 0x20E2
neuron_189: 0x2C18
neuron_190: 0x1301
neuron_191: 0x0012
neuron_192: 0x11A0
neuron_193: 0x0000
neuron_194: 0x0200
neuron_195: 0x0850
neuron_196: 0x48A0
neuron_197: 0x4508
neuron_198: 0x0B20
neuron_199: 0x0000
neuron_200: 0x0102
neuron_201: 0x0084
neuron_202: 0x0500
neuron_203: 0x4B02
neuron_204: 0x46C0
neuron_205: 0x0200
neuron_206: 0x8040
neuron_207: 0x1400
neuron_208: 0x4009
neuron_209: 0x4100
neuron_210: 0x3002
neuron_211: 0x6000
neuron_212: 0x0440
neuron_213: 0x04A8
neuron_214: 0x0000
neuron_215: 0xC200
neuron_216: 0x0100
neuron_217: 0x0010
neuron_218: 0x0418
neuron_219: 0x0000
neuron_220: 0x9288
neuron_221: 0x10D8
neuron_222: 0x0C28
neuron_223: 0x4082
neuron_224: 0x0080
neuron_225: 0x2069
neuron_226: 0x08B0
neuron_227: 0x0048
neuron_228: 0x0008
neuron_229: 0x0000
neuron_230: 0x2040
neuron_231: 0x8245
neuron_232: 0x0854
neuron_233: 0x0684
neuron_234: 0x2301
neuron_235: 0x0011
neuron_236: 0x0A00
neuron_237: 0x0642
neuron_238: 0x3102
neuron_239: 0x8222
neuron_240: 0x0700
neuron_241: 0xB840
neuron_242: 0x0020
neuron_243: 0x0030
neuron_244: 0x0000
neuron_245: 0x4C01
neuron_246: 0x1900
neuron_247: 0x0804
neuron_248: 0x015A
neuron_249: 0x0101
neuron_250: 0x8104
neuron_251: 0x0840
neuron_252: 0xC20A
neuron_253: 0x0085
neuron_254: 0xC231
neuron_255: 0x0490
