// ProSparsity Hardware Test Data (256 neurons × 16 timesteps)
// Format: 16-bit hex values, one per neuron row
// Total neurons: 256
// Raw spike data for ProSparsity reuse detection

neuron_000: 0x0440
neuron_001: 0x0060
neuron_002: 0x000A
neuron_003: 0x0020
neuron_004: 0x6020
neuron_005: 0x428E
neuron_006: 0x2008
neuron_007: 0x0000
neuron_008: 0x8002
neuron_009: 0x0018
neuron_010: 0x0000
neuron_011: 0x8800
neuron_012: 0x4040
neuron_013: 0x0318
neuron_014: 0x0490
neuron_015: 0x0810
neuron_016: 0x0002
neuron_017: 0x6400
neuron_018: 0x8208
neuron_019: 0x0010
neuron_020: 0x0050
neuron_021: 0x2001
neuron_022: 0x2100
neuron_023: 0x0008
neuron_024: 0x4009
neuron_025: 0x0002
neuron_026: 0x0050
neuron_027: 0x000C
neuron_028: 0x8200
neuron_029: 0x400D
neuron_030: 0x0101
neuron_031: 0x8406
neuron_032: 0x28C1
neuron_033: 0x0440
neuron_034: 0x0408
neuron_035: 0x1008
neuron_036: 0x2020
neuron_037: 0x420C
neuron_038: 0x3108
neuron_039: 0x1000
neuron_040: 0x9402
neuron_041: 0x0C89
neuron_042: 0x0620
neuron_043: 0xC848
neuron_044: 0x0041
neuron_045: 0x0110
neuron_046: 0x4080
neuron_047: 0x1832
neuron_048: 0x0082
neuron_049: 0x0400
neuron_050: 0x0008
neuron_051: 0x0010
neuron_052: 0x0050
neuron_053: 0x0019
neuron_054: 0x2300
neuron_055: 0x0108
neuron_056: 0x4009
neuron_057: 0x4001
neuron_058: 0x0050
neuron_059: 0x80AC
neuron_060: 0x00C0
neuron_061: 0x000C
neuron_062: 0x8810
neuron_063: 0xC002
neuron_064: 0x0821
neuron_065: 0x004A
neuron_066: 0x8428
neuron_067: 0x0008
neuron_068: 0x0808
neuron_069: 0x0204
neuron_070: 0x0128
neuron_071: 0x1000
neuron_072: 0x8400
neuron_073: 0x0898
neuron_074: 0x0620
neuron_075: 0x488C
neuron_076: 0x0060
neuron_077: 0x120C
neuron_078: 0x0401
neuron_079: 0x0A02
neuron_080: 0x0016
neuron_081: 0x0600
neuron_082: 0x8880
neuron_083: 0x4005
neuron_084: 0x0090
neuron_085: 0x0000
neuron_086: 0x0000
neuron_087: 0x0020
neuron_088: 0x400A
neuron_089: 0x0101
neuron_090: 0x0008
neuron_091: 0x84A5
neuron_092: 0x8210
neuron_093: 0x0004
neuron_094: 0x0000
neuron_095: 0x4000
neuron_096: 0xCF20
neuron_097: 0x9A4A
neuron_098: 0x806D
neuron_099: 0x10A8
neuron_100: 0x0928
neuron_101: 0x2025
neuron_102: 0x0960
neuron_103: 0x414D
neuron_104: 0x1741
neuron_105: 0x08C6
neuron_106: 0x0522
neuron_107: 0x4881
neuron_108: 0xC082
neuron_109: 0x120C
neuron_110: 0x6929
neuron_111: 0x0201
neuron_112: 0x4897
neuron_113: 0x4100
neuron_114: 0x8480
neuron_115: 0x4035
neuron_116: 0x0065
neuron_117: 0x0248
neuron_118: 0x2250
neuron_119: 0x8028
neuron_120: 0x600D
neuron_121: 0x0500
neuron_122: 0x0148
neuron_123: 0x150D
neuron_124: 0x20A5
neuron_125: 0x0084
neuron_126: 0xA005
neuron_127: 0x0138
neuron_128: 0x0D40
neuron_129: 0x1040
neuron_130: 0x8164
neuron_131: 0x0000
neuron_132: 0x0900
neuron_133: 0x2004
neuron_134: 0x1060
neuron_135: 0x40C0
neuron_136: 0x1741
neuron_137: 0x08C3
neuron_138: 0x2012
neuron_139: 0xC801
neuron_140: 0x0086
neuron_141: 0x0208
neuron_142: 0x0629
neuron_143: 0x4800
neuron_144: 0x0882
neuron_145: 0x4000
neuron_146: 0x0008
neuron_147: 0x2008
neuron_148: 0x0000
neuron_149: 0x0140
neuron_150: 0x0240
neuron_151: 0x0088
neuron_152: 0x6009
neuron_153: 0x2900
neuron_154: 0x8350
neuron_155: 0x140C
neuron_156: 0x2040
neuron_157: 0x0005
neuron_158: 0x8105
neuron_159: 0x8530
neuron_160: 0x8D60
neuron_161: 0x206A
neuron_162: 0x8746
neuron_163: 0x0080
neuron_164: 0x8908
neuron_165: 0x6000
neuron_166: 0x1260
neuron_167: 0x4004
neuron_168: 0x1715
neuron_169: 0x1040
neuron_170: 0x6022
neuron_171: 0x4921
neuron_172: 0x02C2
neuron_173: 0x4128
neuron_174: 0x0F91
neuron_175: 0x0820
neuron_176: 0x0104
neuron_177: 0x4188
neuron_178: 0x0A28
neuron_179: 0x0138
neuron_180: 0x0044
neuron_181: 0x0080
neuron_182: 0x0148
neuron_183: 0x8828
neuron_184: 0x610D
neuron_185: 0x1100
neuron_186: 0x8198
neuron_187: 0x34AD
neuron_188: 0x43E4
neuron_189: 0x80A7
neuron_190: 0xA004
neuron_191: 0x4107
neuron_192: 0x0F00
neuron_193: 0x20ED
neuron_194: 0x0302
neuron_195: 0x0090
neuron_196: 0x1D22
neuron_197: 0x7020
neuron_198: 0x3020
neuron_199: 0x5006
neuron_200: 0x5580
neuron_201: 0x1049
neuron_202: 0x2020
neuron_203: 0x4020
neuron_204: 0x0242
neuron_205: 0x4048
neuron_206: 0x0792
neuron_207: 0x8520
neuron_208: 0x8180
neuron_209: 0x4080
neuron_210: 0x0002
neuron_211: 0x4020
neuron_212: 0x2044
neuron_213: 0x9080
neuron_214: 0x1848
neuron_215: 0x0028
neuron_216: 0x1021
neuron_217: 0x1002
neuron_218: 0x839C
neuron_219: 0x000D
neuron_220: 0xC200
neuron_221: 0xC3A5
neuron_222: 0xA045
neuron_223: 0x0914
neuron_224: 0x0441
neuron_225: 0x2868
neuron_226: 0x0442
neuron_227: 0x0020
neuron_228: 0x1022
neuron_229: 0x4022
neuron_230: 0x3000
neuron_231: 0x1004
neuron_232: 0x1003
neuron_233: 0x0048
neuron_234: 0x00B0
neuron_235: 0xF800
neuron_236: 0x0000
neuron_237: 0x4000
neuron_238: 0x00E0
neuron_239: 0xC222
neuron_240: 0x0000
neuron_241: 0x8000
neuron_242: 0x040A
neuron_243: 0x7802
neuron_244: 0x0200
neuron_245: 0x1011
neuron_246: 0x6148
neuron_247: 0x0008
neuron_248: 0x1400
neuron_249: 0x0000
neuron_250: 0x91C4
neuron_251: 0x844D
neuron_252: 0x4044
neuron_253: 0xC105
neuron_254: 0x8005
neuron_255: 0x0105
