// ProsperityHDL Tile Data (256x16)
// Format: 16-bit hex values, one per row
// Total rows: 256
// Generated from SDT CIFAR-10 data

row_000: 0x0001
row_001: 0x0C00
row_002: 0x0C02
row_003: 0x2000
row_004: 0x0020
row_005: 0x20A2
row_006: 0x0008
row_007: 0x0202
row_008: 0x9212
row_009: 0x0011
row_010: 0x0200
row_011: 0x0480
row_012: 0x0440
row_013: 0x0108
row_014: 0x0400
row_015: 0x0818
row_016: 0x8000
row_017: 0x0400
row_018: 0x8000
row_019: 0x0400
row_020: 0x0202
row_021: 0x0008
row_022: 0x2004
row_023: 0x8009
row_024: 0x4001
row_025: 0x0083
row_026: 0x1050
row_027: 0x0804
row_028: 0x0080
row_029: 0x0008
row_030: 0x0820
row_031: 0x0402
row_032: 0x0001
row_033: 0x0400
row_034: 0x0C00
row_035: 0x0004
row_036: 0x2020
row_037: 0x00A0
row_038: 0x1008
row_039: 0x1000
row_040: 0x9040
row_041: 0x0C81
row_042: 0x0420
row_043: 0x0800
row_044: 0x1040
row_045: 0x0008
row_046: 0x0080
row_047: 0x8818
row_048: 0x0001
row_049: 0x0480
row_050: 0x000A
row_051: 0x0002
row_052: 0x1002
row_053: 0x0080
row_054: 0x000C
row_055: 0x8108
row_056: 0x0001
row_057: 0x0081
row_058: 0x1042
row_059: 0x0828
row_060: 0x0280
row_061: 0x1000
row_062: 0x0832
row_063: 0x8402
row_064: 0xAAA0
row_065: 0x0448
row_066: 0x1C2E
row_067: 0x200A
row_068: 0x0810
row_069: 0x0986
row_070: 0x0130
row_071: 0x4202
row_072: 0x0210
row_073: 0x6080
row_074: 0x1720
row_075: 0x408C
row_076: 0x0460
row_077: 0x100C
row_078: 0x0409
row_079: 0x0002
row_080: 0x401A
row_081: 0x0600
row_082: 0x8800
row_083: 0x4000
row_084: 0x0081
row_085: 0x8008
row_086: 0x0002
row_087: 0x8000
row_088: 0x4001
row_089: 0x0101
row_090: 0x0018
row_091: 0x00A0
row_092: 0x0208
row_093: 0x0002
row_094: 0x2800
row_095: 0x04A0
row_096: 0x8820
row_097: 0x8048
row_098: 0x0824
row_099: 0x0018
row_100: 0x0878
row_101: 0x0106
row_102: 0x1220
row_103: 0x4100
row_104: 0x1F11
row_105: 0x4044
row_106: 0x0428
row_107: 0x4181
row_108: 0x810A
row_109: 0x0209
row_110: 0x0C21
row_111: 0x0202
row_112: 0x4112
row_113: 0x0201
row_114: 0x88A0
row_115: 0x6010
row_116: 0x0049
row_117: 0x8008
row_118: 0x1100
row_119: 0x8020
row_120: 0x4008
row_121: 0x9402
row_122: 0x0408
row_123: 0x008D
row_124: 0x2024
row_125: 0x0084
row_126: 0x2405
row_127: 0x0180
row_128: 0x8908
row_129: 0x0848
row_130: 0x0D26
row_131: 0x0089
row_132: 0x0970
row_133: 0x0104
row_134: 0x0060
row_135: 0x4000
row_136: 0x1611
row_137: 0x1841
row_138: 0x0430
row_139: 0x0201
row_140: 0x0002
row_141: 0x0008
row_142: 0x0439
row_143: 0x4802
row_144: 0x4102
row_145: 0x0101
row_146: 0x8020
row_147: 0x6018
row_148: 0x0008
row_149: 0x8140
row_150: 0x1240
row_151: 0x8088
row_152: 0x4009
row_153: 0x3D00
row_154: 0x01D8
row_155: 0x140C
row_156: 0x4240
row_157: 0x0001
row_158: 0x8100
row_159: 0x0528
row_160: 0xB82C
row_161: 0x2468
row_162: 0x1E22
row_163: 0x0092
row_164: 0x88F0
row_165: 0x4180
row_166: 0x5260
row_167: 0x5800
row_168: 0x1715
row_169: 0x0004
row_170: 0xB428
row_171: 0x43B1
row_172: 0x8903
row_173: 0x8148
row_174: 0x0DC5
row_175: 0x020A
row_176: 0x4502
row_177: 0x0309
row_178: 0x8830
row_179: 0x2110
row_180: 0x01C9
row_181: 0x8808
row_182: 0x120A
row_183: 0x8400
row_184: 0x6019
row_185: 0x5402
row_186: 0x0588
row_187: 0x202D
row_188: 0xD354
row_189: 0x8007
row_190: 0xA464
row_191: 0x0D0B
row_192: 0x392C
row_193: 0x2068
row_194: 0x1E00
row_195: 0x0092
row_196: 0x88F0
row_197: 0x4100
row_198: 0x1220
row_199: 0x5824
row_200: 0x8501
row_201: 0x5001
row_202: 0x8428
row_203: 0xC330
row_204: 0x8140
row_205: 0xC948
row_206: 0x0C63
row_207: 0x0200
row_208: 0x0120
row_209: 0x4088
row_210: 0x0030
row_211: 0x0412
row_212: 0x8044
row_213: 0x9000
row_214: 0x1108
row_215: 0x8428
row_216: 0x4000
row_217: 0x5006
row_218: 0x0188
row_219: 0x002D
row_220: 0x8214
row_221: 0x8005
row_222: 0x2045
row_223: 0x0901
row_224: 0x2030
row_225: 0x6070
row_226: 0x1C00
row_227: 0x0010
row_228: 0x08A0
row_229: 0x7000
row_230: 0x1020
row_231: 0x1020
row_232: 0x0802
row_233: 0x0100
row_234: 0x80A8
row_235: 0x83A0
row_236: 0x1400
row_237: 0x0148
row_238: 0x0460
row_239: 0x0202
row_240: 0x0022
row_241: 0x4840
row_242: 0x0020
row_243: 0x1000
row_244: 0x0240
row_245: 0x1009
row_246: 0x1108
row_247: 0x8200
row_248: 0x4008
row_249: 0xD001
row_250: 0x0080
row_251: 0x000C
row_252: 0x8244
row_253: 0x0005
row_254: 0x0065
row_255: 0x0181
