// ProSparsity Hardware Test Data (256 neurons × 16 timesteps)
// Format: 16-bit hex values, one per neuron row
// Total neurons: 256
// Raw spike data for ProSparsity reuse detection

neuron_000: 0x0000
neuron_001: 0x0C00
neuron_002: 0x0C02
neuron_003: 0x0000
neuron_004: 0x0020
neuron_005: 0x20A2
neuron_006: 0x0008
neuron_007: 0x0000
neuron_008: 0x9212
neuron_009: 0x0011
neuron_010: 0x0200
neuron_011: 0x0000
neuron_012: 0x0440
neuron_013: 0x0108
neuron_014: 0x0400
neuron_015: 0x0818
neuron_016: 0x0000
neuron_017: 0x0400
neuron_018: 0x8000
neuron_019: 0x0400
neuron_020: 0x0202
neuron_021: 0x0008
neuron_022: 0x2004
neuron_023: 0x8009
neuron_024: 0x4001
neuron_025: 0x0083
neuron_026: 0x1050
neuron_027: 0x0804
neuron_028: 0x0080
neuron_029: 0x0008
neuron_030: 0x0820
neuron_031: 0x0402
neuron_032: 0x0001
neuron_033: 0x0400
neuron_034: 0x0C00
neuron_035: 0x0000
neuron_036: 0x2020
neuron_037: 0x00A0
neuron_038: 0x1008
neuron_039: 0x1000
neuron_040: 0x9040
neuron_041: 0x0C81
neuron_042: 0x0420
neuron_043: 0x0800
neuron_044: 0x1040
neuron_045: 0x0008
neuron_046: 0x0080
neuron_047: 0x8818
neuron_048: 0x0001
neuron_049: 0x0480
neuron_050: 0x000A
neuron_051: 0x0000
neuron_052: 0x1002
neuron_053: 0x0080
neuron_054: 0x000C
neuron_055: 0x8108
neuron_056: 0x0001
neuron_057: 0x0081
neuron_058: 0x1042
neuron_059: 0x0828
neuron_060: 0x0280
neuron_061: 0x0000
neuron_062: 0x0832
neuron_063: 0x8402
neuron_064: 0xAAA0
neuron_065: 0x0448
neuron_066: 0x1C2E
neuron_067: 0x0000
neuron_068: 0x0810
neuron_069: 0x0986
neuron_070: 0x0130
neuron_071: 0x0000
neuron_072: 0x0210
neuron_073: 0x6080
neuron_074: 0x1720
neuron_075: 0x408C
neuron_076: 0x0000
neuron_077: 0x100C
neuron_078: 0x0409
neuron_079: 0x0002
neuron_080: 0x401A
neuron_081: 0x0600
neuron_082: 0x8800
neuron_083: 0x4000
neuron_084: 0x0081
neuron_085: 0x8008
neuron_086: 0x0002
neuron_087: 0x8000
neuron_088: 0x4001
neuron_089: 0x0101
neuron_090: 0x0018
neuron_091: 0x00A0
neuron_092: 0x0208
neuron_093: 0x0002
neuron_094: 0x2800
neuron_095: 0x04A0
neuron_096: 0x8820
neuron_097: 0x8048
neuron_098: 0x0824
neuron_099: 0x0018
neuron_100: 0x0878
neuron_101: 0x0106
neuron_102: 0x1220
neuron_103: 0x4100
neuron_104: 0x1F11
neuron_105: 0x4044
neuron_106: 0x0428
neuron_107: 0x4181
neuron_108: 0x810A
neuron_109: 0x0209
neuron_110: 0x0C21
neuron_111: 0x0202
neuron_112: 0x4112
neuron_113: 0x0201
neuron_114: 0x88A0
neuron_115: 0x6010
neuron_116: 0x0049
neuron_117: 0x8008
neuron_118: 0x1100
neuron_119: 0x8020
neuron_120: 0x4008
neuron_121: 0x9402
neuron_122: 0x0408
neuron_123: 0x008D
neuron_124: 0x2024
neuron_125: 0x0084
neuron_126: 0x2405
neuron_127: 0x0180
neuron_128: 0x8908
neuron_129: 0x0848
neuron_130: 0x0D26
neuron_131: 0x0089
neuron_132: 0x0970
neuron_133: 0x0104
neuron_134: 0x0060
neuron_135: 0x4000
neuron_136: 0x1611
neuron_137: 0x1841
neuron_138: 0x0430
neuron_139: 0x0201
neuron_140: 0x0002
neuron_141: 0x0008
neuron_142: 0x0439
neuron_143: 0x4802
neuron_144: 0x4102
neuron_145: 0x0101
neuron_146: 0x8020
neuron_147: 0x6018
neuron_148: 0x0008
neuron_149: 0x8140
neuron_150: 0x1240
neuron_151: 0x8088
neuron_152: 0x4009
neuron_153: 0x3D00
neuron_154: 0x01D8
neuron_155: 0x140C
neuron_156: 0x4240
neuron_157: 0x0001
neuron_158: 0x8100
neuron_159: 0x0528
neuron_160: 0xB82C
neuron_161: 0x2468
neuron_162: 0x1E22
neuron_163: 0x0092
neuron_164: 0x88F0
neuron_165: 0x4180
neuron_166: 0x5260
neuron_167: 0x5800
neuron_168: 0x1715
neuron_169: 0x0004
neuron_170: 0xB428
neuron_171: 0x43B1
neuron_172: 0x8903
neuron_173: 0x8148
neuron_174: 0x0DC5
neuron_175: 0x020A
neuron_176: 0x4502
neuron_177: 0x0309
neuron_178: 0x8830
neuron_179: 0x2110
neuron_180: 0x01C9
neuron_181: 0x8808
neuron_182: 0x120A
neuron_183: 0x8400
neuron_184: 0x6019
neuron_185: 0x5402
neuron_186: 0x0588
neuron_187: 0x202D
neuron_188: 0xD354
neuron_189: 0x8007
neuron_190: 0xA464
neuron_191: 0x0D0B
neuron_192: 0x392C
neuron_193: 0x2068
neuron_194: 0x1E00
neuron_195: 0x0092
neuron_196: 0x88F0
neuron_197: 0x4100
neuron_198: 0x1220
neuron_199: 0x5824
neuron_200: 0x8501
neuron_201: 0x0000
neuron_202: 0x8428
neuron_203: 0xC330
neuron_204: 0x8140
neuron_205: 0xC948
neuron_206: 0x0C63
neuron_207: 0x0200
neuron_208: 0x0120
neuron_209: 0x4088
neuron_210: 0x0030
neuron_211: 0x0000
neuron_212: 0x8044
neuron_213: 0x9000
neuron_214: 0x1108
neuron_215: 0x8428
neuron_216: 0x4000
neuron_217: 0x5006
neuron_218: 0x0188
neuron_219: 0x002D
neuron_220: 0x8214
neuron_221: 0x8005
neuron_222: 0x2045
neuron_223: 0x0901
neuron_224: 0x2030
neuron_225: 0x6070
neuron_226: 0x1C00
neuron_227: 0x0010
neuron_228: 0x08A0
neuron_229: 0x0000
neuron_230: 0x1020
neuron_231: 0x1020
neuron_232: 0x0802
neuron_233: 0x0000
neuron_234: 0x80A8
neuron_235: 0x83A0
neuron_236: 0x0000
neuron_237: 0x0148
neuron_238: 0x0460
neuron_239: 0x0202
neuron_240: 0x0022
neuron_241: 0x0000
neuron_242: 0x0020
neuron_243: 0x1000
neuron_244: 0x0240
neuron_245: 0x1009
neuron_246: 0x1108
neuron_247: 0x8200
neuron_248: 0x4008
neuron_249: 0xD001
neuron_250: 0x0080
neuron_251: 0x000C
neuron_252: 0x8244
neuron_253: 0x0005
neuron_254: 0x0065
neuron_255: 0x0181
