// ProSparsity Hardware Test Data (256 neurons × 16 timesteps)
// Format: 16-bit hex values, one per neuron row
// Total neurons: 256
// Raw spike data for ProSparsity reuse detection

neuron_000: 0x0800
neuron_001: 0x0060
neuron_002: 0x040A
neuron_003: 0x0020
neuron_004: 0x2020
neuron_005: 0x2086
neuron_006: 0x0008
neuron_007: 0x1000
neuron_008: 0x8002
neuron_009: 0x0030
neuron_010: 0x0408
neuron_011: 0x0000
neuron_012: 0x4060
neuron_013: 0x0108
neuron_014: 0x0480
neuron_015: 0x0010
neuron_016: 0x0902
neuron_017: 0x4400
neuron_018: 0x8200
neuron_019: 0x0010
neuron_020: 0x0050
neuron_021: 0x0009
neuron_022: 0x0000
neuron_023: 0x0109
neuron_024: 0x4009
neuron_025: 0x0003
neuron_026: 0x0050
neuron_027: 0x002C
neuron_028: 0x8200
neuron_029: 0x0004
neuron_030: 0x0120
neuron_031: 0x4402
neuron_032: 0x00C0
neuron_033: 0x0440
neuron_034: 0x0C0A
neuron_035: 0x0028
neuron_036: 0x2020
neuron_037: 0x4284
neuron_038: 0x3108
neuron_039: 0x5000
neuron_040: 0x9402
neuron_041: 0x0C89
neuron_042: 0x0420
neuron_043: 0x8820
neuron_044: 0x0041
neuron_045: 0x0108
neuron_046: 0x0880
neuron_047: 0x0830
neuron_048: 0x0880
neuron_049: 0x0400
neuron_050: 0x0008
neuron_051: 0x0000
neuron_052: 0x0040
neuron_053: 0x0099
neuron_054: 0x0100
neuron_055: 0x0108
neuron_056: 0x4000
neuron_057: 0x0085
neuron_058: 0x0000
neuron_059: 0x80E8
neuron_060: 0x0000
neuron_061: 0x0100
neuron_062: 0x8020
neuron_063: 0x8082
neuron_064: 0x0820
neuron_065: 0x0048
neuron_066: 0xC02C
neuron_067: 0x0028
neuron_068: 0x0800
neuron_069: 0x0006
neuron_070: 0x0118
neuron_071: 0x0000
neuron_072: 0x8400
neuron_073: 0x0890
neuron_074: 0x0620
neuron_075: 0x008D
neuron_076: 0x0020
neuron_077: 0x1008
neuron_078: 0x050B
neuron_079: 0x0A02
neuron_080: 0x0012
neuron_081: 0x0600
neuron_082: 0x8880
neuron_083: 0x6005
neuron_084: 0x0000
neuron_085: 0x0000
neuron_086: 0x0000
neuron_087: 0x0020
neuron_088: 0x4000
neuron_089: 0x0101
neuron_090: 0x0108
neuron_091: 0x00A1
neuron_092: 0x0210
neuron_093: 0x0004
neuron_094: 0x0800
neuron_095: 0x4400
neuron_096: 0x8A28
neuron_097: 0x824A
neuron_098: 0x052E
neuron_099: 0x00A1
neuron_100: 0x0878
neuron_101: 0x0106
neuron_102: 0x1160
neuron_103: 0x4142
neuron_104: 0x1615
neuron_105: 0x40D4
neuron_106: 0x0428
neuron_107: 0x40A1
neuron_108: 0xC08A
neuron_109: 0x120D
neuron_110: 0x8521
neuron_111: 0x0212
neuron_112: 0x4C13
neuron_113: 0x4201
neuron_114: 0x8480
neuron_115: 0x6014
neuron_116: 0x0059
neuron_117: 0x8048
neuron_118: 0x1202
neuron_119: 0x8121
neuron_120: 0x6089
neuron_121: 0xB002
neuron_122: 0x0548
neuron_123: 0x248D
neuron_124: 0x20A5
neuron_125: 0x0084
neuron_126: 0x2104
neuron_127: 0x0188
neuron_128: 0x8948
neuron_129: 0x0848
neuron_130: 0x0566
neuron_131: 0x0021
neuron_132: 0x0910
neuron_133: 0x2004
neuron_134: 0x0060
neuron_135: 0x4800
neuron_136: 0x1611
neuron_137: 0x0841
neuron_138: 0x2030
neuron_139: 0x0801
neuron_140: 0x0082
neuron_141: 0x0208
neuron_142: 0x0529
neuron_143: 0x4800
neuron_144: 0x4882
neuron_145: 0x4000
neuron_146: 0x0400
neuron_147: 0x6018
neuron_148: 0x0008
neuron_149: 0x0100
neuron_150: 0x0240
neuron_151: 0x80A8
neuron_152: 0x6009
neuron_153: 0xB900
neuron_154: 0x00D0
neuron_155: 0x140C
neuron_156: 0x6240
neuron_157: 0x0021
neuron_158: 0x8104
neuron_159: 0x0520
neuron_160: 0x0928
neuron_161: 0x206A
neuron_162: 0x8726
neuron_163: 0x0080
neuron_164: 0x8808
neuron_165: 0x6100
neuron_166: 0x1260
neuron_167: 0x4804
neuron_168: 0x9615
neuron_169: 0x0045
neuron_170: 0x6428
neuron_171: 0x4B31
neuron_172: 0x0243
neuron_173: 0x4148
neuron_174: 0x0FC7
neuron_175: 0x020A
neuron_176: 0x4504
neuron_177: 0x4188
neuron_178: 0x0E28
neuron_179: 0x0118
neuron_180: 0x82C4
neuron_181: 0x8080
neuron_182: 0x116B
neuron_183: 0x8028
neuron_184: 0x600D
neuron_185: 0x1000
neuron_186: 0x019A
neuron_187: 0x20AD
neuron_188: 0xC324
neuron_189: 0x80A3
neuron_190: 0xA044
neuron_191: 0x4907
neuron_192: 0x192C
neuron_193: 0x2068
neuron_194: 0x0702
neuron_195: 0x0092
neuron_196: 0xA870
neuron_197: 0x4022
neuron_198: 0x12A0
neuron_199: 0x5806
neuron_200: 0x9795
neuron_201: 0x100D
neuron_202: 0x0428
neuron_203: 0x43B1
neuron_204: 0xCA43
neuron_205: 0xC948
neuron_206: 0x0FE3
neuron_207: 0x8228
neuron_208: 0x4900
neuron_209: 0x4088
neuron_210: 0x0120
neuron_211: 0x4100
neuron_212: 0x204C
neuron_213: 0x9C00
neuron_214: 0x114C
neuron_215: 0x8528
neuron_216: 0x1021
neuron_217: 0x9042
neuron_218: 0x059C
neuron_219: 0x002D
neuron_220: 0xC215
neuron_221: 0xC223
neuron_222: 0x2044
neuron_223: 0x0905
neuron_224: 0xB800
neuron_225: 0x2078
neuron_226: 0x164A
neuron_227: 0x08B0
neuron_228: 0xA8B0
neuron_229: 0x0002
neuron_230: 0x1020
neuron_231: 0x1800
neuron_232: 0x1A17
neuron_233: 0x400D
neuron_234: 0x84A8
neuron_235: 0x6BA1
neuron_236: 0x0041
neuron_237: 0xC14C
neuron_238: 0x05E0
neuron_239: 0xC206
neuron_240: 0x4100
neuron_241: 0x4008
neuron_242: 0x1420
neuron_243: 0x6110
neuron_244: 0x2218
neuron_245: 0x1C09
neuron_246: 0x110E
neuron_247: 0x8628
neuron_248: 0x5008
neuron_249: 0xB400
neuron_250: 0x01CC
neuron_251: 0x20ED
neuron_252: 0xC245
neuron_253: 0x8103
neuron_254: 0x0854
neuron_255: 0x0185
