// ProsperityHDL Tile Data (256x16)
// Format: 16-bit hex values, one per row
// Total rows: 256
// Generated from SDT CIFAR-10 data

row_000: 0x0440
row_001: 0x0060
row_002: 0x000A
row_003: 0x0020
row_004: 0x6020
row_005: 0x428E
row_006: 0x2008
row_007: 0x0001
row_008: 0x8002
row_009: 0x0018
row_010: 0x2000
row_011: 0x8800
row_012: 0x4040
row_013: 0x0318
row_014: 0x0490
row_015: 0x0810
row_016: 0x0002
row_017: 0x6400
row_018: 0x8208
row_019: 0x0010
row_020: 0x0050
row_021: 0x2001
row_022: 0x2100
row_023: 0x0008
row_024: 0x4009
row_025: 0x0002
row_026: 0x0050
row_027: 0x000C
row_028: 0x8200
row_029: 0x400D
row_030: 0x0101
row_031: 0x8406
row_032: 0x28C1
row_033: 0x0440
row_034: 0x0408
row_035: 0x1008
row_036: 0x2020
row_037: 0x420C
row_038: 0x3108
row_039: 0x1000
row_040: 0x9402
row_041: 0x0C89
row_042: 0x0620
row_043: 0xC848
row_044: 0x0041
row_045: 0x0110
row_046: 0x4080
row_047: 0x1832
row_048: 0x0082
row_049: 0x0400
row_050: 0x0008
row_051: 0x0010
row_052: 0x0050
row_053: 0x0019
row_054: 0x2300
row_055: 0x0108
row_056: 0x4009
row_057: 0x4001
row_058: 0x0050
row_059: 0x80AC
row_060: 0x00C0
row_061: 0x000C
row_062: 0x8810
row_063: 0xC002
row_064: 0x0821
row_065: 0x004A
row_066: 0x8428
row_067: 0x0008
row_068: 0x0808
row_069: 0x0204
row_070: 0x0128
row_071: 0x1000
row_072: 0x8400
row_073: 0x0898
row_074: 0x0620
row_075: 0x488C
row_076: 0x0060
row_077: 0x120C
row_078: 0x0401
row_079: 0x0A02
row_080: 0x0016
row_081: 0x0600
row_082: 0x8880
row_083: 0x4005
row_084: 0x0090
row_085: 0x2405
row_086: 0x2980
row_087: 0x0020
row_088: 0x400A
row_089: 0x0101
row_090: 0x0008
row_091: 0x84A5
row_092: 0x8210
row_093: 0x0004
row_094: 0x8101
row_095: 0x4000
row_096: 0xCF20
row_097: 0x9A4A
row_098: 0x806D
row_099: 0x10A8
row_100: 0x0928
row_101: 0x2025
row_102: 0x0960
row_103: 0x414D
row_104: 0x1741
row_105: 0x08C6
row_106: 0x0522
row_107: 0x4881
row_108: 0xC082
row_109: 0x120C
row_110: 0x6929
row_111: 0x0201
row_112: 0x4897
row_113: 0x4100
row_114: 0x8480
row_115: 0x4035
row_116: 0x0065
row_117: 0x0248
row_118: 0x2250
row_119: 0x8028
row_120: 0x600D
row_121: 0x0500
row_122: 0x0148
row_123: 0x150D
row_124: 0x20A5
row_125: 0x0084
row_126: 0xA005
row_127: 0x0138
row_128: 0x0D40
row_129: 0x1040
row_130: 0x8164
row_131: 0x1104
row_132: 0x0900
row_133: 0x2004
row_134: 0x1060
row_135: 0x40C0
row_136: 0x1741
row_137: 0x08C3
row_138: 0x2012
row_139: 0xC801
row_140: 0x0086
row_141: 0x0208
row_142: 0x0629
row_143: 0x4800
row_144: 0x0882
row_145: 0x4000
row_146: 0x0008
row_147: 0x2008
row_148: 0x0026
row_149: 0x0140
row_150: 0x0240
row_151: 0x0088
row_152: 0x6009
row_153: 0x2900
row_154: 0x8350
row_155: 0x140C
row_156: 0x2040
row_157: 0x0005
row_158: 0x8105
row_159: 0x8530
row_160: 0x8D60
row_161: 0x206A
row_162: 0x8746
row_163: 0x0080
row_164: 0x8908
row_165: 0x6000
row_166: 0x1260
row_167: 0x4004
row_168: 0x1715
row_169: 0x1040
row_170: 0x6022
row_171: 0x4921
row_172: 0x02C2
row_173: 0x4128
row_174: 0x0F91
row_175: 0x0820
row_176: 0x0104
row_177: 0x4188
row_178: 0x0A28
row_179: 0x0138
row_180: 0x0044
row_181: 0x0080
row_182: 0x0148
row_183: 0x8828
row_184: 0x610D
row_185: 0x1100
row_186: 0x8198
row_187: 0x34AD
row_188: 0x43E4
row_189: 0x80A7
row_190: 0xA004
row_191: 0x4107
row_192: 0x0F00
row_193: 0x20ED
row_194: 0x0302
row_195: 0x0090
row_196: 0x1D22
row_197: 0x7020
row_198: 0x3020
row_199: 0x5006
row_200: 0x5580
row_201: 0x1049
row_202: 0x2020
row_203: 0x4020
row_204: 0x0242
row_205: 0x4048
row_206: 0x0792
row_207: 0x8520
row_208: 0x8180
row_209: 0x4080
row_210: 0x0002
row_211: 0x4020
row_212: 0x2044
row_213: 0x9080
row_214: 0x1848
row_215: 0x0028
row_216: 0x1021
row_217: 0x1002
row_218: 0x839C
row_219: 0x000D
row_220: 0xC200
row_221: 0xC3A5
row_222: 0xA045
row_223: 0x0914
row_224: 0x0441
row_225: 0x2868
row_226: 0x0442
row_227: 0x0020
row_228: 0x1022
row_229: 0x4022
row_230: 0x3000
row_231: 0x1004
row_232: 0x1003
row_233: 0x0048
row_234: 0x00B0
row_235: 0xF800
row_236: 0x5200
row_237: 0x4000
row_238: 0x00E0
row_239: 0xC222
row_240: 0x020A
row_241: 0x8000
row_242: 0x040A
row_243: 0x7802
row_244: 0x0200
row_245: 0x1011
row_246: 0x6148
row_247: 0x0008
row_248: 0x1400
row_249: 0x0812
row_250: 0x91C4
row_251: 0x844D
row_252: 0x4044
row_253: 0xC105
row_254: 0x8005
row_255: 0x0105
