// ProSparsity Hardware Test Data (256 neurons × 16 timesteps)
// Format: 16-bit hex values, one per neuron row
// Total neurons: 256
// Raw spike data for ProSparsity reuse detection

neuron_000: 0x0040
neuron_001: 0x0048
neuron_002: 0x0002
neuron_003: 0x102C
neuron_004: 0x2020
neuron_005: 0x0086
neuron_006: 0x0080
neuron_007: 0x4004
neuron_008: 0x9802
neuron_009: 0x0400
neuron_010: 0x0010
neuron_011: 0x0800
neuron_012: 0x4040
neuron_013: 0x031A
neuron_014: 0x0610
neuron_015: 0x0430
neuron_016: 0x0802
neuron_017: 0x4400
neuron_018: 0x8208
neuron_019: 0x0810
neuron_020: 0x0090
neuron_021: 0x0000
neuron_022: 0x2000
neuron_023: 0x0008
neuron_024: 0x0009
neuron_025: 0x0002
neuron_026: 0x2010
neuron_027: 0x000C
neuron_028: 0x0000
neuron_029: 0x4025
neuron_030: 0x8001
neuron_031: 0x8002
neuron_032: 0x0881
neuron_033: 0x0442
neuron_034: 0x0028
neuron_035: 0x100C
neuron_036: 0x2020
neuron_037: 0x838E
neuron_038: 0x1188
neuron_039: 0x5014
neuron_040: 0x9402
neuron_041: 0x0C88
neuron_042: 0x0610
neuron_043: 0x5800
neuron_044: 0x2040
neuron_045: 0x031A
neuron_046: 0x4080
neuron_047: 0x0C32
neuron_048: 0x0880
neuron_049: 0x0401
neuron_050: 0x800C
neuron_051: 0x2810
neuron_052: 0x2010
neuron_053: 0x0009
neuron_054: 0x0080
neuron_055: 0x0008
neuron_056: 0x0009
neuron_057: 0x0000
neuron_058: 0x0010
neuron_059: 0x84AC
neuron_060: 0x00E0
neuron_061: 0x4001
neuron_062: 0x8811
neuron_063: 0xC08A
neuron_064: 0x4AA0
neuron_065: 0x0048
neuron_066: 0xA028
neuron_067: 0x0008
neuron_068: 0x0818
neuron_069: 0x0206
neuron_070: 0xA118
neuron_071: 0x1004
neuron_072: 0x0200
neuron_073: 0x0288
neuron_074: 0x0600
neuron_075: 0x488C
neuron_076: 0x3000
neuron_077: 0x120E
neuron_078: 0x6081
neuron_079: 0x0822
neuron_080: 0x0896
neuron_081: 0x0C00
neuron_082: 0x88C0
neuron_083: 0x6005
neuron_084: 0x0090
neuron_085: 0x0009
neuron_086: 0x0000
neuron_087: 0x0028
neuron_088: 0x0000
neuron_089: 0x0100
neuron_090: 0x0050
neuron_091: 0xC409
neuron_092: 0x0024
neuron_093: 0x0004
neuron_094: 0x0000
neuron_095: 0x4002
neuron_096: 0x40A0
neuron_097: 0x0042
neuron_098: 0x8020
neuron_099: 0x1028
neuron_100: 0x0D10
neuron_101: 0x4004
neuron_102: 0x8908
neuron_103: 0x400C
neuron_104: 0x0601
neuron_105: 0x029A
neuron_106: 0x0600
neuron_107: 0x4885
neuron_108: 0x8082
neuron_109: 0x120E
neuron_110: 0x6009
neuron_111: 0x0010
neuron_112: 0x0897
neuron_113: 0x0401
neuron_114: 0x8280
neuron_115: 0x6005
neuron_116: 0x0011
neuron_117: 0x0000
neuron_118: 0x0010
neuron_119: 0x0028
neuron_120: 0x4000
neuron_121: 0x0100
neuron_122: 0x2100
neuron_123: 0xD40C
neuron_124: 0x0080
neuron_125: 0x0004
neuron_126: 0x0001
neuron_127: 0x050A
neuron_128: 0xC120
neuron_129: 0x0840
neuron_130: 0x8120
neuron_131: 0x0008
neuron_132: 0x0D00
neuron_133: 0x4000
neuron_134: 0x1260
neuron_135: 0x4004
neuron_136: 0x5701
neuron_137: 0x0842
neuron_138: 0x2210
neuron_139: 0x4801
neuron_140: 0x2002
neuron_141: 0x020A
neuron_142: 0x0EA9
neuron_143: 0x4800
neuron_144: 0x0880
neuron_145: 0x0020
neuron_146: 0x0208
neuron_147: 0x2008
neuron_148: 0x0000
neuron_149: 0x0040
neuron_150: 0x2040
neuron_151: 0x0028
neuron_152: 0x0008
neuron_153: 0x0900
neuron_154: 0x0200
neuron_155: 0x150C
neuron_156: 0x0000
neuron_157: 0x0025
neuron_158: 0x8001
neuron_159: 0x0528
neuron_160: 0x0948
neuron_161: 0x006A
neuron_162: 0x8540
neuron_163: 0x0000
neuron_164: 0x8A00
neuron_165: 0x5000
neuron_166: 0x0060
neuron_167: 0x0004
neuron_168: 0xDA00
neuron_169: 0x0801
neuron_170: 0x2400
neuron_171: 0x4900
neuron_172: 0x0082
neuron_173: 0x403A
neuron_174: 0x0F92
neuron_175: 0x4820
neuron_176: 0x0940
neuron_177: 0x4100
neuron_178: 0x0A0A
neuron_179: 0x0038
neuron_180: 0x00C4
neuron_181: 0x00C0
neuron_182: 0x0148
neuron_183: 0x0084
neuron_184: 0x0009
neuron_185: 0x1100
neuron_186: 0x8182
neuron_187: 0x160C
neuron_188: 0x01A0
neuron_189: 0x8223
neuron_190: 0xC003
neuron_191: 0x8102
neuron_192: 0x0900
neuron_193: 0x0049
neuron_194: 0x0140
neuron_195: 0x1102
neuron_196: 0x8620
neuron_197: 0x6000
neuron_198: 0x0000
neuron_199: 0x0806
neuron_200: 0x5000
neuron_201: 0x1008
neuron_202: 0x2400
neuron_203: 0x6020
neuron_204: 0x0042
neuron_205: 0x403A
neuron_206: 0x0AB4
neuron_207: 0xCC20
neuron_208: 0x8980
neuron_209: 0x4000
neuron_210: 0x000A
neuron_211: 0x0022
neuron_212: 0x0004
neuron_213: 0x10C0
neuron_214: 0x0148
neuron_215: 0x0080
neuron_216: 0x0001
neuron_217: 0x1000
neuron_218: 0x8085
neuron_219: 0x460C
neuron_220: 0x0024
neuron_221: 0x8021
neuron_222: 0x8047
neuron_223: 0x8314
neuron_224: 0x0100
neuron_225: 0x0241
neuron_226: 0x0040
neuron_227: 0x0000
neuron_228: 0x0032
neuron_229: 0xA000
neuron_230: 0x0000
neuron_231: 0x1004
neuron_232: 0x5002
neuron_233: 0x0008
neuron_234: 0x0000
neuron_235: 0xF840
neuron_236: 0x0002
neuron_237: 0x4210
neuron_238: 0x01A0
neuron_239: 0xC430
neuron_240: 0x0080
neuron_241: 0x0000
neuron_242: 0x0000
neuron_243: 0x4002
neuron_244: 0x0600
neuron_245: 0x1041
neuron_246: 0x0042
neuron_247: 0x0000
neuron_248: 0x0000
neuron_249: 0x4300
neuron_250: 0x828C
neuron_251: 0x440C
neuron_252: 0x0040
neuron_253: 0x0109
neuron_254: 0x8054
neuron_255: 0x0585
