// ProsperityHDL Tile Data (256x16)
// Format: 16-bit hex values, one per row
// Total rows: 256
// Generated from SDT CIFAR-10 data

row_000: 0x0040
row_001: 0x0048
row_002: 0x0002
row_003: 0x102C
row_004: 0x2020
row_005: 0x0086
row_006: 0x0080
row_007: 0x4004
row_008: 0x9802
row_009: 0x0400
row_010: 0x0010
row_011: 0x0800
row_012: 0x4040
row_013: 0x031A
row_014: 0x0610
row_015: 0x0430
row_016: 0x0802
row_017: 0x4400
row_018: 0x8208
row_019: 0x0810
row_020: 0x0090
row_021: 0x0001
row_022: 0x2000
row_023: 0x0008
row_024: 0x0009
row_025: 0x0002
row_026: 0x2010
row_027: 0x000C
row_028: 0x2000
row_029: 0x4025
row_030: 0x8001
row_031: 0x8002
row_032: 0x0881
row_033: 0x0442
row_034: 0x0028
row_035: 0x100C
row_036: 0x2020
row_037: 0x838E
row_038: 0x1188
row_039: 0x5014
row_040: 0x9402
row_041: 0x0C88
row_042: 0x0610
row_043: 0x5800
row_044: 0x2040
row_045: 0x031A
row_046: 0x4080
row_047: 0x0C32
row_048: 0x0880
row_049: 0x0401
row_050: 0x800C
row_051: 0x2810
row_052: 0x2010
row_053: 0x0009
row_054: 0x0080
row_055: 0x0008
row_056: 0x0009
row_057: 0x0202
row_058: 0x0010
row_059: 0x84AC
row_060: 0x00E0
row_061: 0x4001
row_062: 0x8811
row_063: 0xC08A
row_064: 0x4AA0
row_065: 0x0048
row_066: 0xA028
row_067: 0x0008
row_068: 0x0818
row_069: 0x0206
row_070: 0xA118
row_071: 0x1004
row_072: 0x0200
row_073: 0x0288
row_074: 0x0600
row_075: 0x488C
row_076: 0x3000
row_077: 0x120E
row_078: 0x6081
row_079: 0x0822
row_080: 0x0896
row_081: 0x0C00
row_082: 0x88C0
row_083: 0x6005
row_084: 0x0090
row_085: 0x0009
row_086: 0x2480
row_087: 0x0028
row_088: 0x8009
row_089: 0x0100
row_090: 0x0050
row_091: 0xC409
row_092: 0x0024
row_093: 0x0004
row_094: 0x8021
row_095: 0x4002
row_096: 0x40A0
row_097: 0x0042
row_098: 0x8020
row_099: 0x1028
row_100: 0x0D10
row_101: 0x4004
row_102: 0x8908
row_103: 0x400C
row_104: 0x0601
row_105: 0x029A
row_106: 0x0600
row_107: 0x4885
row_108: 0x8082
row_109: 0x120E
row_110: 0x6009
row_111: 0x0010
row_112: 0x0897
row_113: 0x0401
row_114: 0x8280
row_115: 0x6005
row_116: 0x0011
row_117: 0x8009
row_118: 0x0010
row_119: 0x0028
row_120: 0x4000
row_121: 0x0100
row_122: 0x2100
row_123: 0xD40C
row_124: 0x0080
row_125: 0x0004
row_126: 0x0001
row_127: 0x050A
row_128: 0xC120
row_129: 0x0840
row_130: 0x8120
row_131: 0x0008
row_132: 0x0D00
row_133: 0x4000
row_134: 0x1260
row_135: 0x4004
row_136: 0x5701
row_137: 0x0842
row_138: 0x2210
row_139: 0x4801
row_140: 0x2002
row_141: 0x020A
row_142: 0x0EA9
row_143: 0x4800
row_144: 0x0880
row_145: 0x0020
row_146: 0x0208
row_147: 0x2008
row_148: 0x0002
row_149: 0x0040
row_150: 0x2040
row_151: 0x0028
row_152: 0x0008
row_153: 0x0900
row_154: 0x0200
row_155: 0x150C
row_156: 0x0020
row_157: 0x0025
row_158: 0x8001
row_159: 0x0528
row_160: 0x0948
row_161: 0x006A
row_162: 0x8540
row_163: 0x0042
row_164: 0x8A00
row_165: 0x5000
row_166: 0x0060
row_167: 0x0004
row_168: 0xDA00
row_169: 0x0801
row_170: 0x2400
row_171: 0x4900
row_172: 0x0082
row_173: 0x403A
row_174: 0x0F92
row_175: 0x4820
row_176: 0x0940
row_177: 0x4100
row_178: 0x0A0A
row_179: 0x0038
row_180: 0x00C4
row_181: 0x00C0
row_182: 0x0148
row_183: 0x0084
row_184: 0x0009
row_185: 0x1100
row_186: 0x8182
row_187: 0x160C
row_188: 0x01A0
row_189: 0x8223
row_190: 0xC003
row_191: 0x8102
row_192: 0x0900
row_193: 0x0049
row_194: 0x0140
row_195: 0x1102
row_196: 0x8620
row_197: 0x6000
row_198: 0x0812
row_199: 0x0806
row_200: 0x5000
row_201: 0x1008
row_202: 0x2400
row_203: 0x6020
row_204: 0x0042
row_205: 0x403A
row_206: 0x0AB4
row_207: 0xCC20
row_208: 0x8980
row_209: 0x4000
row_210: 0x000A
row_211: 0x0022
row_212: 0x0004
row_213: 0x10C0
row_214: 0x0148
row_215: 0x0080
row_216: 0x0001
row_217: 0x1000
row_218: 0x8085
row_219: 0x460C
row_220: 0x0024
row_221: 0x8021
row_222: 0x8047
row_223: 0x8314
row_224: 0x0100
row_225: 0x0241
row_226: 0x0040
row_227: 0x0281
row_228: 0x0032
row_229: 0xA000
row_230: 0x0006
row_231: 0x1004
row_232: 0x5002
row_233: 0x0008
row_234: 0x4002
row_235: 0xF840
row_236: 0x0002
row_237: 0x4210
row_238: 0x01A0
row_239: 0xC430
row_240: 0x0080
row_241: 0x2050
row_242: 0x0100
row_243: 0x4002
row_244: 0x0600
row_245: 0x1041
row_246: 0x0042
row_247: 0x0104
row_248: 0x9010
row_249: 0x4300
row_250: 0x828C
row_251: 0x440C
row_252: 0x0040
row_253: 0x0109
row_254: 0x8054
row_255: 0x0585
