// ProsperityHDL Tile Data (256x16)
// Format: 16-bit hex values, one per row
// Total rows: 256
// Generated from SDT CIFAR-10 data

row_000: 0x0800
row_001: 0x0060
row_002: 0x040A
row_003: 0x0020
row_004: 0x2020
row_005: 0x2086
row_006: 0x0008
row_007: 0x1000
row_008: 0x8002
row_009: 0x0030
row_010: 0x0408
row_011: 0x0001
row_012: 0x4060
row_013: 0x0108
row_014: 0x0480
row_015: 0x0010
row_016: 0x0902
row_017: 0x4400
row_018: 0x8200
row_019: 0x0010
row_020: 0x0050
row_021: 0x0009
row_022: 0x2000
row_023: 0x0109
row_024: 0x4009
row_025: 0x0003
row_026: 0x0050
row_027: 0x002C
row_028: 0x8200
row_029: 0x0004
row_030: 0x0120
row_031: 0x4402
row_032: 0x00C0
row_033: 0x0440
row_034: 0x0C0A
row_035: 0x0028
row_036: 0x2020
row_037: 0x4284
row_038: 0x3108
row_039: 0x5000
row_040: 0x9402
row_041: 0x0C89
row_042: 0x0420
row_043: 0x8820
row_044: 0x0041
row_045: 0x0108
row_046: 0x0880
row_047: 0x0830
row_048: 0x0880
row_049: 0x0400
row_050: 0x0008
row_051: 0x0202
row_052: 0x0040
row_053: 0x0099
row_054: 0x0100
row_055: 0x0108
row_056: 0x4000
row_057: 0x0085
row_058: 0x0480
row_059: 0x80E8
row_060: 0x8000
row_061: 0x0100
row_062: 0x8020
row_063: 0x8082
row_064: 0x0820
row_065: 0x0048
row_066: 0xC02C
row_067: 0x0028
row_068: 0x0800
row_069: 0x0006
row_070: 0x0118
row_071: 0x1004
row_072: 0x8400
row_073: 0x0890
row_074: 0x0620
row_075: 0x008D
row_076: 0x0020
row_077: 0x1008
row_078: 0x050B
row_079: 0x0A02
row_080: 0x0012
row_081: 0x0600
row_082: 0x8880
row_083: 0x6005
row_084: 0x8050
row_085: 0x002D
row_086: 0x2008
row_087: 0x0020
row_088: 0x4000
row_089: 0x0101
row_090: 0x0108
row_091: 0x00A1
row_092: 0x0210
row_093: 0x0004
row_094: 0x0800
row_095: 0x4400
row_096: 0x8A28
row_097: 0x824A
row_098: 0x052E
row_099: 0x00A1
row_100: 0x0878
row_101: 0x0106
row_102: 0x1160
row_103: 0x4142
row_104: 0x1615
row_105: 0x40D4
row_106: 0x0428
row_107: 0x40A1
row_108: 0xC08A
row_109: 0x120D
row_110: 0x8521
row_111: 0x0212
row_112: 0x4C13
row_113: 0x4201
row_114: 0x8480
row_115: 0x6014
row_116: 0x0059
row_117: 0x8048
row_118: 0x1202
row_119: 0x8121
row_120: 0x6089
row_121: 0xB002
row_122: 0x0548
row_123: 0x248D
row_124: 0x20A5
row_125: 0x0084
row_126: 0x2104
row_127: 0x0188
row_128: 0x8948
row_129: 0x0848
row_130: 0x0566
row_131: 0x0021
row_132: 0x0910
row_133: 0x2004
row_134: 0x0060
row_135: 0x4800
row_136: 0x1611
row_137: 0x0841
row_138: 0x2030
row_139: 0x0801
row_140: 0x0082
row_141: 0x0208
row_142: 0x0529
row_143: 0x4800
row_144: 0x4882
row_145: 0x4000
row_146: 0x0400
row_147: 0x6018
row_148: 0x0008
row_149: 0x0100
row_150: 0x0240
row_151: 0x80A8
row_152: 0x6009
row_153: 0xB900
row_154: 0x00D0
row_155: 0x140C
row_156: 0x6240
row_157: 0x0021
row_158: 0x8104
row_159: 0x0520
row_160: 0x0928
row_161: 0x206A
row_162: 0x8726
row_163: 0x0080
row_164: 0x8808
row_165: 0x6100
row_166: 0x1260
row_167: 0x4804
row_168: 0x9615
row_169: 0x0045
row_170: 0x6428
row_171: 0x4B31
row_172: 0x0243
row_173: 0x4148
row_174: 0x0FC7
row_175: 0x020A
row_176: 0x4504
row_177: 0x4188
row_178: 0x0E28
row_179: 0x0118
row_180: 0x82C4
row_181: 0x8080
row_182: 0x116B
row_183: 0x8028
row_184: 0x600D
row_185: 0x1000
row_186: 0x019A
row_187: 0x20AD
row_188: 0xC324
row_189: 0x80A3
row_190: 0xA044
row_191: 0x4907
row_192: 0x192C
row_193: 0x2068
row_194: 0x0702
row_195: 0x0092
row_196: 0xA870
row_197: 0x4022
row_198: 0x12A0
row_199: 0x5806
row_200: 0x9795
row_201: 0x100D
row_202: 0x0428
row_203: 0x43B1
row_204: 0xCA43
row_205: 0xC948
row_206: 0x0FE3
row_207: 0x8228
row_208: 0x4900
row_209: 0x4088
row_210: 0x0120
row_211: 0x4100
row_212: 0x204C
row_213: 0x9C00
row_214: 0x114C
row_215: 0x8528
row_216: 0x1021
row_217: 0x9042
row_218: 0x059C
row_219: 0x002D
row_220: 0xC215
row_221: 0xC223
row_222: 0x2044
row_223: 0x0905
row_224: 0xB800
row_225: 0x2078
row_226: 0x164A
row_227: 0x08B0
row_228: 0xA8B0
row_229: 0x0002
row_230: 0x1020
row_231: 0x1800
row_232: 0x1A17
row_233: 0x400D
row_234: 0x84A8
row_235: 0x6BA1
row_236: 0x0041
row_237: 0xC14C
row_238: 0x05E0
row_239: 0xC206
row_240: 0x4100
row_241: 0x4008
row_242: 0x1420
row_243: 0x6110
row_244: 0x2218
row_245: 0x1C09
row_246: 0x110E
row_247: 0x8628
row_248: 0x5008
row_249: 0xB400
row_250: 0x01CC
row_251: 0x20ED
row_252: 0xC245
row_253: 0x8103
row_254: 0x0854
row_255: 0x0185
