// ProsperityHDL Tile Data (256x16)
// Format: 16-bit hex values, one per row
// Total rows: 256
// Generated from SDT CIFAR-10 data

row_000: 0x0001
row_001: 0x2000
row_002: 0x0202
row_003: 0x0480
row_004: 0x8000
row_005: 0x0108
row_006: 0x0004
row_007: 0x0002
row_008: 0x1000
row_009: 0x000A
row_010: 0x2000
row_011: 0x0080
row_012: 0x0006
row_013: 0x4002
row_014: 0x0044
row_015: 0x8800
row_016: 0x8000
row_017: 0x1000
row_018: 0x1200
row_019: 0x0100
row_020: 0x0800
row_021: 0x0900
row_022: 0x0020
row_023: 0x0C00
row_024: 0x8000
row_025: 0x2001
row_026: 0x0020
row_027: 0x0088
row_028: 0x2200
row_029: 0x0002
row_030: 0x8100
row_031: 0x2000
row_032: 0x0040
row_033: 0x0400
row_034: 0x0001
row_035: 0x0280
row_036: 0x0006
row_037: 0x0C00
row_038: 0x0084
row_039: 0x0202
row_040: 0x4080
row_041: 0x8080
row_042: 0x0140
row_043: 0x0010
row_044: 0x0200
row_045: 0x0002
row_046: 0x0020
row_047: 0x0060
row_048: 0x0100
row_049: 0x8000
row_050: 0x0004
row_051: 0x0400
row_052: 0x0400
row_053: 0x0002
row_054: 0x0002
row_055: 0x0400
row_056: 0x0081
row_057: 0x0004
row_058: 0x0440
row_059: 0x0008
row_060: 0x0402
row_061: 0x8002
row_062: 0x2000
row_063: 0x0404
row_064: 0x8000
row_065: 0x0010
row_066: 0x0040
row_067: 0x4484
row_068: 0x8008
row_069: 0x0308
row_070: 0x0006
row_071: 0x0102
row_072: 0x1010
row_073: 0x00A0
row_074: 0x0800
row_075: 0x2480
row_076: 0x0027
row_077: 0x4202
row_078: 0x0800
row_079: 0x8840
row_080: 0x8002
row_081: 0x0040
row_082: 0x3200
row_083: 0x0188
row_084: 0x0802
row_085: 0x1900
row_086: 0x4020
row_087: 0x0C80
row_088: 0x8200
row_089: 0x8000
row_090: 0x0020
row_091: 0x4000
row_092: 0x0800
row_093: 0x0800
row_094: 0x8144
row_095: 0x2003
row_096: 0x4050
row_097: 0x0800
row_098: 0x0085
row_099: 0x0004
row_100: 0x4006
row_101: 0x1E00
row_102: 0x4094
row_103: 0x0206
row_104: 0x4090
row_105: 0x8480
row_106: 0x1000
row_107: 0x0012
row_108: 0x1200
row_109: 0x0802
row_110: 0x8020
row_111: 0x5060
row_112: 0x0504
row_113: 0x1000
row_114: 0x0014
row_115: 0x0080
row_116: 0x2402
row_117: 0x2003
row_118: 0x0406
row_119: 0x2400
row_120: 0x00C5
row_121: 0x4400
row_122: 0x0C50
row_123: 0x0020
row_124: 0x4402
row_125: 0x0400
row_126: 0x2008
row_127: 0xC404
row_128: 0x0008
row_129: 0x8000
row_130: 0x4200
row_131: 0x0900
row_132: 0x00C0
row_133: 0x0108
row_134: 0x0800
row_135: 0x0100
row_136: 0x4080
row_137: 0x0080
row_138: 0xA100
row_139: 0x4040
row_140: 0x1028
row_141: 0x0001
row_142: 0x0301
row_143: 0x0020
row_144: 0x0004
row_145: 0x1020
row_146: 0x1200
row_147: 0x0100
row_148: 0x0001
row_149: 0x0900
row_150: 0x0004
row_151: 0x1001
row_152: 0x5100
row_153: 0x0800
row_154: 0x5000
row_155: 0x0C40
row_156: 0x4100
row_157: 0x2040
row_158: 0x8000
row_159: 0x0821
row_160: 0x0068
row_161: 0x4050
row_162: 0x0001
row_163: 0xA200
row_164: 0x1021
row_165: 0x4108
row_166: 0x0020
row_167: 0x0042
row_168: 0xC800
row_169: 0x0181
row_170: 0x0140
row_171: 0x0002
row_172: 0x0200
row_173: 0x0002
row_174: 0x0800
row_175: 0x1000
row_176: 0x0800
row_177: 0x8000
row_178: 0x1400
row_179: 0x0001
row_180: 0x0010
row_181: 0x8000
row_182: 0x0400
row_183: 0x0001
row_184: 0x1000
row_185: 0x0220
row_186: 0x4500
row_187: 0x0040
row_188: 0x0010
row_189: 0x4010
row_190: 0x1000
row_191: 0x4000
row_192: 0x8000
row_193: 0x0010
row_194: 0x1000
row_195: 0x5000
row_196: 0x1200
row_197: 0x4080
row_198: 0x0080
row_199: 0x0406
row_200: 0x8400
row_201: 0x0030
row_202: 0x2108
row_203: 0x1080
row_204: 0x1880
row_205: 0x0002
row_206: 0x2800
row_207: 0x0202
row_208: 0x4800
row_209: 0x0040
row_210: 0x0040
row_211: 0x0001
row_212: 0x0508
row_213: 0x0070
row_214: 0x080C
row_215: 0x0001
row_216: 0x2000
row_217: 0xA040
row_218: 0x0020
row_219: 0x4000
row_220: 0x0800
row_221: 0x0800
row_222: 0x0001
row_223: 0x0840
row_224: 0x0200
row_225: 0x0800
row_226: 0x5001
row_227: 0x0004
row_228: 0x0100
row_229: 0x4000
row_230: 0x0081
row_231: 0x0104
row_232: 0x4004
row_233: 0x1060
row_234: 0x1220
row_235: 0x40A0
row_236: 0x0040
row_237: 0x2000
row_238: 0x0888
row_239: 0x0220
row_240: 0x0104
row_241: 0x1000
row_242: 0x6080
row_243: 0x0080
row_244: 0x0500
row_245: 0x0100
row_246: 0x0300
row_247: 0x0022
row_248: 0x0040
row_249: 0x4000
row_250: 0xC000
row_251: 0x0220
row_252: 0x3000
row_253: 0x0820
row_254: 0x0040
row_255: 0x0001
