// ProsperityHDL Tile Data (256x16)
// Format: 16-bit hex values, one per row
// Total rows: 256
// Generated from SDT CIFAR-10 data

row_000: 0xFFFF
row_001: 0xFFFF
row_002: 0xFFFF
row_003: 0xFFFF
row_004: 0xFFFF
row_005: 0xFFFF
row_006: 0xFFFF
row_007: 0xFFFF
row_008: 0xFFFF
row_009: 0xFFFF
row_010: 0xFFFF
row_011: 0xFFFF
row_012: 0xFFFF
row_013: 0xFFFF
row_014: 0xFFFF
row_015: 0xFFFF
row_016: 0xFFFF
row_017: 0xFFFF
row_018: 0xFFFF
row_019: 0xFFFF
row_020: 0xFFFF
row_021: 0xFFFF
row_022: 0xFFFF
row_023: 0xDFFF
row_024: 0xFFFF
row_025: 0xFFFF
row_026: 0xFFFF
row_027: 0xFFFF
row_028: 0xFFFF
row_029: 0xFFFF
row_030: 0xFFFF
row_031: 0xFFFF
row_032: 0x0001
row_033: 0x2000
row_034: 0x0202
row_035: 0x0480
row_036: 0x8000
row_037: 0x0004
row_038: 0x0002
row_039: 0x1000
row_040: 0x000A
row_041: 0x2000
row_042: 0x0080
row_043: 0x0006
row_044: 0x4002
row_045: 0x0044
row_046: 0x8800
row_047: 0x8000
row_048: 0x0800
row_049: 0x0020
row_050: 0x0C00
row_051: 0x8000
row_052: 0x2001
row_053: 0x0020
row_054: 0x0088
row_055: 0x2200
row_056: 0x0002
row_057: 0x2000
row_058: 0x0040
row_059: 0x0400
row_060: 0x0280
row_061: 0x0006
row_062: 0x0C00
row_063: 0x0084
row_064: 0xFFFF
row_065: 0xFFFF
row_066: 0xFFFF
row_067: 0xFFFF
row_068: 0xFFFF
row_069: 0xFFFF
row_070: 0xFFFF
row_071: 0xFFFF
row_072: 0xFFFF
row_073: 0xFFFF
row_074: 0xFFFF
row_075: 0xFFFF
row_076: 0xFFFF
row_077: 0xFFFF
row_078: 0xFFFF
row_079: 0xFFFF
row_080: 0xFFFF
row_081: 0xFFFF
row_082: 0xFFFF
row_083: 0xFFFF
row_084: 0xFFFF
row_085: 0xFFFF
row_086: 0xFFFF
row_087: 0xFFFF
row_088: 0xFFFF
row_089: 0xFFFF
row_090: 0xFFFF
row_091: 0xFFFF
row_092: 0xFFFF
row_093: 0xFFFF
row_094: 0xFFFF
row_095: 0xFFFF
row_096: 0x0041
row_097: 0x20C0
row_098: 0x0A02
row_099: 0x04A8
row_100: 0x8880
row_101: 0x0804
row_102: 0x0012
row_103: 0x1042
row_104: 0x040E
row_105: 0x2080
row_106: 0x0084
row_107: 0x2106
row_108: 0x4003
row_109: 0x1044
row_110: 0x8844
row_111: 0xC000
row_112: 0x0880
row_113: 0x0064
row_114: 0x4C04
row_115: 0x8008
row_116: 0x2101
row_117: 0x0022
row_118: 0x008A
row_119: 0x3204
row_120: 0x000A
row_121: 0x2001
row_122: 0x0240
row_123: 0x2400
row_124: 0x0282
row_125: 0x2006
row_126: 0x0C88
row_127: 0x0086
row_128: 0x1401
row_129: 0x9100
row_130: 0x0010
row_131: 0x2140
row_132: 0x8840
row_133: 0x2401
row_134: 0x0818
row_135: 0x0500
row_136: 0x1000
row_137: 0x0008
row_138: 0x9000
row_139: 0x0080
row_140: 0x8000
row_141: 0xC001
row_142: 0x0A02
row_143: 0x2040
row_144: 0x0040
row_145: 0x4018
row_146: 0x0008
row_147: 0x0002
row_148: 0x10A0
row_149: 0x1200
row_150: 0x2000
row_151: 0x010A
row_152: 0x4400
row_153: 0x2410
row_154: 0x000A
row_155: 0xC200
row_156: 0x0120
row_157: 0x0800
row_158: 0x8050
row_159: 0x0800
row_160: 0x8004
row_161: 0x4080
row_162: 0x0440
row_163: 0x0100
row_164: 0x3040
row_165: 0x0001
row_166: 0x2020
row_167: 0x3400
row_168: 0x0088
row_169: 0x8010
row_170: 0x1006
row_171: 0x0008
row_172: 0x0A04
row_173: 0x0200
row_174: 0x0109
row_175: 0x4C00
row_176: 0x1400
row_177: 0x0240
row_178: 0x0288
row_179: 0x2804
row_180: 0x0008
row_181: 0x5020
row_182: 0xA001
row_183: 0x0020
row_184: 0x1001
row_185: 0x1000
row_186: 0x0010
row_187: 0x8000
row_188: 0x1000
row_189: 0x0220
row_190: 0x4500
row_191: 0x0040
row_192: 0x4010
row_193: 0x1000
row_194: 0x4000
row_195: 0x5000
row_196: 0x1200
row_197: 0x4080
row_198: 0x0080
row_199: 0x0406
row_200: 0x8400
row_201: 0x2108
row_202: 0x1080
row_203: 0x1880
row_204: 0x0002
row_205: 0x0202
row_206: 0x4800
row_207: 0x0040
row_208: 0x0001
row_209: 0x0508
row_210: 0x0070
row_211: 0x080C
row_212: 0x0001
row_213: 0x2000
row_214: 0xA040
row_215: 0x0840
row_216: 0x0200
row_217: 0x5001
row_218: 0x4000
row_219: 0x0104
row_220: 0x4004
row_221: 0x1060
row_222: 0x40A0
row_223: 0x0888
row_224: 0x6080
row_225: 0x0500
row_226: 0x0100
row_227: 0x0300
row_228: 0x0022
row_229: 0xC000
row_230: 0x3000
row_231: 0x0040
row_232: 0x0300
row_233: 0x0401
row_234: 0x1080
row_235: 0x4000
row_236: 0x8001
row_237: 0x0020
row_238: 0x0206
row_239: 0x2001
row_240: 0x000C
row_241: 0x2000
row_242: 0x0300
row_243: 0x0024
row_244: 0x1000
row_245: 0x0020
row_246: 0x0020
row_247: 0x0008
row_248: 0x0401
row_249: 0x8000
row_250: 0xA000
row_251: 0x9400
row_252: 0x4240
row_253: 0x0800
row_254: 0x0400
row_255: 0x0814
