// ProsperityHDL Tile Data (256x16)
// Format: 16-bit hex values, one per row
// Total rows: 256
// Generated from SDT CIFAR-10 data

row_000: 0x1300
row_001: 0x0001
row_002: 0x01C4
row_003: 0xC800
row_004: 0x2004
row_005: 0x4400
row_006: 0x1000
row_007: 0x2020
row_008: 0x2004
row_009: 0x0048
row_010: 0x6040
row_011: 0x2800
row_012: 0x3530
row_013: 0x0218
row_014: 0x8001
row_015: 0xC000
row_016: 0x1300
row_017: 0x2000
row_018: 0x01C4
row_019: 0xC800
row_020: 0x2004
row_021: 0x4400
row_022: 0x1000
row_023: 0x2020
row_024: 0x2004
row_025: 0x0048
row_026: 0x6040
row_027: 0x2800
row_028: 0x3530
row_029: 0x0218
row_030: 0x8001
row_031: 0xC000
row_032: 0x1300
row_033: 0x0202
row_034: 0x01C4
row_035: 0xC800
row_036: 0x2004
row_037: 0x4400
row_038: 0x1000
row_039: 0x2020
row_040: 0x2004
row_041: 0x0048
row_042: 0x6040
row_043: 0x2800
row_044: 0x3530
row_045: 0x0218
row_046: 0x8001
row_047: 0xC000
row_048: 0x1300
row_049: 0x0480
row_050: 0x01C4
row_051: 0xC800
row_052: 0x2004
row_053: 0x4400
row_054: 0x1000
row_055: 0x2020
row_056: 0x2004
row_057: 0x0048
row_058: 0x6040
row_059: 0x2800
row_060: 0x3530
row_061: 0x0218
row_062: 0x8001
row_063: 0xC000
row_064: 0x1300
row_065: 0x8001
row_066: 0x01C4
row_067: 0xC800
row_068: 0x2004
row_069: 0x4400
row_070: 0x1000
row_071: 0x2020
row_072: 0x2004
row_073: 0x0048
row_074: 0x6040
row_075: 0x2800
row_076: 0x3530
row_077: 0x0218
row_078: 0x8001
row_079: 0xC000
row_080: 0x1300
row_081: 0x2004
row_082: 0x01C4
row_083: 0xC800
row_084: 0x2004
row_085: 0x4400
row_086: 0x1000
row_087: 0x2020
row_088: 0x2004
row_089: 0x0048
row_090: 0x6040
row_091: 0x2800
row_092: 0x3530
row_093: 0x0218
row_094: 0x8001
row_095: 0xC000
row_096: 0x1300
row_097: 0x8202
row_098: 0x01C4
row_099: 0xC800
row_100: 0x2004
row_101: 0x4400
row_102: 0x1000
row_103: 0x2020
row_104: 0x2004
row_105: 0x0048
row_106: 0x6040
row_107: 0x2800
row_108: 0x3530
row_109: 0x0218
row_110: 0x8001
row_111: 0xC000
row_112: 0x1300
row_113: 0x048A
row_114: 0x01C4
row_115: 0xC800
row_116: 0x2004
row_117: 0x4400
row_118: 0x1000
row_119: 0x2020
row_120: 0x2004
row_121: 0x0048
row_122: 0x6040
row_123: 0x2800
row_124: 0x3530
row_125: 0x0218
row_126: 0x8001
row_127: 0xC000
row_128: 0x0202
row_129: 0xA008
row_130: 0x01C0
row_131: 0xC000
row_132: 0x040A
row_133: 0x4000
row_134: 0x1000
row_135: 0x2000
row_136: 0x2004
row_137: 0x0040
row_138: 0x6040
row_139: 0x2800
row_140: 0x3530
row_141: 0x0218
row_142: 0x8001
row_143: 0xC000
row_144: 0x0202
row_145: 0x0022
row_146: 0x01C0
row_147: 0xC000
row_148: 0x5001
row_149: 0x4000
row_150: 0x1000
row_151: 0x2000
row_152: 0x2004
row_153: 0x0040
row_154: 0x6040
row_155: 0x2800
row_156: 0x3530
row_157: 0x0218
row_158: 0x8001
row_159: 0xC000
row_160: 0x1300
row_161: 0x0412
row_162: 0x01C4
row_163: 0xC800
row_164: 0x2004
row_165: 0x4400
row_166: 0x1000
row_167: 0x2020
row_168: 0x2004
row_169: 0x0048
row_170: 0x6040
row_171: 0x2800
row_172: 0x3530
row_173: 0x0218
row_174: 0x8001
row_175: 0xC000
row_176: 0x1300
row_177: 0x7000
row_178: 0x01C4
row_179: 0xC800
row_180: 0x2004
row_181: 0x4400
row_182: 0x1000
row_183: 0x2020
row_184: 0x2004
row_185: 0x0048
row_186: 0x6040
row_187: 0x2800
row_188: 0x3530
row_189: 0x0218
row_190: 0x8001
row_191: 0xC000
row_192: 0x1300
row_193: 0x0100
row_194: 0x01C4
row_195: 0xC800
row_196: 0x2004
row_197: 0x4400
row_198: 0x1000
row_199: 0x2020
row_200: 0x2004
row_201: 0x0048
row_202: 0x6040
row_203: 0x2800
row_204: 0x3530
row_205: 0x0218
row_206: 0x8001
row_207: 0xC000
row_208: 0x1300
row_209: 0x1400
row_210: 0x01C4
row_211: 0xC800
row_212: 0x2004
row_213: 0x4400
row_214: 0x1000
row_215: 0x2020
row_216: 0x2004
row_217: 0x0048
row_218: 0x6040
row_219: 0x2800
row_220: 0x3530
row_221: 0x0218
row_222: 0x8001
row_223: 0xC000
row_224: 0x1300
row_225: 0x4840
row_226: 0x01C4
row_227: 0xC800
row_228: 0x2004
row_229: 0x4400
row_230: 0x1000
row_231: 0x2020
row_232: 0x2004
row_233: 0x0048
row_234: 0x6040
row_235: 0x2800
row_236: 0x3530
row_237: 0x0218
row_238: 0x8001
row_239: 0xC000
row_240: 0x1300
row_241: 0x0430
row_242: 0x01C4
row_243: 0xC800
row_244: 0x2004
row_245: 0x4400
row_246: 0x1000
row_247: 0x2020
row_248: 0x2004
row_249: 0x0048
row_250: 0x6040
row_251: 0x2800
row_252: 0x3530
row_253: 0x0218
row_254: 0x8001
row_255: 0xC000
