// ProsperityHDL Tile Data (256x16)
// Format: 16-bit hex values, one per row
// Total rows: 256
// Generated from SDT CIFAR-10 data

row_000: 0x4000
row_001: 0x0001
row_002: 0x0100
row_003: 0x0004
row_004: 0x2000
row_005: 0x0002
row_006: 0x1004
row_007: 0xC020
row_008: 0x0202
row_009: 0xA048
row_010: 0x0040
row_011: 0x0010
row_012: 0x6000
row_013: 0x2506
row_014: 0x8204
row_015: 0x0020
row_016: 0x4000
row_017: 0x2000
row_018: 0x4011
row_019: 0x8000
row_020: 0x0008
row_021: 0x0018
row_022: 0x1000
row_023: 0x8840
row_024: 0x0800
row_025: 0x0200
row_026: 0x0890
row_027: 0x0800
row_028: 0x6084
row_029: 0x0C32
row_030: 0x2010
row_031: 0x0080
row_032: 0x0060
row_033: 0x0010
row_034: 0x1000
row_035: 0xC020
row_036: 0x2000
row_037: 0x0480
row_038: 0x010A
row_039: 0x0122
row_040: 0x0200
row_041: 0x0028
row_042: 0x8040
row_043: 0x0112
row_044: 0x2480
row_045: 0x8000
row_046: 0x0004
row_047: 0x0004
row_048: 0x0002
row_049: 0x0020
row_050: 0x0200
row_051: 0x8120
row_052: 0x0004
row_053: 0x501A
row_054: 0x0020
row_055: 0x9200
row_056: 0x0822
row_057: 0x0400
row_058: 0x0404
row_059: 0x2300
row_060: 0x0100
row_061: 0x0402
row_062: 0x1000
row_063: 0x000A
row_064: 0x4000
row_065: 0x2001
row_066: 0x0100
row_067: 0x0004
row_068: 0x2080
row_069: 0x0002
row_070: 0x1004
row_071: 0xC020
row_072: 0x020E
row_073: 0xA048
row_074: 0x0040
row_075: 0x0010
row_076: 0x6000
row_077: 0x2506
row_078: 0x8204
row_079: 0x0020
row_080: 0x4000
row_081: 0x2000
row_082: 0x4011
row_083: 0x8000
row_084: 0x0008
row_085: 0x0018
row_086: 0x1000
row_087: 0x8840
row_088: 0x0800
row_089: 0x0200
row_090: 0x0890
row_091: 0x0800
row_092: 0x6084
row_093: 0x0C32
row_094: 0x2010
row_095: 0x0080
row_096: 0x0060
row_097: 0x0010
row_098: 0x1000
row_099: 0xC020
row_100: 0x2000
row_101: 0x4482
row_102: 0x010A
row_103: 0x0122
row_104: 0x0200
row_105: 0x0028
row_106: 0x8040
row_107: 0x0112
row_108: 0x2480
row_109: 0x8044
row_110: 0x0004
row_111: 0x8084
row_112: 0x0102
row_113: 0x0020
row_114: 0x0200
row_115: 0x8120
row_116: 0x0004
row_117: 0x501A
row_118: 0x0020
row_119: 0x9200
row_120: 0x0822
row_121: 0x0400
row_122: 0x0404
row_123: 0x2300
row_124: 0x0100
row_125: 0x0402
row_126: 0x3200
row_127: 0x008A
row_128: 0x4000
row_129: 0x0C00
row_130: 0x0100
row_131: 0x0004
row_132: 0x8000
row_133: 0x0002
row_134: 0x1004
row_135: 0xC020
row_136: 0x4001
row_137: 0xA048
row_138: 0x0040
row_139: 0x0010
row_140: 0x6000
row_141: 0x2506
row_142: 0x8204
row_143: 0x0020
row_144: 0x4000
row_145: 0x2000
row_146: 0x4011
row_147: 0x8000
row_148: 0x0008
row_149: 0x0018
row_150: 0x1000
row_151: 0x8840
row_152: 0x0800
row_153: 0x0200
row_154: 0x0890
row_155: 0x0800
row_156: 0x6084
row_157: 0x0C32
row_158: 0x2010
row_159: 0x0080
row_160: 0x0060
row_161: 0x0010
row_162: 0x1000
row_163: 0xC020
row_164: 0x2000
row_165: 0x0020
row_166: 0x010A
row_167: 0x0122
row_168: 0x0200
row_169: 0x0028
row_170: 0x8040
row_171: 0x0112
row_172: 0x2480
row_173: 0x0118
row_174: 0x0004
row_175: 0x2240
row_176: 0x0002
row_177: 0x0020
row_178: 0x0200
row_179: 0x8120
row_180: 0x0004
row_181: 0x501A
row_182: 0x0020
row_183: 0x9200
row_184: 0x0822
row_185: 0x0400
row_186: 0x0404
row_187: 0x2300
row_188: 0x0100
row_189: 0x0402
row_190: 0x2000
row_191: 0x0068
row_192: 0x4000
row_193: 0x8404
row_194: 0x0100
row_195: 0x0004
row_196: 0x0280
row_197: 0x0002
row_198: 0x1004
row_199: 0xC020
row_200: 0x0006
row_201: 0xA048
row_202: 0x0040
row_203: 0x0010
row_204: 0x6000
row_205: 0x2506
row_206: 0x8204
row_207: 0x0020
row_208: 0x4000
row_209: 0x2000
row_210: 0x4011
row_211: 0x8000
row_212: 0x0008
row_213: 0x0018
row_214: 0x1000
row_215: 0x8840
row_216: 0x0800
row_217: 0x0200
row_218: 0x0890
row_219: 0x0800
row_220: 0x6084
row_221: 0x0C32
row_222: 0x2010
row_223: 0x0080
row_224: 0x0060
row_225: 0x0010
row_226: 0x1000
row_227: 0xC020
row_228: 0x2000
row_229: 0x0C00
row_230: 0x010A
row_231: 0x0122
row_232: 0x0200
row_233: 0x0028
row_234: 0x8040
row_235: 0x0112
row_236: 0x2480
row_237: 0x1008
row_238: 0x0004
row_239: 0x0600
row_240: 0x00A0
row_241: 0x0020
row_242: 0x0200
row_243: 0x8120
row_244: 0x0004
row_245: 0x501A
row_246: 0x0020
row_247: 0x9200
row_248: 0x0822
row_249: 0x0400
row_250: 0x0404
row_251: 0x2300
row_252: 0x0100
row_253: 0x0402
row_254: 0x0081
row_255: 0x0100
