// ProsperityHDL Tile Data (256x16)
// Format: 16-bit hex values, one per row
// Total rows: 256
// Generated from SDT CIFAR-10 data

row_000: 0x0001
row_001: 0x0080
row_002: 0x4100
row_003: 0x1000
row_004: 0x2000
row_005: 0x4001
row_006: 0x4000
row_007: 0x0280
row_008: 0x0400
row_009: 0x1002
row_010: 0x0202
row_011: 0x0480
row_012: 0x8000
row_013: 0x0020
row_014: 0x0004
row_015: 0x4000
row_016: 0x0002
row_017: 0x1000
row_018: 0x000A
row_019: 0x2000
row_020: 0x0003
row_021: 0x0080
row_022: 0x0006
row_023: 0x4002
row_024: 0x0004
row_025: 0x0044
row_026: 0x8800
row_027: 0x8000
row_028: 0x0800
row_029: 0x0020
row_030: 0x2042
row_031: 0x0C00
row_032: 0x8000
row_033: 0x0080
row_034: 0x4100
row_035: 0x1000
row_036: 0x2001
row_037: 0x4000
row_038: 0x4000
row_039: 0x0080
row_040: 0x0400
row_041: 0x1002
row_042: 0x0020
row_043: 0x0002
row_044: 0x0088
row_045: 0x2200
row_046: 0x0002
row_047: 0x4000
row_048: 0x2000
row_049: 0x0040
row_050: 0x0400
row_051: 0x0280
row_052: 0x0003
row_053: 0x0006
row_054: 0x0C00
row_055: 0x0084
row_056: 0x0004
row_057: 0x2000
row_058: 0x0080
row_059: 0x4000
row_060: 0x0202
row_061: 0x4080
row_062: 0x2042
row_063: 0x1000
row_064: 0x8101
row_065: 0x0080
row_066: 0x0100
row_067: 0x1000
row_068: 0x2800
row_069: 0x4000
row_070: 0x4000
row_071: 0x00A0
row_072: 0x0420
row_073: 0x1002
row_074: 0x0020
row_075: 0x0080
row_076: 0x8220
row_077: 0x0520
row_078: 0x0020
row_079: 0x4000
row_080: 0x0028
row_081: 0x7000
row_082: 0x008A
row_083: 0x2108
row_084: 0x0003
row_085: 0x00C2
row_086: 0x040E
row_087: 0x4102
row_088: 0x0002
row_089: 0x2000
row_090: 0x0080
row_091: 0x8004
row_092: 0x2840
row_093: 0x8020
row_094: 0x2040
row_095: 0x1C00
row_096: 0x8044
row_097: 0x00C0
row_098: 0x4100
row_099: 0x1000
row_100: 0x6001
row_101: 0x4000
row_102: 0x4080
row_103: 0x0020
row_104: 0x0400
row_105: 0x0002
row_106: 0x0064
row_107: 0x0002
row_108: 0x408C
row_109: 0x2240
row_110: 0x0020
row_111: 0x0020
row_112: 0x0008
row_113: 0x1140
row_114: 0x0402
row_115: 0x0282
row_116: 0x0002
row_117: 0x2016
row_118: 0x0C04
row_119: 0x0085
row_120: 0x0002
row_121: 0xE000
row_122: 0x0080
row_123: 0x5000
row_124: 0x0206
row_125: 0x5080
row_126: 0x2042
row_127: 0x1088
row_128: 0x4042
row_129: 0x00C0
row_130: 0x4100
row_131: 0x1000
row_132: 0x1401
row_133: 0x4000
row_134: 0x9100
row_135: 0x00A0
row_136: 0x0400
row_137: 0x1002
row_138: 0x0020
row_139: 0x0080
row_140: 0x0010
row_141: 0x2140
row_142: 0x0020
row_143: 0x0020
row_144: 0x0008
row_145: 0x8840
row_146: 0x2401
row_147: 0x0818
row_148: 0x0003
row_149: 0x0500
row_150: 0x1000
row_151: 0x0008
row_152: 0x0006
row_153: 0x9000
row_154: 0x0080
row_155: 0x0080
row_156: 0x8000
row_157: 0xC001
row_158: 0x2042
row_159: 0x0A02
row_160: 0x2040
row_161: 0x00C0
row_162: 0x0100
row_163: 0x1000
row_164: 0x0040
row_165: 0x4000
row_166: 0x4018
row_167: 0x00A0
row_168: 0x0400
row_169: 0x1002
row_170: 0x0020
row_171: 0x0002
row_172: 0x0008
row_173: 0x0008
row_174: 0x0020
row_175: 0x4020
row_176: 0x0028
row_177: 0x0002
row_178: 0x10A0
row_179: 0x1200
row_180: 0x0003
row_181: 0x2000
row_182: 0x010A
row_183: 0x4400
row_184: 0x0004
row_185: 0x2000
row_186: 0x0080
row_187: 0x2410
row_188: 0x2010
row_189: 0x000A
row_190: 0x2042
row_191: 0xC200
row_192: 0x0120
row_193: 0x0080
row_194: 0x0100
row_195: 0x1000
row_196: 0x0800
row_197: 0x8050
row_198: 0x0800
row_199: 0x00A0
row_200: 0x0404
row_201: 0x1002
row_202: 0x0020
row_203: 0x8004
row_204: 0x0008
row_205: 0x4080
row_206: 0x0020
row_207: 0x4020
row_208: 0x0440
row_209: 0x0100
row_210: 0x3040
row_211: 0x0001
row_212: 0x0002
row_213: 0x0200
row_214: 0x2020
row_215: 0x3400
row_216: 0x0088
row_217: 0x8010
row_218: 0x0080
row_219: 0x1006
row_220: 0x0200
row_221: 0x0008
row_222: 0x2042
row_223: 0x0A04
row_224: 0x0200
row_225: 0x00C0
row_226: 0x4100
row_227: 0x1000
row_228: 0x0109
row_229: 0x4C00
row_230: 0x1400
row_231: 0x0020
row_232: 0x0404
row_233: 0x1002
row_234: 0x0240
row_235: 0x0002
row_236: 0x0288
row_237: 0x0020
row_238: 0x0020
row_239: 0x0020
row_240: 0x2804
row_241: 0x0008
row_242: 0x5020
row_243: 0xA001
row_244: 0x0020
row_245: 0x1001
row_246: 0x1000
row_247: 0x0010
row_248: 0x0004
row_249: 0x8000
row_250: 0x0080
row_251: 0x1000
row_252: 0x0220
row_253: 0x4500
row_254: 0x2042
row_255: 0x0040
