// ProsperityHDL Tile Data (256x16)
// Format: 16-bit hex values, one per row
// Total rows: 256
// Generated from SDT CIFAR-10 data

row_000: 0x0200
row_001: 0x1000
row_002: 0x0040
row_003: 0xC008
row_004: 0x4000
row_005: 0x0100
row_006: 0x0020
row_007: 0x2200
row_008: 0x8010
row_009: 0x0001
row_010: 0x0080
row_011: 0x2000
row_012: 0x1080
row_013: 0x0802
row_014: 0x1080
row_015: 0x0208
row_016: 0x0202
row_017: 0x0480
row_018: 0x0820
row_019: 0x1000
row_020: 0x8000
row_021: 0x0004
row_022: 0x1100
row_023: 0x0002
row_024: 0x1000
row_025: 0x000A
row_026: 0x0002
row_027: 0x2000
row_028: 0x0080
row_029: 0x0006
row_030: 0x4000
row_031: 0x8001
row_032: 0x0100
row_033: 0x4002
row_034: 0x0020
row_035: 0x0004
row_036: 0x0044
row_037: 0x8800
row_038: 0x8000
row_039: 0x000A
row_040: 0x1000
row_041: 0x0044
row_042: 0x0800
row_043: 0x0020
row_044: 0x0C00
row_045: 0x8000
row_046: 0x8000
row_047: 0x2001
row_048: 0x0020
row_049: 0x0410
row_050: 0x0088
row_051: 0x4008
row_052: 0x2200
row_053: 0x2002
row_054: 0x8000
row_055: 0x0080
row_056: 0x0002
row_057: 0x2000
row_058: 0x0040
row_059: 0x0400
row_060: 0x0280
row_061: 0x4000
row_062: 0x0006
row_063: 0x0C00
row_064: 0x0224
row_065: 0x1800
row_066: 0x8140
row_067: 0xE108
row_068: 0x4800
row_069: 0x0010
row_070: 0x8002
row_071: 0x0400
row_072: 0x8450
row_073: 0x0501
row_074: 0x0202
row_075: 0x0020
row_076: 0x0001
row_077: 0x0942
row_078: 0x1880
row_079: 0x8820
row_080: 0x0080
row_081: 0x0020
row_082: 0x0828
row_083: 0x0200
row_084: 0x8042
row_085: 0x0002
row_086: 0x0600
row_087: 0x1006
row_088: 0x0200
row_089: 0x0004
row_090: 0x0103
row_091: 0x8000
row_092: 0x0084
row_093: 0x2106
row_094: 0x4000
row_095: 0x0300
row_096: 0x8000
row_097: 0x0020
row_098: 0x8020
row_099: 0x8000
row_100: 0x0201
row_101: 0x4000
row_102: 0x8020
row_103: 0x010A
row_104: 0x0040
row_105: 0x0080
row_106: 0x0100
row_107: 0x1020
row_108: 0x8800
row_109: 0x3000
row_110: 0x0008
row_111: 0x2800
row_112: 0x0005
row_113: 0x0710
row_114: 0x00CC
row_115: 0x0188
row_116: 0x0080
row_117: 0x0042
row_118: 0xC040
row_119: 0x00C8
row_120: 0x0020
row_121: 0x8290
row_122: 0x0140
row_123: 0x0402
row_124: 0x4001
row_125: 0x4000
row_126: 0x8400
row_127: 0x0040
row_128: 0x0200
row_129: 0x1000
row_130: 0x0020
row_131: 0xC008
row_132: 0x4000
row_133: 0x2010
row_134: 0x0020
row_135: 0x2200
row_136: 0x0002
row_137: 0x0800
row_138: 0x0080
row_139: 0x0050
row_140: 0x0080
row_141: 0x0802
row_142: 0x1000
row_143: 0x0208
row_144: 0x0144
row_145: 0x0002
row_146: 0x0820
row_147: 0x1008
row_148: 0x08A0
row_149: 0x0088
row_150: 0x1100
row_151: 0x0A00
row_152: 0x0B00
row_153: 0x0010
row_154: 0x4002
row_155: 0x2140
row_156: 0x8840
row_157: 0x8000
row_158: 0x5000
row_159: 0x8000
row_160: 0x0100
row_161: 0x2401
row_162: 0x0024
row_163: 0x0004
row_164: 0x0818
row_165: 0x0400
row_166: 0x0500
row_167: 0x0008
row_168: 0x1000
row_169: 0x0044
row_170: 0x0040
row_171: 0x1000
row_172: 0x0008
row_173: 0x9000
row_174: 0x8000
row_175: 0x0080
row_176: 0x8000
row_177: 0x0410
row_178: 0xC001
row_179: 0x4008
row_180: 0x0A02
row_181: 0x2003
row_182: 0x8000
row_183: 0x0004
row_184: 0x2040
row_185: 0x0040
row_186: 0x4018
row_187: 0x0008
row_188: 0x0002
row_189: 0x4000
row_190: 0x10A0
row_191: 0x1200
row_192: 0x2000
row_193: 0x010A
row_194: 0x4400
row_195: 0x2410
row_196: 0x4000
row_197: 0x0110
row_198: 0x8002
row_199: 0x0400
row_200: 0x000A
row_201: 0xC200
row_202: 0x0202
row_203: 0x0020
row_204: 0x0001
row_205: 0x0120
row_206: 0x0800
row_207: 0x8820
row_208: 0x0080
row_209: 0x0001
row_210: 0x8050
row_211: 0x0200
row_212: 0x0800
row_213: 0x8000
row_214: 0x0400
row_215: 0x8004
row_216: 0x0208
row_217: 0x0004
row_218: 0x4080
row_219: 0x0400
row_220: 0x0440
row_221: 0x0008
row_222: 0x4000
row_223: 0x0100
row_224: 0x8000
row_225: 0x8020
row_226: 0x0100
row_227: 0x8000
row_228: 0x0201
row_229: 0x4800
row_230: 0x3040
row_231: 0x0080
row_232: 0x8040
row_233: 0x0080
row_234: 0x0180
row_235: 0x0001
row_236: 0x0880
row_237: 0x1001
row_238: 0x2020
row_239: 0x2800
row_240: 0x0205
row_241: 0x3400
row_242: 0x0002
row_243: 0x0188
row_244: 0x0080
row_245: 0x0002
row_246: 0x0088
row_247: 0x8000
row_248: 0x0220
row_249: 0x8080
row_250: 0x8010
row_251: 0x1006
row_252: 0x4001
row_253: 0x4000
row_254: 0x0008
row_255: 0x0040
