// ProsperityHDL Tile Data (256x16)
// Format: 16-bit hex values, one per row
// Total rows: 256
// Generated from SDT CIFAR-10 data

row_000: 0x0001
row_001: 0x0002
row_002: 0x2000
row_003: 0x0202
row_004: 0x000C
row_005: 0x0302
row_006: 0x4002
row_007: 0x0400
row_008: 0x0480
row_009: 0x0004
row_010: 0x0010
row_011: 0x0040
row_012: 0x8000
row_013: 0x0004
row_014: 0x8000
row_015: 0x0008
row_016: 0x0008
row_017: 0x0002
row_018: 0x0048
row_019: 0x0800
row_020: 0x0002
row_021: 0x4008
row_022: 0x1000
row_023: 0x0800
row_024: 0x9100
row_025: 0x2020
row_026: 0x000A
row_027: 0x0400
row_028: 0x2000
row_029: 0x4000
row_030: 0x0080
row_031: 0x0804
row_032: 0x0080
row_033: 0x1000
row_034: 0x0001
row_035: 0x0080
row_036: 0x0400
row_037: 0x0808
row_038: 0x0006
row_039: 0x0080
row_040: 0x0200
row_041: 0x8000
row_042: 0x0042
row_043: 0x2000
row_044: 0x0002
row_045: 0x4002
row_046: 0x0044
row_047: 0x1000
row_048: 0x8004
row_049: 0x8000
row_050: 0x4000
row_051: 0x8800
row_052: 0x0081
row_053: 0x8000
row_054: 0x0004
row_055: 0x0004
row_056: 0x0800
row_057: 0x0004
row_058: 0x0400
row_059: 0xA400
row_060: 0x0020
row_061: 0x0C00
row_062: 0x8000
row_063: 0x2001
row_064: 0x0041
row_065: 0x0013
row_066: 0x8000
row_067: 0x0342
row_068: 0x0001
row_069: 0x4306
row_070: 0x0002
row_071: 0x0480
row_072: 0x0802
row_073: 0x0010
row_074: 0x0038
row_075: 0x0060
row_076: 0x8010
row_077: 0x0124
row_078: 0x0001
row_079: 0x010A
row_080: 0x1018
row_081: 0x0202
row_082: 0x0248
row_083: 0x08A0
row_084: 0x0182
row_085: 0x2000
row_086: 0x8000
row_087: 0x4800
row_088: 0x4000
row_089: 0x4180
row_090: 0x1004
row_091: 0x0040
row_092: 0x0004
row_093: 0xC000
row_094: 0x08A0
row_095: 0x0020
row_096: 0x10A0
row_097: 0x1008
row_098: 0x0085
row_099: 0x0A00
row_100: 0x0002
row_101: 0x4008
row_102: 0x0400
row_103: 0x0020
row_104: 0x0800
row_105: 0x8802
row_106: 0x0243
row_107: 0x0080
row_108: 0x000A
row_109: 0x8000
row_110: 0x2144
row_111: 0x9000
row_112: 0x8804
row_113: 0x8044
row_114: 0x0010
row_115: 0x0100
row_116: 0x4081
row_117: 0x8080
row_118: 0x0008
row_119: 0x0800
row_120: 0x0824
row_121: 0x1800
row_122: 0x0400
row_123: 0x0020
row_124: 0x80A0
row_125: 0x0C48
row_126: 0x8080
row_127: 0x0020
row_128: 0x0002
row_129: 0x0002
row_130: 0x0020
row_131: 0x2010
row_132: 0x8004
row_133: 0x0312
row_134: 0x0002
row_135: 0x0400
row_136: 0x0800
row_137: 0x8100
row_138: 0x0050
row_139: 0x0144
row_140: 0x0010
row_141: 0x0002
row_142: 0x8001
row_143: 0x0008
row_144: 0x1008
row_145: 0x08A0
row_146: 0x0008
row_147: 0x0088
row_148: 0x0002
row_149: 0x4008
row_150: 0x0A00
row_151: 0x0800
row_152: 0x8100
row_153: 0x2020
row_154: 0x0201
row_155: 0x0200
row_156: 0xB000
row_157: 0x4000
row_158: 0x0080
row_159: 0x0304
row_160: 0x0002
row_161: 0x1000
row_162: 0x0020
row_163: 0x0080
row_164: 0x0400
row_165: 0x0808
row_166: 0x0400
row_167: 0x0B00
row_168: 0x0200
row_169: 0x0010
row_170: 0x0042
row_171: 0x0400
row_172: 0x0022
row_173: 0x2140
row_174: 0x8840
row_175: 0x1191
row_176: 0x80A4
row_177: 0x8400
row_178: 0x4001
row_179: 0x0088
row_180: 0x0004
row_181: 0x2401
row_182: 0x0818
row_183: 0x0004
row_184: 0x0500
row_185: 0x0004
row_186: 0x0400
row_187: 0xA480
row_188: 0x0400
row_189: 0x1000
row_190: 0x0101
row_191: 0x0008
row_192: 0x8000
row_193: 0x9000
row_194: 0x8004
row_195: 0x0080
row_196: 0x0008
row_197: 0x0800
row_198: 0x0002
row_199: 0x8000
row_200: 0x0002
row_201: 0x0100
row_202: 0x0060
row_203: 0x0001
row_204: 0x0020
row_205: 0x8000
row_206: 0x0001
row_207: 0xC001
row_208: 0x8000
row_209: 0x0A02
row_210: 0x2040
row_211: 0x800A
row_212: 0x0010
row_213: 0x2000
row_214: 0x8000
row_215: 0x0004
row_216: 0x0040
row_217: 0x4100
row_218: 0x9005
row_219: 0x4018
row_220: 0x1008
row_221: 0x0008
row_222: 0x0208
row_223: 0x0038
row_224: 0x0002
row_225: 0x1200
row_226: 0x10A0
row_227: 0x0300
row_228: 0x0102
row_229: 0x5000
row_230: 0x0400
row_231: 0x0030
row_232: 0x4C00
row_233: 0x0004
row_234: 0x0058
row_235: 0x0081
row_236: 0x1000
row_237: 0x8000
row_238: 0x1200
row_239: 0x0084
row_240: 0x2000
row_241: 0x010A
row_242: 0x0040
row_243: 0x2100
row_244: 0x4400
row_245: 0x2410
row_246: 0x0008
row_247: 0x0100
row_248: 0x0002
row_249: 0x8000
row_250: 0x0400
row_251: 0x0020
row_252: 0x1020
row_253: 0x000A
row_254: 0xC200
row_255: 0x0020
