// ProsperityHDL Tile Data (256x16)
// Format: 16-bit hex values, one per row
// Total rows: 256
// Generated from SDT CIFAR-10 data

row_000: 0x0001
row_001: 0x5980
row_002: 0x0700
row_003: 0x040C
row_004: 0x5000
row_005: 0x4080
row_006: 0x0403
row_007: 0x8814
row_008: 0x0200
row_009: 0x0340
row_010: 0x0020
row_011: 0x0040
row_012: 0x0202
row_013: 0x0100
row_014: 0x100C
row_015: 0x0861
row_016: 0x0090
row_017: 0x0E04
row_018: 0x0920
row_019: 0x4080
row_020: 0x0800
row_021: 0x0200
row_022: 0x08B0
row_023: 0x0004
row_024: 0x0900
row_025: 0x0004
row_026: 0x0800
row_027: 0x4200
row_028: 0x2000
row_029: 0x0202
row_030: 0x0184
row_031: 0x0012
row_032: 0x0900
row_033: 0x0180
row_034: 0x0700
row_035: 0x0604
row_036: 0x5804
row_037: 0x0080
row_038: 0x0403
row_039: 0x8800
row_040: 0x4200
row_041: 0x0360
row_042: 0x2000
row_043: 0x0440
row_044: 0x0382
row_045: 0x4000
row_046: 0x1008
row_047: 0x09E0
row_048: 0x0090
row_049: 0x0C04
row_050: 0x0900
row_051: 0x4080
row_052: 0x0800
row_053: 0x0480
row_054: 0x0820
row_055: 0x8025
row_056: 0x8000
row_057: 0x0004
row_058: 0x0A01
row_059: 0x4200
row_060: 0x0002
row_061: 0x0200
row_062: 0x0100
row_063: 0x0012
row_064: 0x0908
row_065: 0x8080
row_066: 0x0740
row_067: 0x0600
row_068: 0x5804
row_069: 0x0081
row_070: 0x0002
row_071: 0x4904
row_072: 0x0200
row_073: 0x8060
row_074: 0x2020
row_075: 0x0400
row_076: 0x0380
row_077: 0x0020
row_078: 0x1000
row_079: 0x09E0
row_080: 0x0010
row_081: 0x0020
row_082: 0x0100
row_083: 0x4000
row_084: 0x0800
row_085: 0x4A00
row_086: 0x0820
row_087: 0x0005
row_088: 0x1900
row_089: 0x0106
row_090: 0x0AA0
row_091: 0x0200
row_092: 0x2001
row_093: 0x0300
row_094: 0x0080
row_095: 0x0032
row_096: 0x0901
row_097: 0xC184
row_098: 0x0702
row_099: 0x0400
row_100: 0x7804
row_101: 0x8011
row_102: 0x0002
row_103: 0x4904
row_104: 0x4000
row_105: 0xA440
row_106: 0x20A0
row_107: 0x9040
row_108: 0x0A80
row_109: 0x0030
row_110: 0x8001
row_111: 0x0880
row_112: 0x0031
row_113: 0x8024
row_114: 0x0300
row_115: 0x4C0A
row_116: 0x0080
row_117: 0x1000
row_118: 0x0800
row_119: 0x0020
row_120: 0x0800
row_121: 0x0404
row_122: 0x08A0
row_123: 0x4300
row_124: 0x0012
row_125: 0x0200
row_126: 0x2080
row_127: 0x4000
row_128: 0x8802
row_129: 0x4184
row_130: 0x0204
row_131: 0x0600
row_132: 0x7804
row_133: 0x6411
row_134: 0x0082
row_135: 0x0904
row_136: 0x5010
row_137: 0x2440
row_138: 0x00A6
row_139: 0x9040
row_140: 0x0A00
row_141: 0x0010
row_142: 0x8011
row_143: 0x0890
row_144: 0x00B9
row_145: 0x8624
row_146: 0x0B86
row_147: 0x4808
row_148: 0x2040
row_149: 0x3000
row_150: 0x6801
row_151: 0x1000
row_152: 0x0800
row_153: 0x1030
row_154: 0x88A2
row_155: 0x6A82
row_156: 0x1030
row_157: 0x0080
row_158: 0x21C0
row_159: 0x0020
row_160: 0x0102
row_161: 0x4084
row_162: 0x8000
row_163: 0x0600
row_164: 0x6804
row_165: 0xE001
row_166: 0x0080
row_167: 0x0006
row_168: 0x0800
row_169: 0xA440
row_170: 0x0126
row_171: 0x10C0
row_172: 0x0200
row_173: 0x0080
row_174: 0x8011
row_175: 0x0800
row_176: 0x0038
row_177: 0x0624
row_178: 0x03A4
row_179: 0x4808
row_180: 0x4001
row_181: 0x1000
row_182: 0x4A11
row_183: 0x0020
row_184: 0x0800
row_185: 0x0020
row_186: 0x88A2
row_187: 0x2882
row_188: 0x0118
row_189: 0x0200
row_190: 0x28C0
row_191: 0x0020
row_192: 0x0900
row_193: 0x4180
row_194: 0x0100
row_195: 0x0600
row_196: 0x5A00
row_197: 0xE001
row_198: 0x2240
row_199: 0x0904
row_200: 0x4A00
row_201: 0x8041
row_202: 0x2024
row_203: 0x1240
row_204: 0x0302
row_205: 0x0080
row_206: 0x8001
row_207: 0x0800
row_208: 0x4299
row_209: 0x0224
row_210: 0x0504
row_211: 0x4048
row_212: 0x0002
row_213: 0x2000
row_214: 0x0815
row_215: 0x8020
row_216: 0x0068
row_217: 0x8404
row_218: 0x08A0
row_219: 0x0800
row_220: 0x0280
row_221: 0x4080
row_222: 0x2000
row_223: 0x8000
row_224: 0x0840
row_225: 0x4180
row_226: 0x0100
row_227: 0x0400
row_228: 0x3004
row_229: 0x6000
row_230: 0x0401
row_231: 0x0914
row_232: 0x0A00
row_233: 0x2281
row_234: 0x0020
row_235: 0x0240
row_236: 0x0300
row_237: 0x0006
row_238: 0x8000
row_239: 0x08C1
row_240: 0x0218
row_241: 0x8124
row_242: 0x0301
row_243: 0x4080
row_244: 0x0C00
row_245: 0x4000
row_246: 0x0821
row_247: 0x0024
row_248: 0x1008
row_249: 0x0600
row_250: 0x1820
row_251: 0x00A0
row_252: 0x0081
row_253: 0x0080
row_254: 0x0004
row_255: 0x0030
