// ProSparsity Hardware Test Data (256 neurons × 16 timesteps)
// Format: 16-bit hex values, one per neuron row
// Total neurons: 256
// Raw spike data for ProSparsity reuse detection

neuron_000: 0x0000
neuron_001: 0x5980
neuron_002: 0x0700
neuron_003: 0x040C
neuron_004: 0x5000
neuron_005: 0x4080
neuron_006: 0x0403
neuron_007: 0x8814
neuron_008: 0x0200
neuron_009: 0x0340
neuron_010: 0x0020
neuron_011: 0x0040
neuron_012: 0x0202
neuron_013: 0x0100
neuron_014: 0x100C
neuron_015: 0x0861
neuron_016: 0x0090
neuron_017: 0x0E04
neuron_018: 0x0920
neuron_019: 0x4080
neuron_020: 0x0800
neuron_021: 0x0200
neuron_022: 0x08B0
neuron_023: 0x0004
neuron_024: 0x0900
neuron_025: 0x0004
neuron_026: 0x0800
neuron_027: 0x4200
neuron_028: 0x0000
neuron_029: 0x0000
neuron_030: 0x0184
neuron_031: 0x0012
neuron_032: 0x0900
neuron_033: 0x0180
neuron_034: 0x0700
neuron_035: 0x0604
neuron_036: 0x5804
neuron_037: 0x0080
neuron_038: 0x0403
neuron_039: 0x8800
neuron_040: 0x4200
neuron_041: 0x0360
neuron_042: 0x2000
neuron_043: 0x0440
neuron_044: 0x0382
neuron_045: 0x4000
neuron_046: 0x1008
neuron_047: 0x09E0
neuron_048: 0x0090
neuron_049: 0x0C04
neuron_050: 0x0900
neuron_051: 0x4080
neuron_052: 0x0800
neuron_053: 0x0000
neuron_054: 0x0820
neuron_055: 0x8025
neuron_056: 0x0000
neuron_057: 0x0000
neuron_058: 0x0A01
neuron_059: 0x4200
neuron_060: 0x0000
neuron_061: 0x0200
neuron_062: 0x0100
neuron_063: 0x0012
neuron_064: 0x0908
neuron_065: 0x8080
neuron_066: 0x0000
neuron_067: 0x0600
neuron_068: 0x5804
neuron_069: 0x0081
neuron_070: 0x0002
neuron_071: 0x4904
neuron_072: 0x0200
neuron_073: 0x8060
neuron_074: 0x2020
neuron_075: 0x0400
neuron_076: 0x0380
neuron_077: 0x0020
neuron_078: 0x1000
neuron_079: 0x09E0
neuron_080: 0x0010
neuron_081: 0x0020
neuron_082: 0x0100
neuron_083: 0x4000
neuron_084: 0x0800
neuron_085: 0x0000
neuron_086: 0x0820
neuron_087: 0x0005
neuron_088: 0x0000
neuron_089: 0x0000
neuron_090: 0x0AA0
neuron_091: 0x0200
neuron_092: 0x0000
neuron_093: 0x0300
neuron_094: 0x0080
neuron_095: 0x0032
neuron_096: 0x0901
neuron_097: 0xC184
neuron_098: 0x0000
neuron_099: 0x0400
neuron_100: 0x7804
neuron_101: 0x8011
neuron_102: 0x0002
neuron_103: 0x4904
neuron_104: 0x4000
neuron_105: 0xA440
neuron_106: 0x20A0
neuron_107: 0x9040
neuron_108: 0x0A80
neuron_109: 0x0030
neuron_110: 0x8001
neuron_111: 0x0880
neuron_112: 0x0031
neuron_113: 0x8024
neuron_114: 0x0300
neuron_115: 0x4C0A
neuron_116: 0x0080
neuron_117: 0x1000
neuron_118: 0x0800
neuron_119: 0x0020
neuron_120: 0x0800
neuron_121: 0x0000
neuron_122: 0x08A0
neuron_123: 0x0000
neuron_124: 0x0000
neuron_125: 0x0200
neuron_126: 0x2080
neuron_127: 0x4000
neuron_128: 0x8802
neuron_129: 0x4184
neuron_130: 0x0000
neuron_131: 0x0600
neuron_132: 0x7804
neuron_133: 0x6411
neuron_134: 0x0082
neuron_135: 0x0904
neuron_136: 0x0000
neuron_137: 0x2440
neuron_138: 0x00A6
neuron_139: 0x9040
neuron_140: 0x0A00
neuron_141: 0x0010
neuron_142: 0x8011
neuron_143: 0x0890
neuron_144: 0x00B9
neuron_145: 0x8624
neuron_146: 0x0B86
neuron_147: 0x4808
neuron_148: 0x2040
neuron_149: 0x3000
neuron_150: 0x6801
neuron_151: 0x1000
neuron_152: 0x0800
neuron_153: 0x0000
neuron_154: 0x88A2
neuron_155: 0x6A82
neuron_156: 0x0000
neuron_157: 0x0080
neuron_158: 0x21C0
neuron_159: 0x0020
neuron_160: 0x0102
neuron_161: 0x4084
neuron_162: 0x0000
neuron_163: 0x0600
neuron_164: 0x6804
neuron_165: 0xE001
neuron_166: 0x0080
neuron_167: 0x0006
neuron_168: 0x0800
neuron_169: 0xA440
neuron_170: 0x0126
neuron_171: 0x10C0
neuron_172: 0x0200
neuron_173: 0x0080
neuron_174: 0x8011
neuron_175: 0x0800
neuron_176: 0x0038
neuron_177: 0x0624
neuron_178: 0x03A4
neuron_179: 0x4808
neuron_180: 0x0000
neuron_181: 0x1000
neuron_182: 0x4A11
neuron_183: 0x0000
neuron_184: 0x0800
neuron_185: 0x0020
neuron_186: 0x88A2
neuron_187: 0x2882
neuron_188: 0x0000
neuron_189: 0x0200
neuron_190: 0x28C0
neuron_191: 0x0020
neuron_192: 0x0900
neuron_193: 0x4180
neuron_194: 0x0100
neuron_195: 0x0600
neuron_196: 0x5A00
neuron_197: 0xE001
neuron_198: 0x0000
neuron_199: 0x0904
neuron_200: 0x4A00
neuron_201: 0x8041
neuron_202: 0x2024
neuron_203: 0x1240
neuron_204: 0x0302
neuron_205: 0x0080
neuron_206: 0x8001
neuron_207: 0x0800
neuron_208: 0x4299
neuron_209: 0x0224
neuron_210: 0x0504
neuron_211: 0x4048
neuron_212: 0x0000
neuron_213: 0x0000
neuron_214: 0x0815
neuron_215: 0x8020
neuron_216: 0x0000
neuron_217: 0x0000
neuron_218: 0x08A0
neuron_219: 0x0800
neuron_220: 0x0000
neuron_221: 0x4080
neuron_222: 0x2000
neuron_223: 0x8000
neuron_224: 0x0840
neuron_225: 0x4180
neuron_226: 0x0100
neuron_227: 0x0400
neuron_228: 0x3004
neuron_229: 0x6000
neuron_230: 0x0401
neuron_231: 0x0914
neuron_232: 0x0A00
neuron_233: 0x2281
neuron_234: 0x0020
neuron_235: 0x0240
neuron_236: 0x0300
neuron_237: 0x0000
neuron_238: 0x8000
neuron_239: 0x08C1
neuron_240: 0x0218
neuron_241: 0x8124
neuron_242: 0x0301
neuron_243: 0x4080
neuron_244: 0x0000
neuron_245: 0x4000
neuron_246: 0x0821
neuron_247: 0x0024
neuron_248: 0x0000
neuron_249: 0x0000
neuron_250: 0x1820
neuron_251: 0x0000
neuron_252: 0x0000
neuron_253: 0x0080
neuron_254: 0x0004
neuron_255: 0x0030
