// ProsperityHDL Tile Data (256x16)
// Format: 16-bit hex values, one per row
// Total rows: 256
// Generated from SDT CIFAR-10 data

row_000: 0x0048
row_001: 0x0881
row_002: 0x0500
row_003: 0x000C
row_004: 0x1280
row_005: 0x0022
row_006: 0x1801
row_007: 0x8804
row_008: 0x0010
row_009: 0x0760
row_010: 0x0040
row_011: 0x00C0
row_012: 0x03A0
row_013: 0x01A1
row_014: 0x1008
row_015: 0x08C0
row_016: 0x0080
row_017: 0xCE64
row_018: 0x2980
row_019: 0x0190
row_020: 0x08A0
row_021: 0x0200
row_022: 0x00A4
row_023: 0xD015
row_024: 0x4920
row_025: 0x0060
row_026: 0x1084
row_027: 0x0808
row_028: 0x0A80
row_029: 0x0080
row_030: 0x8000
row_031: 0x1912
row_032: 0x0909
row_033: 0x5900
row_034: 0x0500
row_035: 0x0404
row_036: 0x70AC
row_037: 0x08A0
row_038: 0x0201
row_039: 0xC844
row_040: 0x4210
row_041: 0x1A60
row_042: 0xE840
row_043: 0x0440
row_044: 0x0382
row_045: 0x01A1
row_046: 0x9008
row_047: 0x09C0
row_048: 0x0088
row_049: 0x0C24
row_050: 0x0900
row_051: 0x0583
row_052: 0x0825
row_053: 0x0A00
row_054: 0x8DA0
row_055: 0xF014
row_056: 0x4020
row_057: 0x0001
row_058: 0x5001
row_059: 0x4008
row_060: 0x0A80
row_061: 0x0980
row_062: 0xD100
row_063: 0x5912
row_064: 0x0048
row_065: 0x4000
row_066: 0x0100
row_067: 0x1000
row_068: 0x0A04
row_069: 0x0020
row_070: 0x0004
row_071: 0x4040
row_072: 0x0210
row_073: 0x4040
row_074: 0x0140
row_075: 0x8080
row_076: 0x0280
row_077: 0x0101
row_078: 0x0008
row_079: 0x09C0
row_080: 0x0400
row_081: 0x8029
row_082: 0x0100
row_083: 0x0010
row_084: 0x0CA0
row_085: 0x0240
row_086: 0x00A6
row_087: 0x1000
row_088: 0x8000
row_089: 0x0500
row_090: 0x1080
row_091: 0x0800
row_092: 0x0080
row_093: 0x0200
row_094: 0x0082
row_095: 0x2006
row_096: 0x0040
row_097: 0x4004
row_098: 0x0200
row_099: 0x1000
row_100: 0x6204
row_101: 0x8222
row_102: 0x0800
row_103: 0x0900
row_104: 0x4010
row_105: 0x4040
row_106: 0xE844
row_107: 0x8002
row_108: 0x0380
row_109: 0x0114
row_110: 0x8100
row_111: 0x0080
row_112: 0x0420
row_113: 0x802D
row_114: 0x1900
row_115: 0x0597
row_116: 0x00A0
row_117: 0x0200
row_118: 0x4040
row_119: 0x0100
row_120: 0x0028
row_121: 0x000B
row_122: 0x0008
row_123: 0x404A
row_124: 0x8A80
row_125: 0x0240
row_126: 0x0080
row_127: 0x5D13
row_128: 0x0940
row_129: 0x4020
row_130: 0x0420
row_131: 0x0124
row_132: 0x4304
row_133: 0x8110
row_134: 0x10C0
row_135: 0x0900
row_136: 0x0020
row_137: 0x2860
row_138: 0x0084
row_139: 0x8080
row_140: 0x1200
row_141: 0x00A0
row_142: 0xC001
row_143: 0x0890
row_144: 0x4221
row_145: 0x1025
row_146: 0x0104
row_147: 0x4181
row_148: 0x2020
row_149: 0x1008
row_150: 0xC800
row_151: 0x0008
row_152: 0x4028
row_153: 0x2000
row_154: 0x18C4
row_155: 0x0001
row_156: 0x1800
row_157: 0x02C0
row_158: 0x2800
row_159: 0x0010
row_160: 0x11C0
row_161: 0x4000
row_162: 0x0900
row_163: 0x040A
row_164: 0x4B04
row_165: 0x8900
row_166: 0x1085
row_167: 0x0806
row_168: 0x0820
row_169: 0xA041
row_170: 0x0104
row_171: 0x80C0
row_172: 0x0200
row_173: 0x0081
row_174: 0x8101
row_175: 0x0C10
row_176: 0x4108
row_177: 0xAA21
row_178: 0x0904
row_179: 0x580A
row_180: 0x0022
row_181: 0x0808
row_182: 0xCA90
row_183: 0x1001
row_184: 0x4828
row_185: 0x2020
row_186: 0x1884
row_187: 0x4000
row_188: 0x5001
row_189: 0x0280
row_190: 0x2001
row_191: 0x8000
row_192: 0x0148
row_193: 0x4084
row_194: 0x0100
row_195: 0x0400
row_196: 0x630C
row_197: 0x8921
row_198: 0x5000
row_199: 0x0804
row_200: 0x5A50
row_201: 0x0041
row_202: 0x2004
row_203: 0x8080
row_204: 0x1380
row_205: 0x00A1
row_206: 0x8008
row_207: 0x0800
row_208: 0x0098
row_209: 0x0224
row_210: 0x0904
row_211: 0x4000
row_212: 0x00A0
row_213: 0x020A
row_214: 0x4830
row_215: 0x9980
row_216: 0x8020
row_217: 0x0412
row_218: 0x9824
row_219: 0x0800
row_220: 0x7000
row_221: 0x0180
row_222: 0x0040
row_223: 0x6010
row_224: 0x1040
row_225: 0x5102
row_226: 0x0100
row_227: 0x1000
row_228: 0x0204
row_229: 0x0882
row_230: 0x0880
row_231: 0x4A10
row_232: 0x4200
row_233: 0x0C44
row_234: 0x0005
row_235: 0x8182
row_236: 0x1100
row_237: 0x0900
row_238: 0x8001
row_239: 0x0080
row_240: 0x0010
row_241: 0x4225
row_242: 0x0100
row_243: 0x0100
row_244: 0x0022
row_245: 0x0100
row_246: 0x0040
row_247: 0x9800
row_248: 0x1400
row_249: 0x0441
row_250: 0x0800
row_251: 0x4840
row_252: 0x0001
row_253: 0x0080
row_254: 0x0430
row_255: 0x0C00
