// ProsperityHDL Tile Data (256x16)
// Format: 16-bit hex values, one per row
// Total rows: 256
// Generated from SDT CIFAR-10 data

row_000: 0x0400
row_001: 0x48C4
row_002: 0x0900
row_003: 0x0001
row_004: 0x2000
row_005: 0x0002
row_006: 0x1801
row_007: 0x0104
row_008: 0x0010
row_009: 0x0060
row_010: 0x4000
row_011: 0x1580
row_012: 0x1220
row_013: 0x4020
row_014: 0x9008
row_015: 0x0080
row_016: 0x1020
row_017: 0x4262
row_018: 0x0090
row_019: 0x4080
row_020: 0x0880
row_021: 0x0202
row_022: 0x00A0
row_023: 0xC011
row_024: 0x0900
row_025: 0x0420
row_026: 0x0004
row_027: 0x8000
row_028: 0x0480
row_029: 0x0080
row_030: 0x8000
row_031: 0x2002
row_032: 0x0948
row_033: 0x1800
row_034: 0x0400
row_035: 0x0004
row_036: 0x7480
row_037: 0x0880
row_038: 0x1000
row_039: 0x0002
row_040: 0x4A00
row_041: 0x1260
row_042: 0x6008
row_043: 0x1000
row_044: 0x0282
row_045: 0x0020
row_046: 0x9008
row_047: 0x08E0
row_048: 0x000A
row_049: 0x0C04
row_050: 0x0100
row_051: 0x0581
row_052: 0x0820
row_053: 0x0008
row_054: 0x0C28
row_055: 0xC010
row_056: 0x4000
row_057: 0x0400
row_058: 0x1105
row_059: 0x4008
row_060: 0x0200
row_061: 0x0880
row_062: 0xD100
row_063: 0x1000
row_064: 0x4100
row_065: 0x3042
row_066: 0x8300
row_067: 0x1044
row_068: 0x2900
row_069: 0x0211
row_070: 0x9004
row_071: 0x4000
row_072: 0x0250
row_073: 0x0800
row_074: 0x0012
row_075: 0xC188
row_076: 0x1080
row_077: 0x8101
row_078: 0x1003
row_079: 0x08C0
row_080: 0x4492
row_081: 0xA028
row_082: 0x0002
row_083: 0x5000
row_084: 0x000A
row_085: 0x0200
row_086: 0x0005
row_087: 0x0001
row_088: 0x8000
row_089: 0x0540
row_090: 0x1114
row_091: 0x0001
row_092: 0x1000
row_093: 0x00D0
row_094: 0x0800
row_095: 0x6002
row_096: 0x8180
row_097: 0x4040
row_098: 0x8300
row_099: 0x1400
row_100: 0x2900
row_101: 0x82D4
row_102: 0x1084
row_103: 0x0010
row_104: 0x4512
row_105: 0x4040
row_106: 0x0082
row_107: 0x848B
row_108: 0x13A0
row_109: 0x8090
row_110: 0x8A02
row_111: 0x0840
row_112: 0x6418
row_113: 0x2428
row_114: 0x0100
row_115: 0x0040
row_116: 0x0860
row_117: 0x0020
row_118: 0x0800
row_119: 0x0810
row_120: 0xC800
row_121: 0x0401
row_122: 0x1104
row_123: 0x8100
row_124: 0x0084
row_125: 0x0480
row_126: 0xD108
row_127: 0x0002
row_128: 0x8151
row_129: 0x4800
row_130: 0xA300
row_131: 0x1004
row_132: 0xEB00
row_133: 0x8202
row_134: 0x0445
row_135: 0x0200
row_136: 0x0062
row_137: 0xC0C0
row_138: 0x00C9
row_139: 0x8C88
row_140: 0x1220
row_141: 0x21A0
row_142: 0xC001
row_143: 0x0814
row_144: 0x4638
row_145: 0x3005
row_146: 0x0B04
row_147: 0x4101
row_148: 0x0020
row_149: 0x0088
row_150: 0x4A00
row_151: 0x0008
row_152: 0xD02D
row_153: 0x2001
row_154: 0xD0C4
row_155: 0x0305
row_156: 0x8804
row_157: 0x82C0
row_158: 0x2000
row_159: 0x4904
row_160: 0x01D0
row_161: 0x4000
row_162: 0x0200
row_163: 0x0022
row_164: 0x6A00
row_165: 0x8A00
row_166: 0x00C5
row_167: 0x7000
row_168: 0x0042
row_169: 0x80C0
row_170: 0x000A
row_171: 0x0888
row_172: 0x0020
row_173: 0x0100
row_174: 0x8001
row_175: 0x0814
row_176: 0x4018
row_177: 0x2000
row_178: 0x0100
row_179: 0x5000
row_180: 0x0100
row_181: 0x008A
row_182: 0x4800
row_183: 0x1400
row_184: 0x5800
row_185: 0x0041
row_186: 0xD00C
row_187: 0x0102
row_188: 0x0804
row_189: 0x0080
row_190: 0x2010
row_191: 0x4100
row_192: 0x8150
row_193: 0x4084
row_194: 0x8300
row_195: 0x1400
row_196: 0x6804
row_197: 0x0205
row_198: 0x1105
row_199: 0x0A10
row_200: 0x4842
row_201: 0x00C0
row_202: 0x0240
row_203: 0x8188
row_204: 0x1020
row_205: 0x2081
row_206: 0xC808
row_207: 0x0840
row_208: 0x4018
row_209: 0x20A5
row_210: 0x0300
row_211: 0x4000
row_212: 0x0808
row_213: 0x0082
row_214: 0x4810
row_215: 0x0090
row_216: 0xD004
row_217: 0x4840
row_218: 0xD904
row_219: 0x0900
row_220: 0x0894
row_221: 0x0490
row_222: 0x2040
row_223: 0x1040
row_224: 0x0430
row_225: 0x4800
row_226: 0x0200
row_227: 0x0C00
row_228: 0x0800
row_229: 0x0800
row_230: 0x1084
row_231: 0x0210
row_232: 0x8000
row_233: 0x0440
row_234: 0x0004
row_235: 0x01A2
row_236: 0x1000
row_237: 0x8000
row_238: 0x8802
row_239: 0x0080
row_240: 0x0050
row_241: 0x2020
row_242: 0x4001
row_243: 0x0020
row_244: 0x0002
row_245: 0x0118
row_246: 0x0800
row_247: 0x0800
row_248: 0x0004
row_249: 0x0441
row_250: 0x1108
row_251: 0x0020
row_252: 0x0001
row_253: 0x01C0
row_254: 0x2240
row_255: 0x0002
