// ProSparsity Hardware Test Data (256 neurons × 16 timesteps)
// Format: 16-bit hex values, one per neuron row
// Total neurons: 256
// Raw spike data for ProSparsity reuse detection

neuron_000: 0x0048
neuron_001: 0x0881
neuron_002: 0x0500
neuron_003: 0x000C
neuron_004: 0x1280
neuron_005: 0x0022
neuron_006: 0x1801
neuron_007: 0x8804
neuron_008: 0x0010
neuron_009: 0x0760
neuron_010: 0x0040
neuron_011: 0x00C0
neuron_012: 0x03A0
neuron_013: 0x01A1
neuron_014: 0x1008
neuron_015: 0x08C0
neuron_016: 0x0080
neuron_017: 0xCE64
neuron_018: 0x2980
neuron_019: 0x0190
neuron_020: 0x08A0
neuron_021: 0x0200
neuron_022: 0x00A4
neuron_023: 0xD015
neuron_024: 0x4920
neuron_025: 0x0060
neuron_026: 0x1084
neuron_027: 0x0808
neuron_028: 0x0A80
neuron_029: 0x0080
neuron_030: 0x8000
neuron_031: 0x1912
neuron_032: 0x0909
neuron_033: 0x5900
neuron_034: 0x0500
neuron_035: 0x0404
neuron_036: 0x70AC
neuron_037: 0x08A0
neuron_038: 0x0201
neuron_039: 0xC844
neuron_040: 0x4210
neuron_041: 0x1A60
neuron_042: 0xE840
neuron_043: 0x0440
neuron_044: 0x0382
neuron_045: 0x01A1
neuron_046: 0x9008
neuron_047: 0x09C0
neuron_048: 0x0088
neuron_049: 0x0C24
neuron_050: 0x0900
neuron_051: 0x0583
neuron_052: 0x0825
neuron_053: 0x0A00
neuron_054: 0x8DA0
neuron_055: 0xF014
neuron_056: 0x4020
neuron_057: 0x0000
neuron_058: 0x5001
neuron_059: 0x4008
neuron_060: 0x0A80
neuron_061: 0x0980
neuron_062: 0xD100
neuron_063: 0x5912
neuron_064: 0x0048
neuron_065: 0x4000
neuron_066: 0x0100
neuron_067: 0x1000
neuron_068: 0x0A04
neuron_069: 0x0020
neuron_070: 0x0004
neuron_071: 0x4040
neuron_072: 0x0210
neuron_073: 0x4040
neuron_074: 0x0140
neuron_075: 0x8080
neuron_076: 0x0280
neuron_077: 0x0101
neuron_078: 0x0008
neuron_079: 0x09C0
neuron_080: 0x0400
neuron_081: 0x8029
neuron_082: 0x0100
neuron_083: 0x0010
neuron_084: 0x0CA0
neuron_085: 0x0000
neuron_086: 0x0000
neuron_087: 0x1000
neuron_088: 0x8000
neuron_089: 0x0500
neuron_090: 0x1080
neuron_091: 0x0800
neuron_092: 0x0080
neuron_093: 0x0200
neuron_094: 0x0082
neuron_095: 0x2006
neuron_096: 0x0040
neuron_097: 0x4004
neuron_098: 0x0200
neuron_099: 0x1000
neuron_100: 0x6204
neuron_101: 0x8222
neuron_102: 0x0800
neuron_103: 0x0900
neuron_104: 0x4010
neuron_105: 0x4040
neuron_106: 0x0000
neuron_107: 0x8002
neuron_108: 0x0380
neuron_109: 0x0114
neuron_110: 0x8100
neuron_111: 0x0080
neuron_112: 0x0420
neuron_113: 0x802D
neuron_114: 0x0000
neuron_115: 0x0000
neuron_116: 0x00A0
neuron_117: 0x0200
neuron_118: 0x4040
neuron_119: 0x0100
neuron_120: 0x0028
neuron_121: 0x0000
neuron_122: 0x0008
neuron_123: 0x0000
neuron_124: 0x0000
neuron_125: 0x0240
neuron_126: 0x0080
neuron_127: 0x0000
neuron_128: 0x0940
neuron_129: 0x4020
neuron_130: 0x0420
neuron_131: 0x0124
neuron_132: 0x4304
neuron_133: 0x8110
neuron_134: 0x10C0
neuron_135: 0x0900
neuron_136: 0x0020
neuron_137: 0x2860
neuron_138: 0x0084
neuron_139: 0x8080
neuron_140: 0x1200
neuron_141: 0x00A0
neuron_142: 0xC001
neuron_143: 0x0890
neuron_144: 0x4221
neuron_145: 0x1025
neuron_146: 0x0104
neuron_147: 0x4181
neuron_148: 0x2020
neuron_149: 0x1008
neuron_150: 0xC800
neuron_151: 0x0008
neuron_152: 0x4028
neuron_153: 0x2000
neuron_154: 0x18C4
neuron_155: 0x0001
neuron_156: 0x1800
neuron_157: 0x02C0
neuron_158: 0x2800
neuron_159: 0x0010
neuron_160: 0x11C0
neuron_161: 0x4000
neuron_162: 0x0900
neuron_163: 0x0000
neuron_164: 0x4B04
neuron_165: 0x8900
neuron_166: 0x1085
neuron_167: 0x0806
neuron_168: 0x0820
neuron_169: 0xA041
neuron_170: 0x0104
neuron_171: 0x80C0
neuron_172: 0x0200
neuron_173: 0x0081
neuron_174: 0x8101
neuron_175: 0x0C10
neuron_176: 0x4108
neuron_177: 0xAA21
neuron_178: 0x0904
neuron_179: 0x580A
neuron_180: 0x0000
neuron_181: 0x0808
neuron_182: 0xCA90
neuron_183: 0x1001
neuron_184: 0x4828
neuron_185: 0x2020
neuron_186: 0x1884
neuron_187: 0x4000
neuron_188: 0x0000
neuron_189: 0x0280
neuron_190: 0x2001
neuron_191: 0x8000
neuron_192: 0x0148
neuron_193: 0x4084
neuron_194: 0x0100
neuron_195: 0x0400
neuron_196: 0x630C
neuron_197: 0x8921
neuron_198: 0x5000
neuron_199: 0x0804
neuron_200: 0x5A50
neuron_201: 0x0041
neuron_202: 0x2004
neuron_203: 0x8080
neuron_204: 0x1380
neuron_205: 0x00A1
neuron_206: 0x8008
neuron_207: 0x0800
neuron_208: 0x0098
neuron_209: 0x0224
neuron_210: 0x0904
neuron_211: 0x4000
neuron_212: 0x00A0
neuron_213: 0x020A
neuron_214: 0x4830
neuron_215: 0x9980
neuron_216: 0x8020
neuron_217: 0x0000
neuron_218: 0x9824
neuron_219: 0x0800
neuron_220: 0x0000
neuron_221: 0x0180
neuron_222: 0x0040
neuron_223: 0x6010
neuron_224: 0x1040
neuron_225: 0x5102
neuron_226: 0x0100
neuron_227: 0x1000
neuron_228: 0x0204
neuron_229: 0x0882
neuron_230: 0x0880
neuron_231: 0x4A10
neuron_232: 0x4200
neuron_233: 0x0C44
neuron_234: 0x0005
neuron_235: 0x8182
neuron_236: 0x1100
neuron_237: 0x0900
neuron_238: 0x8001
neuron_239: 0x0080
neuron_240: 0x0010
neuron_241: 0x4225
neuron_242: 0x0100
neuron_243: 0x0100
neuron_244: 0x0022
neuron_245: 0x0000
neuron_246: 0x0040
neuron_247: 0x9800
neuron_248: 0x0000
neuron_249: 0x0441
neuron_250: 0x0800
neuron_251: 0x0000
neuron_252: 0x0001
neuron_253: 0x0080
neuron_254: 0x0000
neuron_255: 0x0000
