// ProSparsity Hardware Test Data (256 neurons × 16 timesteps)
// Format: 16-bit hex values, one per neuron row
// Total neurons: 256
// Raw spike data for ProSparsity reuse detection

neuron_000: 0x0044
neuron_001: 0x5981
neuron_002: 0x0700
neuron_003: 0x040D
neuron_004: 0x1204
neuron_005: 0x4080
neuron_006: 0x0003
neuron_007: 0x8804
neuron_008: 0x0200
neuron_009: 0x0B40
neuron_010: 0x0000
neuron_011: 0x0000
neuron_012: 0x0380
neuron_013: 0x0120
neuron_014: 0x100C
neuron_015: 0x08C0
neuron_016: 0x0090
neuron_017: 0x1A24
neuron_018: 0x0900
neuron_019: 0x0080
neuron_020: 0x0880
neuron_021: 0x0008
neuron_022: 0x0820
neuron_023: 0x8005
neuron_024: 0x480A
neuron_025: 0x0004
neuron_026: 0x0884
neuron_027: 0x4200
neuron_028: 0x0080
neuron_029: 0x0000
neuron_030: 0x8104
neuron_031: 0x0012
neuron_032: 0x0908
neuron_033: 0x4181
neuron_034: 0x0500
neuron_035: 0x0400
neuron_036: 0x18A4
neuron_037: 0x00A0
neuron_038: 0x0002
neuron_039: 0x4840
neuron_040: 0x4210
neuron_041: 0x0B40
neuron_042: 0x6008
neuron_043: 0x0200
neuron_044: 0x0382
neuron_045: 0x0120
neuron_046: 0x1208
neuron_047: 0x09E0
neuron_048: 0x0008
neuron_049: 0x040D
neuron_050: 0x0900
neuron_051: 0x0181
neuron_052: 0x08A0
neuron_053: 0x0800
neuron_054: 0x09A0
neuron_055: 0x8045
neuron_056: 0x4000
neuron_057: 0x0000
neuron_058: 0x1801
neuron_059: 0x4200
neuron_060: 0x2080
neuron_061: 0x0108
neuron_062: 0xC100
neuron_063: 0x8012
neuron_064: 0x0948
neuron_065: 0x4080
neuron_066: 0x0000
neuron_067: 0x1401
neuron_068: 0x4804
neuron_069: 0x0020
neuron_070: 0x0002
neuron_071: 0x4800
neuron_072: 0x0310
neuron_073: 0x8341
neuron_074: 0x6000
neuron_075: 0x0080
neuron_076: 0x0380
neuron_077: 0x0020
neuron_078: 0x1008
neuron_079: 0x09E0
neuron_080: 0x1400
neuron_081: 0x002C
neuron_082: 0x0100
neuron_083: 0x0000
neuron_084: 0x0C80
neuron_085: 0x0000
neuron_086: 0x0821
neuron_087: 0x8000
neuron_088: 0x0000
neuron_089: 0x0400
neuron_090: 0x0A00
neuron_091: 0x4000
neuron_092: 0x0080
neuron_093: 0x0308
neuron_094: 0x2080
neuron_095: 0x0030
neuron_096: 0x0101
neuron_097: 0x4084
neuron_098: 0x0000
neuron_099: 0x1400
neuron_100: 0x7804
neuron_101: 0x8411
neuron_102: 0x1000
neuron_103: 0x4904
neuron_104: 0x4010
neuron_105: 0x8441
neuron_106: 0x0000
neuron_107: 0x8000
neuron_108: 0x0280
neuron_109: 0x0030
neuron_110: 0x0000
neuron_111: 0x08A0
neuron_112: 0x0220
neuron_113: 0x802D
neuron_114: 0x0100
neuron_115: 0x5000
neuron_116: 0x04A0
neuron_117: 0x0000
neuron_118: 0x0800
neuron_119: 0x8000
neuron_120: 0x0028
neuron_121: 0x0028
neuron_122: 0x08A0
neuron_123: 0x0880
neuron_124: 0x0000
neuron_125: 0x03C0
neuron_126: 0x2080
neuron_127: 0x0030
neuron_128: 0x0940
neuron_129: 0x4185
neuron_130: 0x0400
neuron_131: 0x0420
neuron_132: 0x6304
neuron_133: 0xC100
neuron_134: 0x40C2
neuron_135: 0x0B00
neuron_136: 0x0024
neuron_137: 0x0860
neuron_138: 0x0004
neuron_139: 0x8040
neuron_140: 0x1300
neuron_141: 0x0030
neuron_142: 0x1001
neuron_143: 0x0890
neuron_144: 0x22A9
neuron_145: 0x0024
neuron_146: 0x0100
neuron_147: 0x5001
neuron_148: 0x2020
neuron_149: 0x0008
neuron_150: 0x8811
neuron_151: 0x1000
neuron_152: 0x4008
neuron_153: 0x2029
neuron_154: 0x18C4
neuron_155: 0x4201
neuron_156: 0x1800
neuron_157: 0x0000
neuron_158: 0x0940
neuron_159: 0x0010
neuron_160: 0x01C0
neuron_161: 0x4001
neuron_162: 0x0800
neuron_163: 0x0401
neuron_164: 0x4A04
neuron_165: 0xC900
neuron_166: 0x0083
neuron_167: 0x4804
neuron_168: 0x8826
neuron_169: 0xA441
neuron_170: 0x0106
neuron_171: 0x9040
neuron_172: 0x0300
neuron_173: 0x0090
neuron_174: 0x9001
neuron_175: 0x0C10
neuron_176: 0x0308
neuron_177: 0xAB24
neuron_178: 0x0900
neuron_179: 0x5808
neuron_180: 0x0000
neuron_181: 0x1808
neuron_182: 0xC811
neuron_183: 0x9000
neuron_184: 0x4808
neuron_185: 0x2420
neuron_186: 0x1884
neuron_187: 0x4002
neuron_188: 0x1000
neuron_189: 0x0280
neuron_190: 0x2101
neuron_191: 0x8010
neuron_192: 0x0140
neuron_193: 0xC184
neuron_194: 0x0100
neuron_195: 0x0401
neuron_196: 0x528C
neuron_197: 0xC021
neuron_198: 0x1002
neuron_199: 0x0804
neuron_200: 0x5800
neuron_201: 0x0441
neuron_202: 0x2004
neuron_203: 0x8080
neuron_204: 0x0380
neuron_205: 0x0080
neuron_206: 0x8100
neuron_207: 0x0840
neuron_208: 0x4298
neuron_209: 0x0A24
neuron_210: 0x0100
neuron_211: 0x5008
neuron_212: 0x00A0
neuron_213: 0x0208
neuron_214: 0x0834
neuron_215: 0x9800
neuron_216: 0x080A
neuron_217: 0x0000
neuron_218: 0x1820
neuron_219: 0x4800
neuron_220: 0x0000
neuron_221: 0x4180
neuron_222: 0x0040
neuron_223: 0x8050
neuron_224: 0x084C
neuron_225: 0x4100
neuron_226: 0x0100
neuron_227: 0x0400
neuron_228: 0x3084
neuron_229: 0x8000
neuron_230: 0x0002
neuron_231: 0x4800
neuron_232: 0x0800
neuron_233: 0x00C1
neuron_234: 0x6000
neuron_235: 0x0200
neuron_236: 0x0300
neuron_237: 0x0080
neuron_238: 0x0000
neuron_239: 0x08C0
neuron_240: 0x0010
neuron_241: 0x0224
neuron_242: 0x0100
neuron_243: 0x0880
neuron_244: 0x0000
neuron_245: 0x0000
neuron_246: 0x0820
neuron_247: 0x8041
neuron_248: 0x0000
neuron_249: 0x0000
neuron_250: 0x1800
neuron_251: 0x4000
neuron_252: 0x0000
neuron_253: 0x0000
neuron_254: 0x0000
neuron_255: 0x0030
