// ProsperityHDL Tile Data (256x16)
// Format: 16-bit hex values, one per row
// Total rows: 256
// Generated from SDT CIFAR-10 data

row_000: 0x0044
row_001: 0x5981
row_002: 0x0700
row_003: 0x040D
row_004: 0x1204
row_005: 0x4080
row_006: 0x0003
row_007: 0x8804
row_008: 0x0200
row_009: 0x0B40
row_010: 0x0001
row_011: 0x2000
row_012: 0x0380
row_013: 0x0120
row_014: 0x100C
row_015: 0x08C0
row_016: 0x0090
row_017: 0x1A24
row_018: 0x0900
row_019: 0x0080
row_020: 0x0880
row_021: 0x0008
row_022: 0x0820
row_023: 0x8005
row_024: 0x480A
row_025: 0x0004
row_026: 0x0884
row_027: 0x4200
row_028: 0x0080
row_029: 0x0202
row_030: 0x8104
row_031: 0x0012
row_032: 0x0908
row_033: 0x4181
row_034: 0x0500
row_035: 0x0400
row_036: 0x18A4
row_037: 0x00A0
row_038: 0x0002
row_039: 0x4840
row_040: 0x4210
row_041: 0x0B40
row_042: 0x6008
row_043: 0x0200
row_044: 0x0382
row_045: 0x0120
row_046: 0x1208
row_047: 0x09E0
row_048: 0x0008
row_049: 0x040D
row_050: 0x0900
row_051: 0x0181
row_052: 0x08A0
row_053: 0x0800
row_054: 0x09A0
row_055: 0x8045
row_056: 0x4000
row_057: 0x0480
row_058: 0x1801
row_059: 0x4200
row_060: 0x2080
row_061: 0x0108
row_062: 0xC100
row_063: 0x8012
row_064: 0x0948
row_065: 0x4080
row_066: 0x8700
row_067: 0x1401
row_068: 0x4804
row_069: 0x0020
row_070: 0x0002
row_071: 0x4800
row_072: 0x0310
row_073: 0x8341
row_074: 0x6000
row_075: 0x0080
row_076: 0x0380
row_077: 0x0020
row_078: 0x1008
row_079: 0x09E0
row_080: 0x1400
row_081: 0x002C
row_082: 0x0100
row_083: 0x0084
row_084: 0x0C80
row_085: 0x8008
row_086: 0x0821
row_087: 0x8000
row_088: 0x482A
row_089: 0x0400
row_090: 0x0A00
row_091: 0x4000
row_092: 0x0080
row_093: 0x0308
row_094: 0x2080
row_095: 0x0030
row_096: 0x0101
row_097: 0x4084
row_098: 0x2D00
row_099: 0x1400
row_100: 0x7804
row_101: 0x8411
row_102: 0x1000
row_103: 0x4904
row_104: 0x4010
row_105: 0x8441
row_106: 0x6088
row_107: 0x8000
row_108: 0x0280
row_109: 0x0030
row_110: 0x160A
row_111: 0x08A0
row_112: 0x0220
row_113: 0x802D
row_114: 0x0100
row_115: 0x5000
row_116: 0x04A0
row_117: 0x0880
row_118: 0x0800
row_119: 0x8000
row_120: 0x0028
row_121: 0x0028
row_122: 0x08A0
row_123: 0x0880
row_124: 0x2086
row_125: 0x03C0
row_126: 0x2080
row_127: 0x0030
row_128: 0x0940
row_129: 0x4185
row_130: 0x0400
row_131: 0x0420
row_132: 0x6304
row_133: 0xC100
row_134: 0x40C2
row_135: 0x0B00
row_136: 0x0024
row_137: 0x0860
row_138: 0x0004
row_139: 0x8040
row_140: 0x1300
row_141: 0x0030
row_142: 0x1001
row_143: 0x0890
row_144: 0x22A9
row_145: 0x0024
row_146: 0x0100
row_147: 0x5001
row_148: 0x2020
row_149: 0x0008
row_150: 0x8811
row_151: 0x1000
row_152: 0x4008
row_153: 0x2029
row_154: 0x18C4
row_155: 0x4201
row_156: 0x1800
row_157: 0x4002
row_158: 0x0940
row_159: 0x0010
row_160: 0x01C0
row_161: 0x4001
row_162: 0x0800
row_163: 0x0401
row_164: 0x4A04
row_165: 0xC900
row_166: 0x0083
row_167: 0x4804
row_168: 0x8826
row_169: 0xA441
row_170: 0x0106
row_171: 0x9040
row_172: 0x0300
row_173: 0x0090
row_174: 0x9001
row_175: 0x0C10
row_176: 0x0308
row_177: 0xAB24
row_178: 0x0900
row_179: 0x5808
row_180: 0x2050
row_181: 0x1808
row_182: 0xC811
row_183: 0x9000
row_184: 0x4808
row_185: 0x2420
row_186: 0x1884
row_187: 0x4002
row_188: 0x1000
row_189: 0x0280
row_190: 0x2101
row_191: 0x8010
row_192: 0x0140
row_193: 0xC184
row_194: 0x0100
row_195: 0x0401
row_196: 0x528C
row_197: 0xC021
row_198: 0x1002
row_199: 0x0804
row_200: 0x5800
row_201: 0x0441
row_202: 0x2004
row_203: 0x8080
row_204: 0x0380
row_205: 0x0080
row_206: 0x8100
row_207: 0x0840
row_208: 0x4298
row_209: 0x0A24
row_210: 0x0100
row_211: 0x5008
row_212: 0x00A0
row_213: 0x0208
row_214: 0x0834
row_215: 0x9800
row_216: 0x080A
row_217: 0x0100
row_218: 0x1820
row_219: 0x4800
row_220: 0x0104
row_221: 0x4180
row_222: 0x0040
row_223: 0x8050
row_224: 0x084C
row_225: 0x4100
row_226: 0x0100
row_227: 0x0400
row_228: 0x3084
row_229: 0x8000
row_230: 0x0002
row_231: 0x4800
row_232: 0x0800
row_233: 0x00C1
row_234: 0x6000
row_235: 0x0200
row_236: 0x0300
row_237: 0x0080
row_238: 0x9010
row_239: 0x08C0
row_240: 0x0010
row_241: 0x0224
row_242: 0x0100
row_243: 0x0880
row_244: 0x1030
row_245: 0x1030
row_246: 0x0820
row_247: 0x8041
row_248: 0x8000
row_249: 0x4001
row_250: 0x1800
row_251: 0x4000
row_252: 0x0020
row_253: 0x0118
row_254: 0x2240
row_255: 0x0030
