// ProSparsity Hardware Test Data (256 neurons × 16 timesteps)
// Format: 16-bit hex values, one per neuron row
// Total neurons: 256
// Raw spike data for ProSparsity reuse detection

neuron_000: 0x0400
neuron_001: 0x48C4
neuron_002: 0x0900
neuron_003: 0x0000
neuron_004: 0x0000
neuron_005: 0x0002
neuron_006: 0x1801
neuron_007: 0x0104
neuron_008: 0x0010
neuron_009: 0x0060
neuron_010: 0x4000
neuron_011: 0x1580
neuron_012: 0x1220
neuron_013: 0x4020
neuron_014: 0x9008
neuron_015: 0x0080
neuron_016: 0x1020
neuron_017: 0x4262
neuron_018: 0x0090
neuron_019: 0x4080
neuron_020: 0x0880
neuron_021: 0x0000
neuron_022: 0x00A0
neuron_023: 0xC011
neuron_024: 0x0900
neuron_025: 0x0420
neuron_026: 0x0004
neuron_027: 0x8000
neuron_028: 0x0000
neuron_029: 0x0080
neuron_030: 0x0000
neuron_031: 0x2002
neuron_032: 0x0948
neuron_033: 0x1800
neuron_034: 0x0400
neuron_035: 0x0000
neuron_036: 0x7480
neuron_037: 0x0880
neuron_038: 0x1000
neuron_039: 0x0000
neuron_040: 0x4A00
neuron_041: 0x1260
neuron_042: 0x6008
neuron_043: 0x0000
neuron_044: 0x0282
neuron_045: 0x0020
neuron_046: 0x9008
neuron_047: 0x08E0
neuron_048: 0x0000
neuron_049: 0x0C04
neuron_050: 0x0100
neuron_051: 0x0581
neuron_052: 0x0820
neuron_053: 0x0008
neuron_054: 0x0C28
neuron_055: 0xC010
neuron_056: 0x4000
neuron_057: 0x0400
neuron_058: 0x1105
neuron_059: 0x4008
neuron_060: 0x0200
neuron_061: 0x0880
neuron_062: 0xD100
neuron_063: 0x1000
neuron_064: 0x4100
neuron_065: 0x3042
neuron_066: 0x8300
neuron_067: 0x1044
neuron_068: 0x2900
neuron_069: 0x0211
neuron_070: 0x9004
neuron_071: 0x4000
neuron_072: 0x0250
neuron_073: 0x0800
neuron_074: 0x0012
neuron_075: 0xC188
neuron_076: 0x1080
neuron_077: 0x8101
neuron_078: 0x1003
neuron_079: 0x08C0
neuron_080: 0x4492
neuron_081: 0xA028
neuron_082: 0x0002
neuron_083: 0x5000
neuron_084: 0x000A
neuron_085: 0x0200
neuron_086: 0x0005
neuron_087: 0x0001
neuron_088: 0x8000
neuron_089: 0x0540
neuron_090: 0x1114
neuron_091: 0x0001
neuron_092: 0x1000
neuron_093: 0x00D0
neuron_094: 0x0800
neuron_095: 0x0000
neuron_096: 0x8180
neuron_097: 0x4040
neuron_098: 0x8300
neuron_099: 0x1400
neuron_100: 0x2900
neuron_101: 0x82D4
neuron_102: 0x1084
neuron_103: 0x0010
neuron_104: 0x4512
neuron_105: 0x4040
neuron_106: 0x0082
neuron_107: 0x848B
neuron_108: 0x13A0
neuron_109: 0x8090
neuron_110: 0x8A02
neuron_111: 0x0840
neuron_112: 0x6418
neuron_113: 0x2428
neuron_114: 0x0100
neuron_115: 0x0040
neuron_116: 0x0000
neuron_117: 0x0020
neuron_118: 0x0800
neuron_119: 0x0810
neuron_120: 0xC800
neuron_121: 0x0401
neuron_122: 0x1104
neuron_123: 0x8100
neuron_124: 0x0084
neuron_125: 0x0480
neuron_126: 0x0000
neuron_127: 0x0002
neuron_128: 0x8151
neuron_129: 0x4800
neuron_130: 0xA300
neuron_131: 0x1004
neuron_132: 0xEB00
neuron_133: 0x8202
neuron_134: 0x0445
neuron_135: 0x0200
neuron_136: 0x0062
neuron_137: 0xC0C0
neuron_138: 0x00C9
neuron_139: 0x8C88
neuron_140: 0x1220
neuron_141: 0x21A0
neuron_142: 0xC001
neuron_143: 0x0814
neuron_144: 0x4638
neuron_145: 0x3005
neuron_146: 0x0B04
neuron_147: 0x4101
neuron_148: 0x0020
neuron_149: 0x0088
neuron_150: 0x4A00
neuron_151: 0x0008
neuron_152: 0xD02D
neuron_153: 0x2001
neuron_154: 0xD0C4
neuron_155: 0x0305
neuron_156: 0x8804
neuron_157: 0x82C0
neuron_158: 0x2000
neuron_159: 0x4904
neuron_160: 0x01D0
neuron_161: 0x4000
neuron_162: 0x0200
neuron_163: 0x0000
neuron_164: 0x6A00
neuron_165: 0x8A00
neuron_166: 0x00C5
neuron_167: 0x0000
neuron_168: 0x0042
neuron_169: 0x80C0
neuron_170: 0x000A
neuron_171: 0x0888
neuron_172: 0x0020
neuron_173: 0x0100
neuron_174: 0x8001
neuron_175: 0x0814
neuron_176: 0x4018
neuron_177: 0x2000
neuron_178: 0x0100
neuron_179: 0x5000
neuron_180: 0x0000
neuron_181: 0x008A
neuron_182: 0x4800
neuron_183: 0x0000
neuron_184: 0x5800
neuron_185: 0x0041
neuron_186: 0xD00C
neuron_187: 0x0102
neuron_188: 0x0804
neuron_189: 0x0080
neuron_190: 0x2010
neuron_191: 0x4100
neuron_192: 0x8150
neuron_193: 0x4084
neuron_194: 0x8300
neuron_195: 0x1400
neuron_196: 0x6804
neuron_197: 0x0205
neuron_198: 0x1105
neuron_199: 0x0A10
neuron_200: 0x4842
neuron_201: 0x00C0
neuron_202: 0x0240
neuron_203: 0x8188
neuron_204: 0x1020
neuron_205: 0x2081
neuron_206: 0xC808
neuron_207: 0x0840
neuron_208: 0x4018
neuron_209: 0x20A5
neuron_210: 0x0300
neuron_211: 0x4000
neuron_212: 0x0808
neuron_213: 0x0082
neuron_214: 0x4810
neuron_215: 0x0090
neuron_216: 0xD004
neuron_217: 0x0000
neuron_218: 0xD904
neuron_219: 0x0900
neuron_220: 0x0894
neuron_221: 0x0490
neuron_222: 0x2040
neuron_223: 0x1040
neuron_224: 0x0000
neuron_225: 0x4800
neuron_226: 0x0200
neuron_227: 0x0000
neuron_228: 0x0800
neuron_229: 0x0800
neuron_230: 0x1084
neuron_231: 0x0210
neuron_232: 0x0000
neuron_233: 0x0440
neuron_234: 0x0004
neuron_235: 0x01A2
neuron_236: 0x1000
neuron_237: 0x8000
neuron_238: 0x8802
neuron_239: 0x0080
neuron_240: 0x0050
neuron_241: 0x2020
neuron_242: 0x0000
neuron_243: 0x0000
neuron_244: 0x0002
neuron_245: 0x0000
neuron_246: 0x0800
neuron_247: 0x0800
neuron_248: 0x0004
neuron_249: 0x0441
neuron_250: 0x1108
neuron_251: 0x0020
neuron_252: 0x0001
neuron_253: 0x01C0
neuron_254: 0x0000
neuron_255: 0x0000
