// ProsperityHDL Tile Data (256x16)
// Format: 16-bit hex values, one per row
// Total rows: 256
// Generated from SDT CIFAR-10 data

row_000: 0x0604
row_001: 0x0222
row_002: 0x1444
row_003: 0x4044
row_004: 0x0032
row_005: 0x5848
row_006: 0x3812
row_007: 0x0200
row_008: 0x2140
row_009: 0x0801
row_010: 0x0C50
row_011: 0x0080
row_012: 0x0080
row_013: 0x5000
row_014: 0x6010
row_015: 0x100C
row_016: 0x0441
row_017: 0x2100
row_018: 0x2584
row_019: 0x4030
row_020: 0x0109
row_021: 0x0001
row_022: 0x00A2
row_023: 0x0203
row_024: 0x0380
row_025: 0x0390
row_026: 0x4050
row_027: 0x8080
row_028: 0x2000
row_029: 0x2000
row_030: 0x00C0
row_031: 0x0082
row_032: 0x0840
row_033: 0x0040
row_034: 0x4814
row_035: 0x0202
row_036: 0x0040
row_037: 0x0400
row_038: 0x4023
row_039: 0x0480
row_040: 0x8002
row_041: 0x0018
row_042: 0x0008
row_043: 0x2048
row_044: 0x1010
row_045: 0x1000
row_046: 0x0048
row_047: 0x8140
row_048: 0x1008
row_049: 0xC082
row_050: 0x0520
row_051: 0x0300
row_052: 0x0605
row_053: 0x000C
row_054: 0x0414
row_055: 0x0101
row_056: 0x8040
row_057: 0x0028
row_058: 0x040E
row_059: 0x0080
row_060: 0x0680
row_061: 0x0410
row_062: 0xC000
row_063: 0x0C80
row_064: 0x8604
row_065: 0x0510
row_066: 0x80C0
row_067: 0x4010
row_068: 0x2005
row_069: 0x8022
row_070: 0x0002
row_071: 0x0204
row_072: 0x0008
row_073: 0xC000
row_074: 0x9082
row_075: 0x2C00
row_076: 0x1080
row_077: 0x1040
row_078: 0x5030
row_079: 0x0744
row_080: 0x0008
row_081: 0x0702
row_082: 0x0009
row_083: 0xC000
row_084: 0x1421
row_085: 0x8001
row_086: 0x101E
row_087: 0x0504
row_088: 0x2201
row_089: 0x0600
row_090: 0x4150
row_091: 0x0400
row_092: 0x6400
row_093: 0x1022
row_094: 0x0112
row_095: 0x0400
row_096: 0x6009
row_097: 0x4008
row_098: 0x2442
row_099: 0x3042
row_100: 0xA800
row_101: 0x0084
row_102: 0x2004
row_103: 0xA01A
row_104: 0x8802
row_105: 0xF480
row_106: 0xA20A
row_107: 0x1000
row_108: 0x0002
row_109: 0x8080
row_110: 0x0600
row_111: 0x0100
row_112: 0x0001
row_113: 0x0340
row_114: 0x1522
row_115: 0x4021
row_116: 0x1605
row_117: 0x2044
row_118: 0x0C28
row_119: 0x8007
row_120: 0x1089
row_121: 0x8000
row_122: 0x0840
row_123: 0x5380
row_124: 0xC020
row_125: 0x224A
row_126: 0x000C
row_127: 0x0C80
row_128: 0x0002
row_129: 0x4002
row_130: 0x2050
row_131: 0x0100
row_132: 0x0104
row_133: 0x9010
row_134: 0x1030
row_135: 0x1030
row_136: 0x8000
row_137: 0x4001
row_138: 0x0020
row_139: 0x0118
row_140: 0x2240
row_141: 0x0002
row_142: 0x2000
row_143: 0x0040
row_144: 0x0068
row_145: 0x8404
row_146: 0x2000
row_147: 0x0400
row_148: 0x0280
row_149: 0x0006
row_150: 0x0002
row_151: 0x0C00
row_152: 0x1008
row_153: 0x0600
row_154: 0x0400
row_155: 0x00A0
row_156: 0x0081
row_157: 0x0100
row_158: 0x0020
row_159: 0x0508
row_160: 0x0424
row_161: 0x0400
row_162: 0x0002
row_163: 0x2082
row_164: 0x0040
row_165: 0x0800
row_166: 0x0080
row_167: 0x008C
row_168: 0x0440
row_169: 0x008A
row_170: 0x0402
row_171: 0x0200
row_172: 0x0001
row_173: 0x2000
row_174: 0x0024
row_175: 0x08C0
row_176: 0x0800
row_177: 0x1088
row_178: 0x0200
row_179: 0x1200
row_180: 0x8080
row_181: 0x0088
row_182: 0x0109
row_183: 0x0400
row_184: 0x0100
row_185: 0xA002
row_186: 0x0004
row_187: 0x8008
row_188: 0x000A
row_189: 0x0A00
row_190: 0x0B00
row_191: 0x0010
row_192: 0x2140
row_193: 0x8840
row_194: 0x2401
row_195: 0x0818
row_196: 0x0500
row_197: 0x0020
row_198: 0x1000
row_199: 0x0008
row_200: 0x9000
row_201: 0x0080
row_202: 0x8000
row_203: 0xC001
row_204: 0x0A02
row_205: 0x2040
row_206: 0x0040
row_207: 0x8000
row_208: 0x4018
row_209: 0x0008
row_210: 0x0002
row_211: 0x4000
row_212: 0x10A0
row_213: 0x1200
row_214: 0x2000
row_215: 0x010A
row_216: 0x4400
row_217: 0x0800
row_218: 0x2410
row_219: 0x000A
row_220: 0xC200
row_221: 0x0020
row_222: 0x0120
row_223: 0x0800
row_224: 0x8050
row_225: 0x0800
row_226: 0x0040
row_227: 0x8004
row_228: 0x4080
row_229: 0x0440
row_230: 0x0100
row_231: 0x3040
row_232: 0x0001
row_233: 0x2020
row_234: 0x3400
row_235: 0x0088
row_236: 0x8010
row_237: 0x1006
row_238: 0x0008
row_239: 0x0A04
row_240: 0x0200
row_241: 0x0109
row_242: 0x4C00
row_243: 0x1400
row_244: 0x0240
row_245: 0x1000
row_246: 0x0288
row_247: 0x2804
row_248: 0x0008
row_249: 0x5020
row_250: 0xA001
row_251: 0x0020
row_252: 0x1001
row_253: 0x1000
row_254: 0x0010
row_255: 0x8000
