// ProsperityHDL Tile Data (256x16)
// Format: 16-bit hex values, one per row
// Total rows: 256
// Generated from SDT CIFAR-10 data

row_000: 0x0001
row_001: 0x2000
row_002: 0x0202
row_003: 0x0480
row_004: 0x8000
row_005: 0x0004
row_006: 0x0002
row_007: 0x1000
row_008: 0x000A
row_009: 0x2000
row_010: 0x0080
row_011: 0x0006
row_012: 0x4002
row_013: 0x0044
row_014: 0x8800
row_015: 0x8000
row_016: 0x0800
row_017: 0x0020
row_018: 0x0C00
row_019: 0x1000
row_020: 0x8000
row_021: 0x2001
row_022: 0x0020
row_023: 0x0088
row_024: 0x2200
row_025: 0x0002
row_026: 0x2000
row_027: 0x0040
row_028: 0x0400
row_029: 0x0008
row_030: 0x0280
row_031: 0x0006
row_032: 0x0C00
row_033: 0x0084
row_034: 0x0202
row_035: 0x4080
row_036: 0x8080
row_037: 0x0020
row_038: 0x0060
row_039: 0x0100
row_040: 0x0004
row_041: 0x0400
row_042: 0x0002
row_043: 0x0002
row_044: 0x0081
row_045: 0x0004
row_046: 0x0440
row_047: 0x0008
row_048: 0x0402
row_049: 0x8002
row_050: 0x2000
row_051: 0x0404
row_052: 0x4040
row_053: 0x0408
row_054: 0x0880
row_055: 0x0040
row_056: 0x0008
row_057: 0x0080
row_058: 0x8080
row_059: 0x2000
row_060: 0x0001
row_061: 0x0400
row_062: 0x0100
row_063: 0x8000
row_064: 0x0400
row_065: 0x2880
row_066: 0x0020
row_067: 0x0580
row_068: 0x8810
row_069: 0x0016
row_070: 0x2012
row_071: 0x0004
row_072: 0x008A
row_073: 0x6000
row_074: 0x0882
row_075: 0x0846
row_076: 0x5002
row_077: 0x0244
row_078: 0x8904
row_079: 0x8008
row_080: 0x0802
row_081: 0x0030
row_082: 0x0E00
row_083: 0x1002
row_084: 0x8800
row_085: 0x2041
row_086: 0x1021
row_087: 0x5088
row_088: 0x2208
row_089: 0x0106
row_090: 0x3001
row_091: 0x0442
row_092: 0x2400
row_093: 0x004A
row_094: 0x0A90
row_095: 0x1000
row_096: 0x4C00
row_097: 0x0010
row_098: 0x0212
row_099: 0x0008
row_100: 0xE080
row_101: 0x0028
row_102: 0x0660
row_103: 0x01C0
row_104: 0x0444
row_105: 0x8400
row_106: 0x4002
row_107: 0x0200
row_108: 0x0089
row_109: 0x0044
row_110: 0x8640
row_111: 0x0408
row_112: 0x0403
row_113: 0xC042
row_114: 0x2200
row_115: 0x0414
row_116: 0x4041
row_117: 0x2408
row_118: 0x0884
row_119: 0x8040
row_120: 0x400A
row_121: 0x3080
row_122: 0x8080
row_123: 0x2008
row_124: 0x0001
row_125: 0x1000
row_126: 0x3100
row_127: 0x8008
row_128: 0x0800
row_129: 0x0800
row_130: 0x8400
row_131: 0x0408
row_132: 0x0042
row_133: 0xC800
row_134: 0x0181
row_135: 0x0800
row_136: 0x1000
row_137: 0x1400
row_138: 0x0010
row_139: 0x8000
row_140: 0x1000
row_141: 0x0220
row_142: 0x4500
row_143: 0x0040
row_144: 0x4010
row_145: 0x0100
row_146: 0x1000
row_147: 0x4000
row_148: 0x5000
row_149: 0x1200
row_150: 0x4080
row_151: 0x0080
row_152: 0x0406
row_153: 0x8400
row_154: 0x2108
row_155: 0x1080
row_156: 0x1880
row_157: 0x0080
row_158: 0x0002
row_159: 0x0202
row_160: 0x4800
row_161: 0x0040
row_162: 0x0001
row_163: 0x0508
row_164: 0x0070
row_165: 0x080C
row_166: 0x0001
row_167: 0x2000
row_168: 0xA040
row_169: 0x0840
row_170: 0x0200
row_171: 0x5001
row_172: 0x4000
row_173: 0x0104
row_174: 0x4004
row_175: 0x1060
row_176: 0x40A0
row_177: 0x0888
row_178: 0x6080
row_179: 0x0500
row_180: 0x0100
row_181: 0x0300
row_182: 0x0022
row_183: 0xC000
row_184: 0x3000
row_185: 0x0040
row_186: 0x0300
row_187: 0x0401
row_188: 0x0020
row_189: 0x1080
row_190: 0x4000
row_191: 0x8001
row_192: 0x0020
row_193: 0x0206
row_194: 0x2001
row_195: 0x000C
row_196: 0x2000
row_197: 0x0300
row_198: 0x0024
row_199: 0x1000
row_200: 0x0020
row_201: 0x0020
row_202: 0x0008
row_203: 0x0401
row_204: 0x8000
row_205: 0xA000
row_206: 0x9400
row_207: 0x4240
row_208: 0x0800
row_209: 0x0400
row_210: 0x0814
row_211: 0x2000
row_212: 0x2001
row_213: 0x2000
row_214: 0x0180
row_215: 0x0130
row_216: 0x0412
row_217: 0x1800
row_218: 0x0020
row_219: 0x0010
row_220: 0x0001
row_221: 0x0050
row_222: 0x8004
row_223: 0x0100
row_224: 0x0080
row_225: 0x8000
row_226: 0x000C
row_227: 0x0010
row_228: 0x8006
row_229: 0x0010
row_230: 0x8081
row_231: 0x0800
row_232: 0xA000
row_233: 0x4200
row_234: 0x0200
row_235: 0x6080
row_236: 0x2210
row_237: 0x0008
row_238: 0x9800
row_239: 0x2000
row_240: 0x2041
row_241: 0x0100
row_242: 0x0850
row_243: 0x00B0
row_244: 0x0200
row_245: 0x2200
row_246: 0x0620
row_247: 0x0200
row_248: 0x0442
row_249: 0x0110
row_250: 0x8000
row_251: 0x4400
row_252: 0x0010
row_253: 0x000E
row_254: 0x1022
row_255: 0x0002
