// ProsperityHDL Tile Data (256x16)
// Format: 16-bit hex values, one per row
// Total rows: 256
// Generated from SDT CIFAR-10 data

row_000: 0x0001
row_001: 0x2000
row_002: 0x0202
row_003: 0x0480
row_004: 0x8000
row_005: 0x0004
row_006: 0x0002
row_007: 0x0080
row_008: 0x1000
row_009: 0x000A
row_010: 0x2000
row_011: 0x0080
row_012: 0x0006
row_013: 0x4002
row_014: 0x0044
row_015: 0x8800
row_016: 0x8000
row_017: 0x0002
row_018: 0x0020
row_019: 0x0040
row_020: 0x0800
row_021: 0x0020
row_022: 0x0C00
row_023: 0x8000
row_024: 0x2001
row_025: 0x0500
row_026: 0x0008
row_027: 0x0020
row_028: 0x0088
row_029: 0x2200
row_030: 0x0001
row_031: 0x0080
row_032: 0x0002
row_033: 0x0040
row_034: 0x2000
row_035: 0x1000
row_036: 0x0040
row_037: 0x0400
row_038: 0x0280
row_039: 0x0040
row_040: 0x0006
row_041: 0x0C00
row_042: 0x5000
row_043: 0x0084
row_044: 0x0110
row_045: 0x0202
row_046: 0x4080
row_047: 0x8080
row_048: 0x0020
row_049: 0x0060
row_050: 0x0100
row_051: 0x0004
row_052: 0x0400
row_053: 0x0002
row_054: 0x0002
row_055: 0x0081
row_056: 0x0004
row_057: 0x0440
row_058: 0x0008
row_059: 0x0402
row_060: 0x8002
row_061: 0x1020
row_062: 0x2000
row_063: 0x0404
row_064: 0x8081
row_065: 0x8000
row_066: 0x0292
row_067: 0x0580
row_068: 0x8002
row_069: 0x0104
row_070: 0x0022
row_071: 0x2480
row_072: 0x3100
row_073: 0x100A
row_074: 0x2A00
row_075: 0x02C0
row_076: 0x0026
row_077: 0x4006
row_078: 0x1044
row_079: 0xC800
row_080: 0x8010
row_081: 0x0100
row_082: 0x0220
row_083: 0x04C0
row_084: 0x8801
row_085: 0x0028
row_086: 0x0C10
row_087: 0x8900
row_088: 0x2841
row_089: 0x8000
row_090: 0x0048
row_091: 0x0422
row_092: 0x00A8
row_093: 0x0200
row_094: 0x0401
row_095: 0x0082
row_096: 0x1002
row_097: 0x0840
row_098: 0xA000
row_099: 0x1060
row_100: 0x1040
row_101: 0x0608
row_102: 0x4280
row_103: 0x0442
row_104: 0x4006
row_105: 0x0010
row_106: 0x4000
row_107: 0x00C6
row_108: 0x0930
row_109: 0x0200
row_110: 0x0080
row_111: 0x0100
row_112: 0x2020
row_113: 0x0001
row_114: 0x0108
row_115: 0xC004
row_116: 0x0408
row_117: 0x0302
row_118: 0x0182
row_119: 0x2181
row_120: 0x0010
row_121: 0x0020
row_122: 0x4000
row_123: 0x8502
row_124: 0x9012
row_125: 0x0080
row_126: 0x200C
row_127: 0x4504
row_128: 0x0080
row_129: 0x3200
row_130: 0x3040
row_131: 0x0001
row_132: 0x2020
row_133: 0x3400
row_134: 0x0088
row_135: 0x8010
row_136: 0x1006
row_137: 0x0008
row_138: 0x0A04
row_139: 0x0200
row_140: 0x0109
row_141: 0x4C00
row_142: 0x1400
row_143: 0x0240
row_144: 0x0288
row_145: 0x2804
row_146: 0x0020
row_147: 0x0008
row_148: 0x5020
row_149: 0xA001
row_150: 0x0020
row_151: 0x1001
row_152: 0x1000
row_153: 0x0010
row_154: 0x8000
row_155: 0x1000
row_156: 0x0220
row_157: 0x4500
row_158: 0x0001
row_159: 0x4000
row_160: 0x0040
row_161: 0x4010
row_162: 0x1000
row_163: 0x4000
row_164: 0x5000
row_165: 0x1200
row_166: 0x4080
row_167: 0x0040
row_168: 0x0080
row_169: 0x0406
row_170: 0x8400
row_171: 0x2108
row_172: 0x1080
row_173: 0x1880
row_174: 0x0002
row_175: 0x0202
row_176: 0x4800
row_177: 0x0040
row_178: 0x0001
row_179: 0x0508
row_180: 0x0070
row_181: 0x080C
row_182: 0x0001
row_183: 0x2000
row_184: 0xA040
row_185: 0x0840
row_186: 0x0040
row_187: 0x0200
row_188: 0x5001
row_189: 0x0020
row_190: 0x4000
row_191: 0x0104
row_192: 0x4004
row_193: 0x1060
row_194: 0x40A0
row_195: 0x0888
row_196: 0x6080
row_197: 0x0500
row_198: 0x0100
row_199: 0x0300
row_200: 0x0022
row_201: 0xC000
row_202: 0x3000
row_203: 0x0040
row_204: 0x0300
row_205: 0x0401
row_206: 0x1080
row_207: 0x4000
row_208: 0x8001
row_209: 0x0020
row_210: 0x0206
row_211: 0x2001
row_212: 0x000C
row_213: 0x2000
row_214: 0x0300
row_215: 0x0024
row_216: 0x1000
row_217: 0x0800
row_218: 0x0020
row_219: 0x0020
row_220: 0x0008
row_221: 0x0401
row_222: 0x8000
row_223: 0xA000
row_224: 0x9400
row_225: 0x4240
row_226: 0x0800
row_227: 0x0400
row_228: 0x0814
row_229: 0x2000
row_230: 0x2001
row_231: 0x2000
row_232: 0x0180
row_233: 0x0130
row_234: 0x4000
row_235: 0x0412
row_236: 0x1800
row_237: 0x0020
row_238: 0x0010
row_239: 0x0001
row_240: 0x0050
row_241: 0x8004
row_242: 0x0100
row_243: 0x8000
row_244: 0x000C
row_245: 0x0010
row_246: 0x8006
row_247: 0x0008
row_248: 0x0010
row_249: 0x0010
row_250: 0x8081
row_251: 0x0800
row_252: 0xA000
row_253: 0x4200
row_254: 0x6080
row_255: 0x2210
