// ProSparsity Hardware Test Data (256 neurons × 16 timesteps)
// Format: 16-bit hex values, one per neuron row
// Total neurons: 256
// Raw spike data for ProSparsity reuse detection

neuron_000: 0x0604
neuron_001: 0x0222
neuron_002: 0x1444
neuron_003: 0x4044
neuron_004: 0x0032
neuron_005: 0x5848
neuron_006: 0x3812
neuron_007: 0x0200
neuron_008: 0x2140
neuron_009: 0x0801
neuron_010: 0x0C50
neuron_011: 0x0080
neuron_012: 0x0080
neuron_013: 0x5000
neuron_014: 0x6010
neuron_015: 0x100C
neuron_016: 0x0441
neuron_017: 0x2100
neuron_018: 0x2584
neuron_019: 0x4030
neuron_020: 0x0109
neuron_021: 0x0000
neuron_022: 0x00A2
neuron_023: 0x0203
neuron_024: 0x0380
neuron_025: 0x0390
neuron_026: 0x4050
neuron_027: 0x8080
neuron_028: 0x0000
neuron_029: 0x2000
neuron_030: 0x00C0
neuron_031: 0x0082
neuron_032: 0x0840
neuron_033: 0x0040
neuron_034: 0x4814
neuron_035: 0x0000
neuron_036: 0x0040
neuron_037: 0x0400
neuron_038: 0x4023
neuron_039: 0x0000
neuron_040: 0x8002
neuron_041: 0x0018
neuron_042: 0x0008
neuron_043: 0x2048
neuron_044: 0x1010
neuron_045: 0x1000
neuron_046: 0x0048
neuron_047: 0x8140
neuron_048: 0x1008
neuron_049: 0xC082
neuron_050: 0x0520
neuron_051: 0x0300
neuron_052: 0x0605
neuron_053: 0x000C
neuron_054: 0x0414
neuron_055: 0x0101
neuron_056: 0x8040
neuron_057: 0x0028
neuron_058: 0x040E
neuron_059: 0x0080
neuron_060: 0x0680
neuron_061: 0x0410
neuron_062: 0xC000
neuron_063: 0x0C80
neuron_064: 0x0000
neuron_065: 0x0510
neuron_066: 0x80C0
neuron_067: 0x4010
neuron_068: 0x2005
neuron_069: 0x8022
neuron_070: 0x0002
neuron_071: 0x0000
neuron_072: 0x0008
neuron_073: 0xC000
neuron_074: 0x9082
neuron_075: 0x2C00
neuron_076: 0x1080
neuron_077: 0x1040
neuron_078: 0x5030
neuron_079: 0x0744
neuron_080: 0x0008
neuron_081: 0x0702
neuron_082: 0x0009
neuron_083: 0xC000
neuron_084: 0x1421
neuron_085: 0x0000
neuron_086: 0x101E
neuron_087: 0x0504
neuron_088: 0x2201
neuron_089: 0x0600
neuron_090: 0x0000
neuron_091: 0x0400
neuron_092: 0x0000
neuron_093: 0x1022
neuron_094: 0x0112
neuron_095: 0x0400
neuron_096: 0x6009
neuron_097: 0x4008
neuron_098: 0x2442
neuron_099: 0x3042
neuron_100: 0xA800
neuron_101: 0x0084
neuron_102: 0x2004
neuron_103: 0xA01A
neuron_104: 0x0000
neuron_105: 0xF480
neuron_106: 0xA20A
neuron_107: 0x1000
neuron_108: 0x0002
neuron_109: 0x8080
neuron_110: 0x0600
neuron_111: 0x0100
neuron_112: 0x0001
neuron_113: 0x0340
neuron_114: 0x0000
neuron_115: 0x4021
neuron_116: 0x0000
neuron_117: 0x2044
neuron_118: 0x0C28
neuron_119: 0x8007
neuron_120: 0x1089
neuron_121: 0x8000
neuron_122: 0x0840
neuron_123: 0x5380
neuron_124: 0xC020
neuron_125: 0x224A
neuron_126: 0x000C
neuron_127: 0x0C80
neuron_128: 0x0000
neuron_129: 0x0000
neuron_130: 0x0000
neuron_131: 0x0000
neuron_132: 0x0000
neuron_133: 0x0000
neuron_134: 0x0000
neuron_135: 0x0000
neuron_136: 0x0000
neuron_137: 0x0000
neuron_138: 0x0000
neuron_139: 0x0000
neuron_140: 0x0000
neuron_141: 0x0000
neuron_142: 0x0000
neuron_143: 0x0040
neuron_144: 0x0000
neuron_145: 0x0000
neuron_146: 0x2000
neuron_147: 0x0400
neuron_148: 0x0000
neuron_149: 0x0000
neuron_150: 0x0002
neuron_151: 0x0000
neuron_152: 0x0000
neuron_153: 0x0000
neuron_154: 0x0400
neuron_155: 0x0000
neuron_156: 0x0000
neuron_157: 0x0000
neuron_158: 0x0000
neuron_159: 0x0000
neuron_160: 0x0000
neuron_161: 0x0000
neuron_162: 0x0000
neuron_163: 0x0000
neuron_164: 0x0040
neuron_165: 0x0800
neuron_166: 0x0000
neuron_167: 0x0000
neuron_168: 0x0000
neuron_169: 0x0000
neuron_170: 0x0000
neuron_171: 0x0200
neuron_172: 0x0000
neuron_173: 0x0000
neuron_174: 0x0000
neuron_175: 0x0000
neuron_176: 0x0000
neuron_177: 0x0000
neuron_178: 0x0000
neuron_179: 0x0000
neuron_180: 0x0000
neuron_181: 0x0088
neuron_182: 0x0000
neuron_183: 0x0000
neuron_184: 0x0000
neuron_185: 0x0000
neuron_186: 0x0004
neuron_187: 0x0000
neuron_188: 0x0000
neuron_189: 0x0000
neuron_190: 0x0000
neuron_191: 0x0000
neuron_192: 0x0000
neuron_193: 0x0000
neuron_194: 0x0000
neuron_195: 0x0000
neuron_196: 0x0000
neuron_197: 0x0020
neuron_198: 0x0000
neuron_199: 0x0000
neuron_200: 0x0000
neuron_201: 0x0000
neuron_202: 0x0000
neuron_203: 0x0000
neuron_204: 0x0000
neuron_205: 0x0000
neuron_206: 0x0000
neuron_207: 0x8000
neuron_208: 0x0000
neuron_209: 0x0000
neuron_210: 0x0000
neuron_211: 0x4000
neuron_212: 0x0000
neuron_213: 0x0000
neuron_214: 0x0000
neuron_215: 0x0000
neuron_216: 0x0000
neuron_217: 0x0800
neuron_218: 0x0000
neuron_219: 0x0000
neuron_220: 0x0000
neuron_221: 0x0020
neuron_222: 0x0000
neuron_223: 0x0000
neuron_224: 0x0000
neuron_225: 0x0000
neuron_226: 0x0040
neuron_227: 0x0000
neuron_228: 0x0000
neuron_229: 0x0000
neuron_230: 0x0000
neuron_231: 0x0000
neuron_232: 0x0000
neuron_233: 0x0000
neuron_234: 0x0000
neuron_235: 0x0000
neuron_236: 0x0000
neuron_237: 0x0000
neuron_238: 0x0000
neuron_239: 0x0000
neuron_240: 0x0000
neuron_241: 0x0000
neuron_242: 0x0000
neuron_243: 0x0000
neuron_244: 0x0000
neuron_245: 0x1000
neuron_246: 0x0000
neuron_247: 0x0000
neuron_248: 0x0000
neuron_249: 0x0000
neuron_250: 0x0000
neuron_251: 0x0000
neuron_252: 0x0000
neuron_253: 0x0000
neuron_254: 0x0000
neuron_255: 0x0000
