// ProSparsity Hardware Test Data (256 neurons × 16 timesteps)
// Format: 16-bit hex values, one per neuron row
// Total neurons: 256
// Raw spike data for ProSparsity reuse detection

neuron_000: 0x0004
neuron_001: 0x69EA
neuron_002: 0x0270
neuron_003: 0xA068
neuron_004: 0x8A95
neuron_005: 0x8200
neuron_006: 0x2010
neuron_007: 0x58A0
neuron_008: 0x2060
neuron_009: 0x8910
neuron_010: 0x2056
neuron_011: 0x4802
neuron_012: 0x0B80
neuron_013: 0xCB20
neuron_014: 0x21D2
neuron_015: 0x1104
neuron_016: 0xEC02
neuron_017: 0x0801
neuron_018: 0x2C08
neuron_019: 0xC058
neuron_020: 0x980B
neuron_021: 0x5180
neuron_022: 0x0002
neuron_023: 0x2828
neuron_024: 0x1811
neuron_025: 0x8C40
neuron_026: 0xD402
neuron_027: 0x09EA
neuron_028: 0x4C06
neuron_029: 0x0721
neuron_030: 0x0000
neuron_031: 0x880C
neuron_032: 0x003A
neuron_033: 0x5419
neuron_034: 0x1104
neuron_035: 0x901C
neuron_036: 0x0080
neuron_037: 0x840C
neuron_038: 0x6263
neuron_039: 0x6438
neuron_040: 0x0982
neuron_041: 0x4050
neuron_042: 0x8009
neuron_043: 0x0403
neuron_044: 0x0000
neuron_045: 0x13C4
neuron_046: 0x0331
neuron_047: 0x0948
neuron_048: 0x000D
neuron_049: 0x69AA
neuron_050: 0x2220
neuron_051: 0x8072
neuron_052: 0x8510
neuron_053: 0xC880
neuron_054: 0xA040
neuron_055: 0x4CB1
neuron_056: 0x2400
neuron_057: 0x102C
neuron_058: 0xE444
neuron_059: 0x5020
neuron_060: 0x8900
neuron_061: 0xC000
neuron_062: 0xA074
neuron_063: 0x0402
neuron_064: 0xE086
neuron_065: 0x4801
neuron_066: 0x3028
neuron_067: 0xA868
neuron_068: 0xA39B
neuron_069: 0x4887
neuron_070: 0x8580
neuron_071: 0x1C02
neuron_072: 0xA800
neuron_073: 0x0057
neuron_074: 0xC00A
neuron_075: 0x09A0
neuron_076: 0x8C8C
neuron_077: 0x1189
neuron_078: 0x6800
neuron_079: 0xAC00
neuron_080: 0x243A
neuron_081: 0x851A
neuron_082: 0x1110
neuron_083: 0x8011
neuron_084: 0x24B0
neuron_085: 0x848D
neuron_086: 0x112B
neuron_087: 0xA438
neuron_088: 0x0280
neuron_089: 0x2050
neuron_090: 0xC00A
neuron_091: 0x1802
neuron_092: 0x0208
neuron_093: 0x502C
neuron_094: 0x1174
neuron_095: 0x0C00
neuron_096: 0x0004
neuron_097: 0x6022
neuron_098: 0x0265
neuron_099: 0x8048
neuron_100: 0x8C80
neuron_101: 0x0800
neuron_102: 0x3240
neuron_103: 0x4AA0
neuron_104: 0x0CE8
neuron_105: 0x009A
neuron_106: 0x3244
neuron_107: 0x4102
neuron_108: 0x0801
neuron_109: 0x4000
neuron_110: 0xA090
neuron_111: 0x0000
neuron_112: 0xF080
neuron_113: 0x0401
neuron_114: 0x2018
neuron_115: 0x8008
neuron_116: 0x400B
neuron_117: 0x0883
neuron_118: 0x0400
neuron_119: 0x2819
neuron_120: 0x0800
neuron_121: 0x0040
neuron_122: 0xC022
neuron_123: 0xA92A
neuron_124: 0x8404
neuron_125: 0x2121
neuron_126: 0x0003
neuron_127: 0x2014
neuron_128: 0x4438
neuron_129: 0xB431
neuron_130: 0x1580
neuron_131: 0x0152
neuron_132: 0x1482
neuron_133: 0x0248
neuron_134: 0x04AD
neuron_135: 0xA45A
neuron_136: 0x005C
neuron_137: 0x0850
neuron_138: 0x0008
neuron_139: 0x2492
neuron_140: 0x4203
neuron_141: 0x1202
neuron_142: 0x0130
neuron_143: 0x8C08
neuron_144: 0x0004
neuron_145: 0x592A
neuron_146: 0x0028
neuron_147: 0x0040
neuron_148: 0x8080
neuron_149: 0x4300
neuron_150: 0x2000
neuron_151: 0x4C80
neuron_152: 0x80C0
neuron_153: 0x0118
neuron_154: 0x7045
neuron_155: 0x0000
neuron_156: 0x0008
neuron_157: 0x4000
neuron_158: 0x0110
neuron_159: 0x0000
neuron_160: 0xF480
neuron_161: 0x6801
neuron_162: 0x0008
neuron_163: 0x8900
neuron_164: 0xA00A
neuron_165: 0x0287
neuron_166: 0x0000
neuron_167: 0x2809
neuron_168: 0x0800
neuron_169: 0x0000
neuron_170: 0xC008
neuron_171: 0x4062
neuron_172: 0x1804
neuron_173: 0x0300
neuron_174: 0x0004
neuron_175: 0x2004
neuron_176: 0x4430
neuron_177: 0x0480
neuron_178: 0x1000
neuron_179: 0x8014
neuron_180: 0x1C80
neuron_181: 0x0548
neuron_182: 0x0063
neuron_183: 0x8E58
neuron_184: 0x0290
neuron_185: 0x4042
neuron_186: 0x4448
neuron_187: 0x0412
neuron_188: 0x400B
neuron_189: 0x0820
neuron_190: 0x0120
neuron_191: 0x0808
neuron_192: 0x0004
neuron_193: 0x620A
neuron_194: 0x0028
neuron_195: 0x0040
neuron_196: 0x8C02
neuron_197: 0x8002
neuron_198: 0x3000
neuron_199: 0x4080
neuron_200: 0x0000
neuron_201: 0x040C
neuron_202: 0xB245
neuron_203: 0x1100
neuron_204: 0x0808
neuron_205: 0xC000
neuron_206: 0x0012
neuron_207: 0x0001
neuron_208: 0xD004
neuron_209: 0x0081
neuron_210: 0x0808
neuron_211: 0x8088
neuron_212: 0x200E
neuron_213: 0x0222
neuron_214: 0x8000
neuron_215: 0x0800
neuron_216: 0x8000
neuron_217: 0x0000
neuron_218: 0xE00A
neuron_219: 0x2160
neuron_220: 0x0484
neuron_221: 0x2181
neuron_222: 0x0015
neuron_223: 0x0810
neuron_224: 0x2020
neuron_225: 0x4018
neuron_226: 0x1180
neuron_227: 0x8010
neuron_228: 0x0400
neuron_229: 0x060A
neuron_230: 0x0043
neuron_231: 0x2858
neuron_232: 0x0210
neuron_233: 0x1050
neuron_234: 0xE008
neuron_235: 0x0092
neuron_236: 0x0100
neuron_237: 0x0000
neuron_238: 0x4120
neuron_239: 0x8800
neuron_240: 0x0004
neuron_241: 0xC046
neuron_242: 0x00A0
neuron_243: 0x0140
neuron_244: 0x8060
neuron_245: 0x2000
neuron_246: 0x2900
neuron_247: 0x2884
neuron_248: 0x8401
neuron_249: 0x0084
neuron_250: 0x5145
neuron_251: 0x0000
neuron_252: 0x0418
neuron_253: 0x7000
neuron_254: 0x0050
neuron_255: 0x0206
