// ProSparsity Hardware Test Data (256 neurons × 16 timesteps)
// Format: 16-bit hex values, one per neuron row
// Total neurons: 256
// Raw spike data for ProSparsity reuse detection

neuron_000: 0x0004
neuron_001: 0x69EA
neuron_002: 0x0270
neuron_003: 0xA468
neuron_004: 0x8AB5
neuron_005: 0x8202
neuron_006: 0x2110
neuron_007: 0x58A2
neuron_008: 0x2060
neuron_009: 0x8931
neuron_010: 0x205E
neuron_011: 0x4802
neuron_012: 0x0B80
neuron_013: 0xCBA0
neuron_014: 0x23D2
neuron_015: 0x5104
neuron_016: 0xED52
neuron_017: 0x0809
neuron_018: 0x2C8C
neuron_019: 0xD858
neuron_020: 0x980B
neuron_021: 0x5180
neuron_022: 0x0002
neuron_023: 0x2928
neuron_024: 0x1817
neuron_025: 0x8C40
neuron_026: 0xF402
neuron_027: 0x09EB
neuron_028: 0x4C06
neuron_029: 0x0723
neuron_030: 0x0010
neuron_031: 0x880C
neuron_032: 0x00BA
neuron_033: 0x541B
neuron_034: 0x1124
neuron_035: 0x941C
neuron_036: 0x0880
neuron_037: 0x8C0C
neuron_038: 0x6263
neuron_039: 0x6439
neuron_040: 0x09F2
neuron_041: 0x4050
neuron_042: 0x8809
neuron_043: 0x0403
neuron_044: 0x0000
neuron_045: 0x73C4
neuron_046: 0x2339
neuron_047: 0x0948
neuron_048: 0x008D
neuron_049: 0x69AA
neuron_050: 0x2222
neuron_051: 0xC272
neuron_052: 0x8730
neuron_053: 0xC882
neuron_054: 0xA140
neuron_055: 0x4CB1
neuron_056: 0x2400
neuron_057: 0x102D
neuron_058: 0xF444
neuron_059: 0x5020
neuron_060: 0x8D00
neuron_061: 0xC080
neuron_062: 0xA074
neuron_063: 0x4406
neuron_064: 0xE1C6
neuron_065: 0x4809
neuron_066: 0x3028
neuron_067: 0xB868
neuron_068: 0xA39B
neuron_069: 0x4887
neuron_070: 0x8580
neuron_071: 0x1D02
neuron_072: 0xA802
neuron_073: 0x0057
neuron_074: 0xE00A
neuron_075: 0x09A1
neuron_076: 0x8CAC
neuron_077: 0x118B
neuron_078: 0x6810
neuron_079: 0xAC00
neuron_080: 0x26BA
neuron_081: 0x851A
neuron_082: 0x1110
neuron_083: 0x8011
neuron_084: 0x24B0
neuron_085: 0x848D
neuron_086: 0x112B
neuron_087: 0xA43D
neuron_088: 0x3280
neuron_089: 0x2050
neuron_090: 0xC80A
neuron_091: 0x1803
neuron_092: 0x0208
neuron_093: 0x512C
neuron_094: 0x317C
neuron_095: 0x0C00
neuron_096: 0x0084
neuron_097: 0x6422
neuron_098: 0x0265
neuron_099: 0xC448
neuron_100: 0x8EA0
neuron_101: 0x0802
neuron_102: 0x3340
neuron_103: 0x4AA2
neuron_104: 0x0CE8
neuron_105: 0x00BB
neuron_106: 0x324C
neuron_107: 0x4102
neuron_108: 0x0C01
neuron_109: 0x4080
neuron_110: 0xA090
neuron_111: 0x4000
neuron_112: 0xF1D0
neuron_113: 0x0489
neuron_114: 0x209C
neuron_115: 0x9808
neuron_116: 0xC00B
neuron_117: 0x0883
neuron_118: 0x0400
neuron_119: 0x2919
neuron_120: 0x0806
neuron_121: 0x0040
neuron_122: 0xE022
neuron_123: 0xA92B
neuron_124: 0x8424
neuron_125: 0x2123
neuron_126: 0x0013
neuron_127: 0x2014
neuron_128: 0x46B8
neuron_129: 0xB431
neuron_130: 0x1580
neuron_131: 0x0152
neuron_132: 0x1C92
neuron_133: 0x0A48
neuron_134: 0x04AD
neuron_135: 0xA45B
neuron_136: 0x305C
neuron_137: 0x0851
neuron_138: 0x0808
neuron_139: 0x2493
neuron_140: 0x4203
neuron_141: 0x7702
neuron_142: 0x2138
neuron_143: 0xAC08
neuron_144: 0x0004
neuron_145: 0x5D2A
neuron_146: 0x002A
neuron_147: 0x4440
neuron_148: 0x82A0
neuron_149: 0x4302
neuron_150: 0x2100
neuron_151: 0x4C82
neuron_152: 0x80C0
neuron_153: 0x0139
neuron_154: 0x704D
neuron_155: 0x0000
neuron_156: 0x0408
neuron_157: 0x4080
neuron_158: 0x0110
neuron_159: 0x4000
neuron_160: 0xF5D0
neuron_161: 0x6809
neuron_162: 0x008C
neuron_163: 0x9900
neuron_164: 0xA00A
neuron_165: 0x0287
neuron_166: 0x0000
neuron_167: 0x2909
neuron_168: 0x0806
neuron_169: 0x0000
neuron_170: 0xE008
neuron_171: 0x4863
neuron_172: 0x1824
neuron_173: 0x0302
neuron_174: 0x0014
neuron_175: 0x2004
neuron_176: 0x46B0
neuron_177: 0x0480
neuron_178: 0x1000
neuron_179: 0xC414
neuron_180: 0x1C80
neuron_181: 0x0D48
neuron_182: 0x0063
neuron_183: 0x8E5D
neuron_184: 0x0290
neuron_185: 0x404A
neuron_186: 0x4C48
neuron_187: 0x0413
neuron_188: 0x400B
neuron_189: 0x6820
neuron_190: 0x2128
neuron_191: 0x0908
neuron_192: 0x0004
neuron_193: 0x660A
neuron_194: 0x002A
neuron_195: 0x4440
neuron_196: 0x8EA2
neuron_197: 0x8002
neuron_198: 0x3100
neuron_199: 0x4082
neuron_200: 0x0000
neuron_201: 0x042D
neuron_202: 0xB24D
neuron_203: 0x1100
neuron_204: 0x0808
neuron_205: 0xC080
neuron_206: 0x0012
neuron_207: 0x4001
neuron_208: 0xD154
neuron_209: 0x0089
neuron_210: 0x088C
neuron_211: 0x9888
neuron_212: 0xA00E
neuron_213: 0x0222
neuron_214: 0x8000
neuron_215: 0x0900
neuron_216: 0x8006
neuron_217: 0x0000
neuron_218: 0xE00A
neuron_219: 0x2961
neuron_220: 0x04A4
neuron_221: 0x2183
neuron_222: 0x0015
neuron_223: 0x0810
neuron_224: 0x20A0
neuron_225: 0x4018
neuron_226: 0x1180
neuron_227: 0x8010
neuron_228: 0x0C00
neuron_229: 0x0E0A
neuron_230: 0x0043
neuron_231: 0x2859
neuron_232: 0x0210
neuron_233: 0x1050
neuron_234: 0xE808
neuron_235: 0x0093
neuron_236: 0x0100
neuron_237: 0x6100
neuron_238: 0x6128
neuron_239: 0x8900
neuron_240: 0x0084
neuron_241: 0xC446
neuron_242: 0x00A2
neuron_243: 0x4540
neuron_244: 0x8260
neuron_245: 0x2002
neuron_246: 0x2900
neuron_247: 0x3886
neuron_248: 0x8401
neuron_249: 0x00A5
neuron_250: 0x514D
neuron_251: 0x0000
neuron_252: 0x0418
neuron_253: 0x7080
neuron_254: 0x0050
neuron_255: 0x4206
