// ProSparsity Hardware Test Data (256 neurons × 16 timesteps)
// Format: 16-bit hex values, one per neuron row
// Total neurons: 256
// Raw spike data for ProSparsity reuse detection

neuron_000: 0x0004
neuron_001: 0x6DEA
neuron_002: 0x0270
neuron_003: 0xEE78
neuron_004: 0x8AF5
neuron_005: 0x8202
neuron_006: 0x2110
neuron_007: 0x5CA2
neuron_008: 0x2060
neuron_009: 0x8931
neuron_010: 0x205E
neuron_011: 0x4802
neuron_012: 0x0F80
neuron_013: 0xCBA0
neuron_014: 0x2BD2
neuron_015: 0x5104
neuron_016: 0xED56
neuron_017: 0x280D
neuron_018: 0x6C8C
neuron_019: 0xD858
neuron_020: 0x98CB
neuron_021: 0x5180
neuron_022: 0x0002
neuron_023: 0x292A
neuron_024: 0x181F
neuron_025: 0xCC40
neuron_026: 0xF402
neuron_027: 0x0BEB
neuron_028: 0x4C26
neuron_029: 0x0723
neuron_030: 0x0C10
neuron_031: 0x8A0C
neuron_032: 0x02BE
neuron_033: 0x543B
neuron_034: 0x1124
neuron_035: 0x941C
neuron_036: 0x0880
neuron_037: 0x8C0C
neuron_038: 0x6267
neuron_039: 0x6439
neuron_040: 0x09F2
neuron_041: 0x4050
neuron_042: 0x8809
neuron_043: 0x0403
neuron_044: 0x0008
neuron_045: 0x73C4
neuron_046: 0x2339
neuron_047: 0x0948
neuron_048: 0x008D
neuron_049: 0x6DAA
neuron_050: 0x2222
neuron_051: 0xCA72
neuron_052: 0x87F0
neuron_053: 0xC882
neuron_054: 0xA140
neuron_055: 0x4CB1
neuron_056: 0x2600
neuron_057: 0x102D
neuron_058: 0xF444
neuron_059: 0x5020
neuron_060: 0x8D00
neuron_061: 0xC081
neuron_062: 0xA874
neuron_063: 0x4406
neuron_064: 0xE1D6
neuron_065: 0x6809
neuron_066: 0x7028
neuron_067: 0xB868
neuron_068: 0xA3DB
neuron_069: 0x4887
neuron_070: 0x8580
neuron_071: 0x1D02
neuron_072: 0xA80A
neuron_073: 0x0257
neuron_074: 0xE28A
neuron_075: 0x09A1
neuron_076: 0xCCAC
neuron_077: 0x118B
neuron_078: 0x6810
neuron_079: 0xAE00
neuron_080: 0x26BE
neuron_081: 0x857A
neuron_082: 0x1110
neuron_083: 0x8015
neuron_084: 0x24B0
neuron_085: 0x848D
neuron_086: 0x112F
neuron_087: 0xA43D
neuron_088: 0x3280
neuron_089: 0x2050
neuron_090: 0xC88A
neuron_091: 0x1803
neuron_092: 0x0208
neuron_093: 0x512C
neuron_094: 0x317C
neuron_095: 0x0C00
neuron_096: 0x0084
neuron_097: 0x6422
neuron_098: 0x0265
neuron_099: 0xCC58
neuron_100: 0x8EE0
neuron_101: 0x0802
neuron_102: 0x3340
neuron_103: 0x4AA2
neuron_104: 0x0EE8
neuron_105: 0x00BB
neuron_106: 0x324C
neuron_107: 0x4102
neuron_108: 0x0C01
neuron_109: 0x4081
neuron_110: 0xA890
neuron_111: 0x4000
neuron_112: 0xF1D4
neuron_113: 0x2489
neuron_114: 0x609C
neuron_115: 0x9808
neuron_116: 0xC0CB
neuron_117: 0x0883
neuron_118: 0x0400
neuron_119: 0x291B
neuron_120: 0x080E
neuron_121: 0x0040
neuron_122: 0xE022
neuron_123: 0xA92B
neuron_124: 0xC424
neuron_125: 0x2123
neuron_126: 0x0813
neuron_127: 0x2214
neuron_128: 0x46B8
neuron_129: 0xB431
neuron_130: 0x1580
neuron_131: 0x0152
neuron_132: 0x1C92
neuron_133: 0x0A68
neuron_134: 0x04AD
neuron_135: 0xA45B
neuron_136: 0x305C
neuron_137: 0x0851
neuron_138: 0x0888
neuron_139: 0x2493
neuron_140: 0x420B
neuron_141: 0x7702
neuron_142: 0x2138
neuron_143: 0xAC08
neuron_144: 0x0084
neuron_145: 0x7D2A
neuron_146: 0x002A
neuron_147: 0x4C50
neuron_148: 0x82E0
neuron_149: 0x6302
neuron_150: 0x2100
neuron_151: 0x4C82
neuron_152: 0xC0C0
neuron_153: 0x0139
neuron_154: 0x704F
neuron_155: 0x0000
neuron_156: 0x0408
neuron_157: 0x4080
neuron_158: 0x0910
neuron_159: 0x4000
neuron_160: 0xF5D4
neuron_161: 0x6809
neuron_162: 0x408C
neuron_163: 0x9900
neuron_164: 0xA0CA
neuron_165: 0x0287
neuron_166: 0x0000
neuron_167: 0x290B
neuron_168: 0x080E
neuron_169: 0x0200
neuron_170: 0xE088
neuron_171: 0x4863
neuron_172: 0x5824
neuron_173: 0x0302
neuron_174: 0x0814
neuron_175: 0x2204
neuron_176: 0x46B4
neuron_177: 0x04E0
neuron_178: 0x1000
neuron_179: 0xC414
neuron_180: 0x1C80
neuron_181: 0x0D48
neuron_182: 0x0067
neuron_183: 0x8E5D
neuron_184: 0x0290
neuron_185: 0x404A
neuron_186: 0x4CC8
neuron_187: 0x0453
neuron_188: 0x400B
neuron_189: 0x6820
neuron_190: 0x2128
neuron_191: 0x0948
neuron_192: 0x0084
neuron_193: 0x660A
neuron_194: 0x002A
neuron_195: 0x4C50
neuron_196: 0x8EE2
neuron_197: 0x8002
neuron_198: 0x3100
neuron_199: 0x4082
neuron_200: 0x4000
neuron_201: 0x042D
neuron_202: 0xB24F
neuron_203: 0x1100
neuron_204: 0x0C08
neuron_205: 0xC080
neuron_206: 0x0812
neuron_207: 0x4001
neuron_208: 0xD154
neuron_209: 0x2089
neuron_210: 0x488C
neuron_211: 0x9888
neuron_212: 0xA0CE
neuron_213: 0x0222
neuron_214: 0x8000
neuron_215: 0x0902
neuron_216: 0x800E
neuron_217: 0x0200
neuron_218: 0xE08A
neuron_219: 0x2B61
neuron_220: 0x44A4
neuron_221: 0x2183
neuron_222: 0x0815
neuron_223: 0x0A10
neuron_224: 0x22A4
neuron_225: 0x4078
neuron_226: 0x1180
neuron_227: 0x8010
neuron_228: 0x0C00
neuron_229: 0x0E0A
neuron_230: 0x0047
neuron_231: 0x285D
neuron_232: 0x0210
neuron_233: 0x1050
neuron_234: 0xE888
neuron_235: 0x00D3
neuron_236: 0x0108
neuron_237: 0x6100
neuron_238: 0x6128
neuron_239: 0x8940
neuron_240: 0x0084
neuron_241: 0xE446
neuron_242: 0x00A2
neuron_243: 0x4D50
neuron_244: 0x8260
neuron_245: 0x2002
neuron_246: 0x2900
neuron_247: 0x3A86
neuron_248: 0xC401
neuron_249: 0x00A5
neuron_250: 0x514F
neuron_251: 0x0000
neuron_252: 0x0418
neuron_253: 0x7080
neuron_254: 0x0850
neuron_255: 0x4206
