// ProsperityHDL Tile Data (256x16)
// Format: 16-bit hex values, one per row
// Total rows: 256
// Generated from SDT CIFAR-10 data

row_000: 0x0001
row_001: 0x2000
row_002: 0x0202
row_003: 0x0480
row_004: 0x8000
row_005: 0x0004
row_006: 0x0002
row_007: 0x1000
row_008: 0x000A
row_009: 0x2000
row_010: 0x0080
row_011: 0x0006
row_012: 0x4002
row_013: 0x0044
row_014: 0x8800
row_015: 0x0020
row_016: 0x8000
row_017: 0x0800
row_018: 0x0020
row_019: 0x0C00
row_020: 0x8000
row_021: 0x2001
row_022: 0x0020
row_023: 0x8000
row_024: 0x0088
row_025: 0x2200
row_026: 0x0002
row_027: 0x2000
row_028: 0x0040
row_029: 0x0400
row_030: 0x0280
row_031: 0x4000
row_032: 0x0006
row_033: 0x0400
row_034: 0x0C00
row_035: 0x0100
row_036: 0x0080
row_037: 0x0084
row_038: 0x0202
row_039: 0x0001
row_040: 0x1020
row_041: 0x4080
row_042: 0x8080
row_043: 0x0020
row_044: 0x0060
row_045: 0x0100
row_046: 0x2004
row_047: 0x0004
row_048: 0x0400
row_049: 0x0002
row_050: 0x0002
row_051: 0x0081
row_052: 0x0004
row_053: 0x0440
row_054: 0x8000
row_055: 0x0008
row_056: 0x0402
row_057: 0x8002
row_058: 0x2000
row_059: 0x0404
row_060: 0x4040
row_061: 0x0408
row_062: 0x0880
row_063: 0x0008
row_064: 0x0101
row_065: 0x3008
row_066: 0x0203
row_067: 0x0490
row_068: 0x8004
row_069: 0x0006
row_070: 0x0802
row_071: 0x8000
row_072: 0x020A
row_073: 0x2002
row_074: 0x0880
row_075: 0x8006
row_076: 0x4102
row_077: 0x2044
row_078: 0x8844
row_079: 0x0080
row_080: 0x8003
row_081: 0x4810
row_082: 0x00A2
row_083: 0x0100
row_084: 0xA000
row_085: 0x2C01
row_086: 0x8220
row_087: 0x8002
row_088: 0x00A8
row_089: 0x2600
row_090: 0x0006
row_091: 0x2800
row_092: 0x0840
row_093: 0x8400
row_094: 0x5280
row_095: 0x4008
row_096: 0x020E
row_097: 0x2401
row_098: 0x0E02
row_099: 0x2100
row_100: 0x0010
row_101: 0x00C6
row_102: 0x0A22
row_103: 0x2001
row_104: 0x8000
row_105: 0x4088
row_106: 0xE080
row_107: 0x0028
row_108: 0x0660
row_109: 0x00A0
row_110: 0x2C04
row_111: 0x0014
row_112: 0x0080
row_113: 0x0302
row_114: 0x008A
row_115: 0x0089
row_116: 0x0008
row_117: 0x1540
row_118: 0x8900
row_119: 0x1048
row_120: 0x0412
row_121: 0x8842
row_122: 0x0200
row_123: 0x0604
row_124: 0xC048
row_125: 0x0409
row_126: 0x2880
row_127: 0x000C
row_128: 0x9100
row_129: 0x0002
row_130: 0x0400
row_131: 0x2020
row_132: 0x0002
row_133: 0x0008
row_134: 0x4C00
row_135: 0x1400
row_136: 0x0240
row_137: 0x0288
row_138: 0x2804
row_139: 0x0008
row_140: 0x5020
row_141: 0xA001
row_142: 0x0020
row_143: 0x1001
row_144: 0x1000
row_145: 0x0010
row_146: 0x8000
row_147: 0x1000
row_148: 0x0200
row_149: 0x0220
row_150: 0x4500
row_151: 0x0040
row_152: 0x4010
row_153: 0x1000
row_154: 0x4000
row_155: 0x0010
row_156: 0x5000
row_157: 0x1200
row_158: 0x4080
row_159: 0x0080
row_160: 0x0406
row_161: 0x8400
row_162: 0x2108
row_163: 0x1080
row_164: 0x1880
row_165: 0x0002
row_166: 0x8000
row_167: 0x0202
row_168: 0x4800
row_169: 0x0040
row_170: 0x0001
row_171: 0x0508
row_172: 0x0070
row_173: 0x080C
row_174: 0x0001
row_175: 0x2000
row_176: 0xA040
row_177: 0x0840
row_178: 0x0080
row_179: 0x0200
row_180: 0x5001
row_181: 0x4000
row_182: 0x0104
row_183: 0x4004
row_184: 0x1000
row_185: 0x1060
row_186: 0x0800
row_187: 0x40A0
row_188: 0x0888
row_189: 0x6080
row_190: 0x0500
row_191: 0x0100
row_192: 0x0300
row_193: 0x0022
row_194: 0xC000
row_195: 0x3000
row_196: 0x0040
row_197: 0x0300
row_198: 0x0401
row_199: 0x1080
row_200: 0x4000
row_201: 0x8001
row_202: 0x0020
row_203: 0x0206
row_204: 0x0040
row_205: 0x2001
row_206: 0x000C
row_207: 0x0020
row_208: 0x2000
row_209: 0x0300
row_210: 0x0024
row_211: 0x1000
row_212: 0x0020
row_213: 0x0020
row_214: 0x0008
row_215: 0x0401
row_216: 0x8000
row_217: 0xA000
row_218: 0x9400
row_219: 0x4240
row_220: 0x0800
row_221: 0x0400
row_222: 0x0814
row_223: 0x2000
row_224: 0x2001
row_225: 0x0400
row_226: 0x2000
row_227: 0x0100
row_228: 0x0180
row_229: 0x0130
row_230: 0x0412
row_231: 0x0001
row_232: 0x1800
row_233: 0x0020
row_234: 0x0010
row_235: 0x0001
row_236: 0x0050
row_237: 0x8004
row_238: 0x2000
row_239: 0x0100
row_240: 0x8000
row_241: 0x000C
row_242: 0x0010
row_243: 0x8006
row_244: 0x0010
row_245: 0x8081
row_246: 0x8000
row_247: 0x0800
row_248: 0xA000
row_249: 0x0001
row_250: 0x4200
row_251: 0x6080
row_252: 0x2210
row_253: 0x0008
row_254: 0x9800
row_255: 0x2000
