// ProsperityHDL Tile Data (256x16)
// Format: 16-bit hex values, one per row
// Total rows: 256
// Generated from SDT CIFAR-10 data

row_000: 0x0001
row_001: 0x2000
row_002: 0x0202
row_003: 0x0402
row_004: 0x0480
row_005: 0x0020
row_006: 0x8000
row_007: 0x0004
row_008: 0x0002
row_009: 0x1000
row_010: 0x000A
row_011: 0x2000
row_012: 0x0080
row_013: 0x0001
row_014: 0x0006
row_015: 0x4000
row_016: 0x4002
row_017: 0x0044
row_018: 0x8800
row_019: 0x8000
row_020: 0x0800
row_021: 0x0020
row_022: 0x0C00
row_023: 0x8000
row_024: 0x0200
row_025: 0x2001
row_026: 0x0020
row_027: 0x0088
row_028: 0x5000
row_029: 0x0040
row_030: 0x2200
row_031: 0x0002
row_032: 0x2000
row_033: 0x0040
row_034: 0x0400
row_035: 0x0280
row_036: 0x0006
row_037: 0x0C00
row_038: 0x0084
row_039: 0x0202
row_040: 0x4080
row_041: 0x8080
row_042: 0x0020
row_043: 0x0060
row_044: 0x0100
row_045: 0x0004
row_046: 0x0400
row_047: 0x0002
row_048: 0x0002
row_049: 0x0081
row_050: 0x0004
row_051: 0x0440
row_052: 0x0008
row_053: 0x0402
row_054: 0x8002
row_055: 0x2000
row_056: 0x0404
row_057: 0x4040
row_058: 0x0408
row_059: 0x0880
row_060: 0x0008
row_061: 0x0080
row_062: 0x8080
row_063: 0x0001
row_064: 0x0201
row_065: 0x3000
row_066: 0x0206
row_067: 0x2402
row_068: 0x0588
row_069: 0x0022
row_070: 0x8400
row_071: 0x4004
row_072: 0x0022
row_073: 0x1100
row_074: 0x090A
row_075: 0x0004
row_076: 0x0004
row_077: 0x8003
row_078: 0x0046
row_079: 0x4002
row_080: 0x5402
row_081: 0x1844
row_082: 0xA808
row_083: 0x8002
row_084: 0x0810
row_085: 0x0420
row_086: 0x4C00
row_087: 0x8100
row_088: 0x00C1
row_089: 0x2089
row_090: 0x0021
row_091: 0x0100
row_092: 0x5840
row_093: 0x0048
row_094: 0x2202
row_095: 0x0042
row_096: 0x2900
row_097: 0x2040
row_098: 0x0422
row_099: 0x0A90
row_100: 0x4006
row_101: 0x0C08
row_102: 0xC084
row_103: 0x2202
row_104: 0x4680
row_105: 0x8881
row_106: 0x2030
row_107: 0x1060
row_108: 0x2000
row_109: 0x008C
row_110: 0x0404
row_111: 0x0902
row_112: 0x1202
row_113: 0x20C1
row_114: 0x0014
row_115: 0x1460
row_116: 0x0408
row_117: 0x0412
row_118: 0x0800
row_119: 0x2001
row_120: 0x0040
row_121: 0x6040
row_122: 0x4010
row_123: 0x08A0
row_124: 0xA008
row_125: 0x00C0
row_126: 0x0010
row_127: 0x2081
row_128: 0x0821
row_129: 0x0068
row_130: 0x4050
row_131: 0xA200
row_132: 0x0020
row_133: 0x0002
row_134: 0x0100
row_135: 0x1021
row_136: 0x4108
row_137: 0x0042
row_138: 0xC800
row_139: 0x0181
row_140: 0x0800
row_141: 0x1000
row_142: 0x1400
row_143: 0x0010
row_144: 0x8000
row_145: 0x1000
row_146: 0x0200
row_147: 0x0220
row_148: 0x4500
row_149: 0x0400
row_150: 0x0040
row_151: 0x4010
row_152: 0x1000
row_153: 0x4000
row_154: 0x5000
row_155: 0x1200
row_156: 0x4080
row_157: 0x0080
row_158: 0x0406
row_159: 0x8400
row_160: 0x2108
row_161: 0x1080
row_162: 0x1880
row_163: 0x0002
row_164: 0x0202
row_165: 0x4800
row_166: 0x0040
row_167: 0x0001
row_168: 0x0508
row_169: 0x2000
row_170: 0x0070
row_171: 0x080C
row_172: 0x0001
row_173: 0x2000
row_174: 0xA040
row_175: 0x0840
row_176: 0x0200
row_177: 0x5001
row_178: 0x4000
row_179: 0x0400
row_180: 0x0104
row_181: 0x4004
row_182: 0x0080
row_183: 0x1060
row_184: 0x40A0
row_185: 0x0020
row_186: 0x0004
row_187: 0x0888
row_188: 0x6080
row_189: 0x0500
row_190: 0x0100
row_191: 0x0300
row_192: 0x0022
row_193: 0xC000
row_194: 0x3000
row_195: 0x0402
row_196: 0x0040
row_197: 0x0020
row_198: 0x0300
row_199: 0x0401
row_200: 0x1080
row_201: 0x4000
row_202: 0x8001
row_203: 0x0020
row_204: 0x0206
row_205: 0x0001
row_206: 0x2001
row_207: 0x4000
row_208: 0x000C
row_209: 0x2000
row_210: 0x0300
row_211: 0x0024
row_212: 0x1000
row_213: 0x0020
row_214: 0x0020
row_215: 0x0008
row_216: 0x0200
row_217: 0x0401
row_218: 0x8000
row_219: 0xA000
row_220: 0x5000
row_221: 0x0040
row_222: 0x9400
row_223: 0x4240
row_224: 0x0800
row_225: 0x0400
row_226: 0x0814
row_227: 0x2000
row_228: 0x2001
row_229: 0x2000
row_230: 0x0180
row_231: 0x0130
row_232: 0x0412
row_233: 0x1800
row_234: 0x0020
row_235: 0x0010
row_236: 0x0001
row_237: 0x0050
row_238: 0x8004
row_239: 0x0100
row_240: 0x8000
row_241: 0x000C
row_242: 0x0010
row_243: 0x8006
row_244: 0x0010
row_245: 0x8081
row_246: 0x0800
row_247: 0xA000
row_248: 0x4200
row_249: 0x6080
row_250: 0x2210
row_251: 0x0008
row_252: 0x9800
row_253: 0x2000
row_254: 0x2041
row_255: 0x0100
