// ProsperityHDL Tile Data (256x16)
// Format: 16-bit hex values, one per row
// Total rows: 256
// Generated from SDT CIFAR-10 data

row_000: 0x0001
row_001: 0x2000
row_002: 0x0202
row_003: 0x0480
row_004: 0x8000
row_005: 0x0020
row_006: 0x0004
row_007: 0x0002
row_008: 0x1000
row_009: 0x000A
row_010: 0x2000
row_011: 0x0080
row_012: 0x0006
row_013: 0x4002
row_014: 0x0044
row_015: 0x8800
row_016: 0x8000
row_017: 0x0800
row_018: 0x0020
row_019: 0x0002
row_020: 0x0C00
row_021: 0x8000
row_022: 0x2001
row_023: 0x0020
row_024: 0x0088
row_025: 0x2200
row_026: 0x0002
row_027: 0x2000
row_028: 0x0040
row_029: 0x0400
row_030: 0x0280
row_031: 0x0006
row_032: 0x0C00
row_033: 0x0084
row_034: 0x0202
row_035: 0x4080
row_036: 0x8080
row_037: 0x0020
row_038: 0x0080
row_039: 0x0060
row_040: 0x0100
row_041: 0x0004
row_042: 0x0400
row_043: 0x0002
row_044: 0x0002
row_045: 0x2000
row_046: 0x0081
row_047: 0x0004
row_048: 0x0440
row_049: 0x0008
row_050: 0x0402
row_051: 0x8002
row_052: 0x2000
row_053: 0x0404
row_054: 0x4040
row_055: 0x0408
row_056: 0x0880
row_057: 0x0008
row_058: 0x0080
row_059: 0x8080
row_060: 0x0001
row_061: 0x0400
row_062: 0x0100
row_063: 0x8000
row_064: 0x1101
row_065: 0x3000
row_066: 0x1222
row_067: 0x8488
row_068: 0x9008
row_069: 0x0120
row_070: 0x4004
row_071: 0x0002
row_072: 0x0800
row_073: 0x080E
row_074: 0x1000
row_075: 0x0490
row_076: 0x2006
row_077: 0x4102
row_078: 0x044C
row_079: 0x8C00
row_080: 0xA000
row_081: 0x0880
row_082: 0x8020
row_083: 0x0003
row_084: 0x0C06
row_085: 0x8800
row_086: 0x2041
row_087: 0x1021
row_088: 0x5088
row_089: 0x2208
row_090: 0x0106
row_091: 0x0004
row_092: 0x2041
row_093: 0x0602
row_094: 0x4280
row_095: 0x008E
row_096: 0x0E10
row_097: 0x4084
row_098: 0x0212
row_099: 0xE080
row_100: 0x9080
row_101: 0x8000
row_102: 0x08A0
row_103: 0x2160
row_104: 0x8108
row_105: 0x0304
row_106: 0x0444
row_107: 0x000A
row_108: 0x0080
row_109: 0x2480
row_110: 0x0C81
row_111: 0x1044
row_112: 0x0448
row_113: 0x4048
row_114: 0x0602
row_115: 0x0200
row_116: 0x2808
row_117: 0x0405
row_118: 0x5040
row_119: 0x040C
row_120: 0x0980
row_121: 0x000C
row_122: 0x0480
row_123: 0x82C0
row_124: 0x0010
row_125: 0x0600
row_126: 0x0908
row_127: 0x0080
row_128: 0x0800
row_129: 0x0800
row_130: 0x8400
row_131: 0x0408
row_132: 0x0001
row_133: 0x0042
row_134: 0xC800
row_135: 0x0181
row_136: 0x0800
row_137: 0x0020
row_138: 0x1000
row_139: 0x1000
row_140: 0x1400
row_141: 0x0010
row_142: 0x8000
row_143: 0x1000
row_144: 0x0220
row_145: 0x4500
row_146: 0x0040
row_147: 0x4010
row_148: 0x1000
row_149: 0x4000
row_150: 0x5000
row_151: 0x1200
row_152: 0x4080
row_153: 0x0080
row_154: 0x0406
row_155: 0x8400
row_156: 0x2108
row_157: 0x1080
row_158: 0x1880
row_159: 0x0002
row_160: 0x0202
row_161: 0x4800
row_162: 0x0040
row_163: 0x0001
row_164: 0x0508
row_165: 0x0070
row_166: 0x080C
row_167: 0x0001
row_168: 0x2000
row_169: 0xA040
row_170: 0x0840
row_171: 0x0200
row_172: 0x5001
row_173: 0x0010
row_174: 0x4000
row_175: 0x0104
row_176: 0x4004
row_177: 0x1060
row_178: 0x40A0
row_179: 0x0040
row_180: 0x0888
row_181: 0x6080
row_182: 0x0500
row_183: 0x0100
row_184: 0x0300
row_185: 0x0022
row_186: 0xC000
row_187: 0x3000
row_188: 0x0040
row_189: 0x0300
row_190: 0x0401
row_191: 0x1080
row_192: 0x4000
row_193: 0x8001
row_194: 0x0020
row_195: 0x0206
row_196: 0x2001
row_197: 0x000C
row_198: 0x2000
row_199: 0x0300
row_200: 0x0024
row_201: 0x1000
row_202: 0x0020
row_203: 0x0020
row_204: 0x0008
row_205: 0x0401
row_206: 0x0100
row_207: 0x8000
row_208: 0xA000
row_209: 0x9400
row_210: 0x4240
row_211: 0x0800
row_212: 0x0400
row_213: 0x0814
row_214: 0x2000
row_215: 0x2001
row_216: 0x2000
row_217: 0x0180
row_218: 0x0130
row_219: 0x0412
row_220: 0x1800
row_221: 0x0020
row_222: 0x0010
row_223: 0x0001
row_224: 0x2000
row_225: 0x0050
row_226: 0x8004
row_227: 0x0100
row_228: 0x8000
row_229: 0x000C
row_230: 0x0010
row_231: 0x8006
row_232: 0x0010
row_233: 0x8081
row_234: 0x0800
row_235: 0xA000
row_236: 0x0800
row_237: 0x4200
row_238: 0x6080
row_239: 0x2210
row_240: 0x0008
row_241: 0x9800
row_242: 0x2000
row_243: 0x2041
row_244: 0x0100
row_245: 0x0850
row_246: 0x0004
row_247: 0x00B0
row_248: 0x0200
row_249: 0x2200
row_250: 0x0620
row_251: 0x0200
row_252: 0x0442
row_253: 0x0110
row_254: 0x4400
row_255: 0x0010
