// ProsperityHDL Tile Data (256x16)
// Format: 16-bit hex values, one per row
// Total rows: 256
// Generated from SDT CIFAR-10 data

row_000: 0x0001
row_001: 0x2000
row_002: 0x0001
row_003: 0x0200
row_004: 0x0202
row_005: 0x0480
row_006: 0x8000
row_007: 0x0004
row_008: 0x0002
row_009: 0x1000
row_010: 0x000A
row_011: 0x2000
row_012: 0x0080
row_013: 0x0006
row_014: 0x4002
row_015: 0x0044
row_016: 0x0100
row_017: 0x8800
row_018: 0x0400
row_019: 0x0200
row_020: 0x8000
row_021: 0x0800
row_022: 0x0400
row_023: 0x0020
row_024: 0x0C00
row_025: 0x8000
row_026: 0x2001
row_027: 0x0020
row_028: 0x0088
row_029: 0x2200
row_030: 0x0002
row_031: 0x2000
row_032: 0x0040
row_033: 0x0400
row_034: 0x0280
row_035: 0x0006
row_036: 0x0C00
row_037: 0x0084
row_038: 0x0202
row_039: 0x4080
row_040: 0x4000
row_041: 0x8080
row_042: 0x0020
row_043: 0x0060
row_044: 0x2000
row_045: 0x0100
row_046: 0x0004
row_047: 0x0400
row_048: 0x0100
row_049: 0x0002
row_050: 0x0002
row_051: 0x0081
row_052: 0x0004
row_053: 0x0440
row_054: 0x0008
row_055: 0x8000
row_056: 0x0402
row_057: 0x8002
row_058: 0x2000
row_059: 0x0404
row_060: 0x4040
row_061: 0x0008
row_062: 0x0408
row_063: 0x0880
row_064: 0x0040
row_065: 0x2008
row_066: 0x0101
row_067: 0x8000
row_068: 0x2212
row_069: 0x0481
row_070: 0x4000
row_071: 0x4000
row_072: 0x0022
row_073: 0x1004
row_074: 0x000E
row_075: 0x2140
row_076: 0x0180
row_077: 0x000E
row_078: 0x4802
row_079: 0x8044
row_080: 0x0110
row_081: 0x8A00
row_082: 0x2404
row_083: 0x0203
row_084: 0xA010
row_085: 0x0842
row_086: 0x4400
row_087: 0x0860
row_088: 0x0C20
row_089: 0x8202
row_090: 0x2021
row_091: 0x0420
row_092: 0x4088
row_093: 0x2300
row_094: 0x008A
row_095: 0x2001
row_096: 0x8840
row_097: 0x0408
row_098: 0x0382
row_099: 0x1206
row_100: 0x0E02
row_101: 0x4084
row_102: 0x8000
row_103: 0x40A2
row_104: 0xC400
row_105: 0x2000
row_106: 0x0030
row_107: 0x10E0
row_108: 0xA000
row_109: 0x0400
row_110: 0x0014
row_111: 0x0580
row_112: 0x01C0
row_113: 0x0001
row_114: 0x0442
row_115: 0x2081
row_116: 0x0004
row_117: 0x0448
row_118: 0x2008
row_119: 0x8102
row_120: 0x0004
row_121: 0x8202
row_122: 0x2204
row_123: 0x0405
row_124: 0xC060
row_125: 0x0408
row_126: 0x0418
row_127: 0x0881
row_128: 0x5100
row_129: 0x0800
row_130: 0x5000
row_131: 0x0C40
row_132: 0x2040
row_133: 0x0821
row_134: 0x0068
row_135: 0x4050
row_136: 0x0002
row_137: 0xA200
row_138: 0x1021
row_139: 0x4108
row_140: 0x0042
row_141: 0xC800
row_142: 0x0181
row_143: 0x0800
row_144: 0x1000
row_145: 0x0001
row_146: 0x1400
row_147: 0x0010
row_148: 0x8000
row_149: 0x1000
row_150: 0x0220
row_151: 0x4500
row_152: 0x0040
row_153: 0x4010
row_154: 0x8000
row_155: 0x1000
row_156: 0x4000
row_157: 0x0002
row_158: 0x5000
row_159: 0x1200
row_160: 0x4080
row_161: 0x0080
row_162: 0x0406
row_163: 0x8400
row_164: 0x2108
row_165: 0x1080
row_166: 0x4000
row_167: 0x1880
row_168: 0x0002
row_169: 0x0202
row_170: 0x4800
row_171: 0x0040
row_172: 0x0800
row_173: 0x0001
row_174: 0x0508
row_175: 0x0004
row_176: 0x0070
row_177: 0x080C
row_178: 0x0001
row_179: 0x2000
row_180: 0xA040
row_181: 0x0840
row_182: 0x0200
row_183: 0x5001
row_184: 0x4000
row_185: 0x0104
row_186: 0x4004
row_187: 0x1060
row_188: 0x40A0
row_189: 0x0888
row_190: 0x6080
row_191: 0x0500
row_192: 0x0100
row_193: 0x0300
row_194: 0x0001
row_195: 0x0200
row_196: 0x0022
row_197: 0xC000
row_198: 0x3000
row_199: 0x0040
row_200: 0x0300
row_201: 0x0401
row_202: 0x1080
row_203: 0x4000
row_204: 0x8001
row_205: 0x0020
row_206: 0x0206
row_207: 0x2001
row_208: 0x0100
row_209: 0x000C
row_210: 0x0400
row_211: 0x2000
row_212: 0x0300
row_213: 0x0024
row_214: 0x0400
row_215: 0x1000
row_216: 0x0020
row_217: 0x0020
row_218: 0x0008
row_219: 0x0401
row_220: 0x8000
row_221: 0xA000
row_222: 0x9400
row_223: 0x4240
row_224: 0x0800
row_225: 0x0400
row_226: 0x0814
row_227: 0x2000
row_228: 0x2001
row_229: 0x2000
row_230: 0x0180
row_231: 0x0130
row_232: 0x4000
row_233: 0x0412
row_234: 0x1800
row_235: 0x0020
row_236: 0x2000
row_237: 0x0010
row_238: 0x0001
row_239: 0x0050
row_240: 0x0100
row_241: 0x8004
row_242: 0x0100
row_243: 0x8000
row_244: 0x000C
row_245: 0x0010
row_246: 0x8006
row_247: 0x8000
row_248: 0x0010
row_249: 0x8081
row_250: 0x0800
row_251: 0xA000
row_252: 0x4200
row_253: 0x0008
row_254: 0x6080
row_255: 0x2210
