// ProsperityHDL Tile Data (256x16)
// Format: 16-bit hex values, one per row
// Total rows: 256
// Generated from SDT CIFAR-10 data

row_000: 0x0001
row_001: 0x2000
row_002: 0x0202
row_003: 0x0480
row_004: 0x8000
row_005: 0x0004
row_006: 0x0002
row_007: 0x1000
row_008: 0x000A
row_009: 0x2000
row_010: 0x0080
row_011: 0x0006
row_012: 0x4002
row_013: 0x0044
row_014: 0x8800
row_015: 0x8000
row_016: 0x0800
row_017: 0x0020
row_018: 0x0C00
row_019: 0x8000
row_020: 0x2001
row_021: 0x0020
row_022: 0x0088
row_023: 0x2200
row_024: 0x0002
row_025: 0x2000
row_026: 0x0040
row_027: 0x0400
row_028: 0x0280
row_029: 0x0006
row_030: 0x0C00
row_031: 0x0084
row_032: 0x0202
row_033: 0x4080
row_034: 0x8080
row_035: 0x0020
row_036: 0x0060
row_037: 0x0100
row_038: 0x0004
row_039: 0x0400
row_040: 0x0002
row_041: 0x0002
row_042: 0x0081
row_043: 0x0004
row_044: 0x0440
row_045: 0x0008
row_046: 0x0402
row_047: 0x8002
row_048: 0x2000
row_049: 0x0404
row_050: 0x4040
row_051: 0x0408
row_052: 0x0880
row_053: 0x0008
row_054: 0x0080
row_055: 0x8080
row_056: 0x0001
row_057: 0x0400
row_058: 0x0100
row_059: 0x8000
row_060: 0x8008
row_061: 0x000A
row_062: 0x0A00
row_063: 0x0800
row_064: 0x0021
row_065: 0x2100
row_066: 0x0A82
row_067: 0x0483
row_068: 0xA010
row_069: 0x0086
row_070: 0x4002
row_071: 0x1420
row_072: 0x008A
row_073: 0x2202
row_074: 0x0090
row_075: 0x0806
row_076: 0x6002
row_077: 0x0444
row_078: 0x8A02
row_079: 0x8001
row_080: 0x0910
row_081: 0x0028
row_082: 0x0C02
row_083: 0x8020
row_084: 0x2601
row_085: 0x1420
row_086: 0x008A
row_087: 0x2300
row_088: 0x8802
row_089: 0x2010
row_090: 0x0860
row_091: 0x8400
row_092: 0x2280
row_093: 0x0C06
row_094: 0x1C01
row_095: 0x40A4
row_096: 0x1202
row_097: 0x4884
row_098: 0x8084
row_099: 0x0920
row_100: 0x0C60
row_101: 0x1120
row_102: 0x0014
row_103: 0x4420
row_104: 0x0402
row_105: 0x8002
row_106: 0x0483
row_107: 0x4084
row_108: 0x0460
row_109: 0xA008
row_110: 0x0602
row_111: 0xA042
row_112: 0x2200
row_113: 0x0454
row_114: 0x6040
row_115: 0x0C88
row_116: 0x08B0
row_117: 0x0208
row_118: 0x80A0
row_119: 0x88A0
row_120: 0x1001
row_121: 0x0420
row_122: 0x4101
row_123: 0x8100
row_124: 0x8048
row_125: 0x400A
row_126: 0x0B00
row_127: 0x0A02
row_128: 0x0030
row_129: 0x0100
row_130: 0x0080
row_131: 0x0248
row_132: 0x4410
row_133: 0x0800
row_134: 0x4018
row_135: 0x1200
row_136: 0x4080
row_137: 0x0080
row_138: 0x0406
row_139: 0x8400
row_140: 0x2108
row_141: 0x1080
row_142: 0x1880
row_143: 0x0002
row_144: 0x0202
row_145: 0x4800
row_146: 0x0040
row_147: 0x0001
row_148: 0x0508
row_149: 0x0070
row_150: 0x080C
row_151: 0x0001
row_152: 0x2000
row_153: 0xA040
row_154: 0x0840
row_155: 0x0200
row_156: 0x5001
row_157: 0x4000
row_158: 0x0104
row_159: 0x4004
row_160: 0x1060
row_161: 0x40A0
row_162: 0x0888
row_163: 0x6080
row_164: 0x0500
row_165: 0x0100
row_166: 0x0300
row_167: 0x0022
row_168: 0xC000
row_169: 0x3000
row_170: 0x0040
row_171: 0x0300
row_172: 0x0401
row_173: 0x1080
row_174: 0x4000
row_175: 0x8001
row_176: 0x0020
row_177: 0x0206
row_178: 0x2001
row_179: 0x000C
row_180: 0x2000
row_181: 0x0300
row_182: 0x0024
row_183: 0x1000
row_184: 0x0020
row_185: 0x0020
row_186: 0x0008
row_187: 0x0401
row_188: 0x8000
row_189: 0xA000
row_190: 0x9400
row_191: 0x4240
row_192: 0x0800
row_193: 0x0400
row_194: 0x0814
row_195: 0x2000
row_196: 0x2001
row_197: 0x2000
row_198: 0x0002
row_199: 0x0180
row_200: 0x0130
row_201: 0x0412
row_202: 0x1800
row_203: 0x0020
row_204: 0x0010
row_205: 0x0001
row_206: 0x0050
row_207: 0x8004
row_208: 0x0100
row_209: 0x8000
row_210: 0x000C
row_211: 0x0010
row_212: 0x8006
row_213: 0x0010
row_214: 0x8081
row_215: 0x0800
row_216: 0xA000
row_217: 0x4200
row_218: 0x6080
row_219: 0x2210
row_220: 0x0008
row_221: 0x9800
row_222: 0x2000
row_223: 0x2041
row_224: 0x0100
row_225: 0x0850
row_226: 0x00B0
row_227: 0x0200
row_228: 0x2200
row_229: 0x0620
row_230: 0x0200
row_231: 0x0442
row_232: 0x0110
row_233: 0x4400
row_234: 0x0010
row_235: 0x0800
row_236: 0x000E
row_237: 0x1022
row_238: 0x0002
row_239: 0x01C0
row_240: 0x1001
row_241: 0x2001
row_242: 0x1008
row_243: 0x2A00
row_244: 0x0010
row_245: 0x0200
row_246: 0x20C0
row_247: 0x4060
row_248: 0x5001
row_249: 0x2044
row_250: 0x0008
row_251: 0x1002
row_252: 0x8240
row_253: 0x0080
row_254: 0x6200
row_255: 0xC010
