// ProSparsity Hardware Test Data (256 neurons × 16 timesteps)
// Format: 16-bit hex values, one per neuron row
// Total neurons: 256
// Raw spike data for ProSparsity reuse detection

neuron_000: 0x0000
neuron_001: 0x2903
neuron_002: 0x0C02
neuron_003: 0x9880
neuron_004: 0x4010
neuron_005: 0x5004
neuron_006: 0x4240
neuron_007: 0x18A0
neuron_008: 0x6040
neuron_009: 0x8A02
neuron_010: 0x0803
neuron_011: 0x0610
neuron_012: 0x1000
neuron_013: 0x2080
neuron_014: 0x2404
neuron_015: 0x00C8
neuron_016: 0x8010
neuron_017: 0x2080
neuron_018: 0x0B31
neuron_019: 0x2900
neuron_020: 0x0212
neuron_021: 0x0302
neuron_022: 0x0002
neuron_023: 0x0482
neuron_024: 0x1080
neuron_025: 0x0802
neuron_026: 0x0800
neuron_027: 0x80C9
neuron_028: 0x0010
neuron_029: 0x4000
neuron_030: 0x4240
neuron_031: 0x00A5
neuron_032: 0x7000
neuron_033: 0x9002
neuron_034: 0x0A03
neuron_035: 0x0400
neuron_036: 0x1000
neuron_037: 0x0006
neuron_038: 0x0404
neuron_039: 0x0900
neuron_040: 0x4291
neuron_041: 0x4080
neuron_042: 0x0A01
neuron_043: 0x0930
neuron_044: 0x0202
neuron_045: 0x0048
neuron_046: 0x0001
neuron_047: 0x0402
neuron_048: 0x3080
neuron_049: 0x0812
neuron_050: 0x0042
neuron_051: 0x8081
neuron_052: 0x0012
neuron_053: 0x5000
neuron_054: 0x0240
neuron_055: 0x00A6
neuron_056: 0x2C00
neuron_057: 0x1000
neuron_058: 0x4030
neuron_059: 0x0400
neuron_060: 0x1048
neuron_061: 0x2042
neuron_062: 0x4010
neuron_063: 0x0808
neuron_064: 0x08F0
neuron_065: 0x2410
neuron_066: 0x0824
neuron_067: 0x5900
neuron_068: 0x8000
neuron_069: 0x0008
neuron_070: 0x080E
neuron_071: 0x8100
neuron_072: 0x3400
neuron_073: 0x2833
neuron_074: 0x2610
neuron_075: 0xC0B9
neuron_076: 0x731A
neuron_077: 0x1220
neuron_078: 0x8250
neuron_079: 0x0909
neuron_080: 0x3C00
neuron_081: 0x9302
neuron_082: 0x01A4
neuron_083: 0x4436
neuron_084: 0x0048
neuron_085: 0x00CA
neuron_086: 0x201C
neuron_087: 0x8048
neuron_088: 0x0250
neuron_089: 0x8418
neuron_090: 0x0896
neuron_091: 0x1B08
neuron_092: 0x0043
neuron_093: 0x2A0C
neuron_094: 0x0A06
neuron_095: 0x1100
neuron_096: 0x0600
neuron_097: 0x99B1
neuron_098: 0x2212
neuron_099: 0xC0B0
neuron_100: 0x1258
neuron_101: 0x1A50
neuron_102: 0xC240
neuron_103: 0x080B
neuron_104: 0x2040
neuron_105: 0xD306
neuron_106: 0x0084
neuron_107: 0x063C
neuron_108: 0x00D0
neuron_109: 0x00C9
neuron_110: 0x301C
neuron_111: 0x80C0
neuron_112: 0x2248
neuron_113: 0x1488
neuron_114: 0x0C3A
neuron_115: 0xC040
neuron_116: 0x0003
neuron_117: 0x2B14
neuron_118: 0x4804
neuron_119: 0x1502
neuron_120: 0x4002
neuron_121: 0x1091
neuron_122: 0x2810
neuron_123: 0x8008
neuron_124: 0x1011
neuron_125: 0x1001
neuron_126: 0x4001
neuron_127: 0x0042
neuron_128: 0x0500
neuron_129: 0x8204
neuron_130: 0x0080
neuron_131: 0x0644
neuron_132: 0x0220
neuron_133: 0x2109
neuron_134: 0x0088
neuron_135: 0x1280
neuron_136: 0x220A
neuron_137: 0x0080
neuron_138: 0x0518
neuron_139: 0x4000
neuron_140: 0x0082
neuron_141: 0x0814
neuron_142: 0xA802
neuron_143: 0x0500
neuron_144: 0x0C00
neuron_145: 0x2981
neuron_146: 0x2000
neuron_147: 0x8891
neuron_148: 0x1252
neuron_149: 0x1010
neuron_150: 0xC201
neuron_151: 0x0181
neuron_152: 0x2440
neuron_153: 0x9502
neuron_154: 0x2000
neuron_155: 0x0750
neuron_156: 0x5060
neuron_157: 0x2080
neuron_158: 0x0084
neuron_159: 0x00D0
neuron_160: 0x8240
neuron_161: 0x2082
neuron_162: 0x1933
neuron_163: 0x2320
neuron_164: 0x0942
neuron_165: 0x0104
neuron_166: 0xC802
neuron_167: 0x0500
neuron_168: 0x0400
neuron_169: 0x0921
neuron_170: 0x6200
neuron_171: 0x80F0
neuron_172: 0x0242
neuron_173: 0x5011
neuron_174: 0xC201
neuron_175: 0x0181
neuron_176: 0x2000
neuron_177: 0x9102
neuron_178: 0x0001
neuron_179: 0x0712
neuron_180: 0x0480
neuron_181: 0x2082
neuron_182: 0x0014
neuron_183: 0x00D0
neuron_184: 0x0040
neuron_185: 0x4080
neuron_186: 0x1013
neuron_187: 0x2320
neuron_188: 0x0440
neuron_189: 0x2104
neuron_190: 0x0800
neuron_191: 0x0000
neuron_192: 0x0C00
neuron_193: 0x6802
neuron_194: 0x2901
neuron_195: 0x80C2
neuron_196: 0x0414
neuron_197: 0x0001
neuron_198: 0x6A41
neuron_199: 0x90E8
neuron_200: 0x4480
neuron_201: 0xCE00
neuron_202: 0xC021
neuron_203: 0x0400
neuron_204: 0x7050
neuron_205: 0x2000
neuron_206: 0x8428
neuron_207: 0x4109
neuron_208: 0x0052
neuron_209: 0x0880
neuron_210: 0x4822
neuron_211: 0x2A00
neuron_212: 0x0310
neuron_213: 0x80C5
neuron_214: 0x0802
neuron_215: 0x0100
neuron_216: 0x0000
neuron_217: 0x6803
neuron_218: 0x0911
neuron_219: 0x80C1
neuron_220: 0x0010
neuron_221: 0x0004
neuron_222: 0x4240
neuron_223: 0x08AD
neuron_224: 0x4080
neuron_225: 0x9E08
neuron_226: 0x0484
neuron_227: 0x2608
neuron_228: 0x0000
neuron_229: 0x2082
neuron_230: 0xA410
neuron_231: 0x1040
neuron_232: 0x021B
neuron_233: 0x0180
neuron_234: 0x3801
neuron_235: 0x0908
neuron_236: 0x4212
neuron_237: 0x0340
neuron_238: 0x0800
neuron_239: 0x0000
neuron_240: 0x3200
neuron_241: 0x0812
neuron_242: 0x2102
neuron_243: 0xC009
neuron_244: 0x2212
neuron_245: 0x0000
neuron_246: 0x0200
neuron_247: 0x10A4
neuron_248: 0x3C10
neuron_249: 0x1401
neuron_250: 0x2480
neuron_251: 0x2408
neuron_252: 0x0048
neuron_253: 0x0042
neuron_254: 0xE110
neuron_255: 0x1088
