// ProsperityHDL Tile Data (256x16)
// Format: 16-bit hex values, one per row
// Total rows: 256
// Generated from SDT CIFAR-10 data

row_000: 0x0001
row_001: 0x0803
row_002: 0x0800
row_003: 0x9080
row_004: 0x4010
row_005: 0x5000
row_006: 0x4240
row_007: 0x10A0
row_008: 0x6000
row_009: 0x8200
row_010: 0x0001
row_011: 0x0400
row_012: 0x1000
row_013: 0x2000
row_014: 0x0400
row_015: 0x0080
row_016: 0x0010
row_017: 0x2080
row_018: 0x0B01
row_019: 0x2900
row_020: 0x0202
row_021: 0x2000
row_022: 0x0002
row_023: 0x0402
row_024: 0x0080
row_025: 0x0802
row_026: 0x0800
row_027: 0x80C9
row_028: 0x0010
row_029: 0x4000
row_030: 0x4240
row_031: 0x00A4
row_032: 0x7000
row_033: 0x9000
row_034: 0x0803
row_035: 0x0400
row_036: 0x1000
row_037: 0x0006
row_038: 0x0400
row_039: 0x0900
row_040: 0x4091
row_041: 0x4080
row_042: 0x0A01
row_043: 0x0920
row_044: 0x0200
row_045: 0x0008
row_046: 0x0001
row_047: 0x0402
row_048: 0x2080
row_049: 0x0812
row_050: 0x0042
row_051: 0x8081
row_052: 0x0012
row_053: 0x5000
row_054: 0x0040
row_055: 0x00A6
row_056: 0x2C00
row_057: 0x1000
row_058: 0x0030
row_059: 0x0400
row_060: 0x0048
row_061: 0x0042
row_062: 0x4010
row_063: 0x0808
row_064: 0x08F0
row_065: 0x2410
row_066: 0x0804
row_067: 0x5900
row_068: 0x8000
row_069: 0x0008
row_070: 0x080E
row_071: 0x8100
row_072: 0x2400
row_073: 0x0832
row_074: 0x0010
row_075: 0xC089
row_076: 0x401A
row_077: 0x1000
row_078: 0x0240
row_079: 0x0482
row_080: 0x3C00
row_081: 0x0300
row_082: 0x00A0
row_083: 0x0404
row_084: 0x0048
row_085: 0x0042
row_086: 0x2008
row_087: 0x0008
row_088: 0x0010
row_089: 0x8418
row_090: 0x0884
row_091: 0x1B00
row_092: 0x0001
row_093: 0x0A08
row_094: 0x0806
row_095: 0x0100
row_096: 0x0400
row_097: 0x80B0
row_098: 0x0010
row_099: 0xC080
row_100: 0x0018
row_101: 0x1840
row_102: 0x4240
row_103: 0x0002
row_104: 0x4193
row_105: 0xC304
row_106: 0x0080
row_107: 0x040C
row_108: 0x0050
row_109: 0x0049
row_110: 0x3018
row_111: 0x0080
row_112: 0x2008
row_113: 0x1488
row_114: 0x0C08
row_115: 0xC000
row_116: 0x0003
row_117: 0x0B14
row_118: 0x0004
row_119: 0x0500
row_120: 0x3C00
row_121: 0x0091
row_122: 0x2810
row_123: 0x8000
row_124: 0x1010
row_125: 0x1001
row_126: 0x4001
row_127: 0x0002
row_128: 0x0400
row_129: 0x0204
row_130: 0x1104
row_131: 0x0444
row_132: 0x0220
row_133: 0x2009
row_134: 0x0088
row_135: 0x1280
row_136: 0x2208
row_137: 0x0080
row_138: 0x0508
row_139: 0x4000
row_140: 0x0082
row_141: 0x0814
row_142: 0x2802
row_143: 0x0500
row_144: 0x0800
row_145: 0x2881
row_146: 0x2000
row_147: 0x8080
row_148: 0x1012
row_149: 0x0026
row_150: 0x4201
row_151: 0x0180
row_152: 0x0400
row_153: 0x0500
row_154: 0x2000
row_155: 0x0550
row_156: 0x5060
row_157: 0x2000
row_158: 0x0080
row_159: 0x0090
row_160: 0x8200
row_161: 0x2082
row_162: 0x1901
row_163: 0x2320
row_164: 0x0902
row_165: 0x0004
row_166: 0x0002
row_167: 0x0500
row_168: 0x5200
row_169: 0x0801
row_170: 0x2000
row_171: 0x80C0
row_172: 0x0002
row_173: 0x4001
row_174: 0x0201
row_175: 0x0180
row_176: 0x020A
row_177: 0x0100
row_178: 0x0001
row_179: 0x0500
row_180: 0x0400
row_181: 0x2002
row_182: 0x0812
row_183: 0x0090
row_184: 0x0281
row_185: 0x4080
row_186: 0x1001
row_187: 0x2320
row_188: 0x0006
row_189: 0x0004
row_190: 0x4002
row_191: 0x2050
row_192: 0x0C00
row_193: 0x6802
row_194: 0x0901
row_195: 0x80C0
row_196: 0x0410
row_197: 0x0001
row_198: 0x6240
row_199: 0x90E8
row_200: 0x4480
row_201: 0x8600
row_202: 0x0001
row_203: 0x0400
row_204: 0x2010
row_205: 0x0100
row_206: 0x8428
row_207: 0x0001
row_208: 0x0012
row_209: 0x0880
row_210: 0x4802
row_211: 0x2800
row_212: 0x0300
row_213: 0x8041
row_214: 0x0802
row_215: 0x0100
row_216: 0x0104
row_217: 0x4802
row_218: 0x0911
row_219: 0x80C1
row_220: 0x0010
row_221: 0x9010
row_222: 0x4240
row_223: 0x00AC
row_224: 0x4080
row_225: 0x9C00
row_226: 0x0480
row_227: 0x2408
row_228: 0x1030
row_229: 0x2002
row_230: 0xA410
row_231: 0x1000
row_232: 0x0013
row_233: 0x0080
row_234: 0x3801
row_235: 0x0900
row_236: 0x0202
row_237: 0x0140
row_238: 0x0800
row_239: 0x1030
row_240: 0x3200
row_241: 0x0812
row_242: 0x0102
row_243: 0x8009
row_244: 0x0212
row_245: 0x8000
row_246: 0x4001
row_247: 0x10A4
row_248: 0x3C10
row_249: 0x1400
row_250: 0x2480
row_251: 0x2408
row_252: 0x0048
row_253: 0x0042
row_254: 0xE110
row_255: 0x1088
