// ProsperityHDL Tile Data (256x16)
// Format: 16-bit hex values, one per row
// Total rows: 256
// Generated from SDT CIFAR-10 data

row_000: 0x0001
row_001: 0x2000
row_002: 0x0202
row_003: 0x0480
row_004: 0x0004
row_005: 0x8000
row_006: 0x0004
row_007: 0x0002
row_008: 0x0800
row_009: 0x1000
row_010: 0x8000
row_011: 0x000A
row_012: 0x0002
row_013: 0x2000
row_014: 0x0004
row_015: 0x0010
row_016: 0x0080
row_017: 0x2000
row_018: 0x0006
row_019: 0x4002
row_020: 0x0100
row_021: 0x0044
row_022: 0x8800
row_023: 0x2000
row_024: 0x8000
row_025: 0x0800
row_026: 0x0020
row_027: 0x4000
row_028: 0x0C00
row_029: 0x0004
row_030: 0x8000
row_031: 0x2001
row_032: 0x0020
row_033: 0x0088
row_034: 0x1000
row_035: 0x0004
row_036: 0x0900
row_037: 0x1000
row_038: 0x0200
row_039: 0x2200
row_040: 0x0002
row_041: 0x2000
row_042: 0x0040
row_043: 0x0400
row_044: 0x0280
row_045: 0x0006
row_046: 0x0010
row_047: 0x0400
row_048: 0x0C00
row_049: 0x0084
row_050: 0x0202
row_051: 0x4080
row_052: 0x0020
row_053: 0x0004
row_054: 0x8080
row_055: 0x0020
row_056: 0x0060
row_057: 0x0100
row_058: 0x0004
row_059: 0x0400
row_060: 0x0040
row_061: 0x0002
row_062: 0x0002
row_063: 0x0081
row_064: 0x0009
row_065: 0x3040
row_066: 0x0203
row_067: 0x1480
row_068: 0x0100
row_069: 0x8044
row_070: 0x1004
row_071: 0x0302
row_072: 0x0824
row_073: 0x9040
row_074: 0x8048
row_075: 0x020A
row_076: 0x0006
row_077: 0x0102
row_078: 0x0104
row_079: 0x8080
row_080: 0x0090
row_081: 0x8000
row_082: 0x4806
row_083: 0x4013
row_084: 0x0300
row_085: 0x0144
row_086: 0x8802
row_087: 0x2400
row_088: 0x8080
row_089: 0x1810
row_090: 0x002A
row_091: 0x5008
row_092: 0x0C20
row_093: 0x4004
row_094: 0x8402
row_095: 0x2421
row_096: 0x00A0
row_097: 0x4088
row_098: 0x1420
row_099: 0x0044
row_100: 0x0D02
row_101: 0x1010
row_102: 0x0600
row_103: 0x6200
row_104: 0x0202
row_105: 0x0080
row_106: 0x00C4
row_107: 0x0401
row_108: 0x22C0
row_109: 0x0026
row_110: 0x0012
row_111: 0x0420
row_112: 0x0F00
row_113: 0x5084
row_114: 0x8206
row_115: 0x4280
row_116: 0x8820
row_117: 0x0024
row_118: 0x88A0
row_119: 0x8020
row_120: 0x2060
row_121: 0x0920
row_122: 0x1084
row_123: 0x8408
row_124: 0x0340
row_125: 0x008A
row_126: 0x000A
row_127: 0x1281
row_128: 0x3200
row_129: 0x3040
row_130: 0x0001
row_131: 0x2020
row_132: 0x3400
row_133: 0x0088
row_134: 0x8010
row_135: 0x1006
row_136: 0x0008
row_137: 0x0A04
row_138: 0x0200
row_139: 0x0109
row_140: 0x4C00
row_141: 0x1400
row_142: 0x0240
row_143: 0x0288
row_144: 0x2804
row_145: 0x0008
row_146: 0x5020
row_147: 0xA001
row_148: 0x0020
row_149: 0x1001
row_150: 0x1000
row_151: 0x0010
row_152: 0x0008
row_153: 0x8000
row_154: 0x1000
row_155: 0x0220
row_156: 0x4500
row_157: 0x0040
row_158: 0x4010
row_159: 0x1000
row_160: 0x4000
row_161: 0x5000
row_162: 0x1200
row_163: 0x4080
row_164: 0x0080
row_165: 0x0004
row_166: 0x0406
row_167: 0x8400
row_168: 0x2108
row_169: 0x1080
row_170: 0x1880
row_171: 0x0002
row_172: 0x0202
row_173: 0x4800
row_174: 0x0040
row_175: 0x0001
row_176: 0x0508
row_177: 0x0070
row_178: 0x080C
row_179: 0x0001
row_180: 0x2000
row_181: 0xA040
row_182: 0x0840
row_183: 0x0200
row_184: 0x5001
row_185: 0x4000
row_186: 0x0104
row_187: 0x4004
row_188: 0x0001
row_189: 0x1060
row_190: 0x40A0
row_191: 0x0888
row_192: 0x6080
row_193: 0x0500
row_194: 0x0100
row_195: 0x0300
row_196: 0x0022
row_197: 0xC000
row_198: 0x3000
row_199: 0x0040
row_200: 0x0300
row_201: 0x0401
row_202: 0x1080
row_203: 0x4000
row_204: 0x8001
row_205: 0x0020
row_206: 0x0206
row_207: 0x2001
row_208: 0x000C
row_209: 0x2000
row_210: 0x0300
row_211: 0x0024
row_212: 0x1000
row_213: 0x0020
row_214: 0x0020
row_215: 0x0008
row_216: 0x0401
row_217: 0x8000
row_218: 0xA000
row_219: 0x9400
row_220: 0x4240
row_221: 0x0800
row_222: 0x0400
row_223: 0x0814
row_224: 0x2000
row_225: 0x2001
row_226: 0x2000
row_227: 0x0180
row_228: 0x0130
row_229: 0x0412
row_230: 0x1800
row_231: 0x0020
row_232: 0x0010
row_233: 0x0001
row_234: 0x0050
row_235: 0x8004
row_236: 0x0100
row_237: 0x8000
row_238: 0x000C
row_239: 0x0010
row_240: 0x8006
row_241: 0x0010
row_242: 0x8081
row_243: 0x0800
row_244: 0xA000
row_245: 0x4200
row_246: 0x6080
row_247: 0x2210
row_248: 0x0008
row_249: 0x9800
row_250: 0x2000
row_251: 0x2041
row_252: 0x0100
row_253: 0x0010
row_254: 0x1000
row_255: 0x8010
